{
  "version": "1.0",
  "truncation": null,
  "padding": null,
  "added_tokens": [
    {
      "id": 0,
      "content": "<UNK>",
      "single_word": false,
      "lstrip": false,
      "rstrip": false,
      "normalized": false,
      "special": true
    },
    {
      "id": 1,
      "content": "<PAD>",
      "single_word": false,
      "lstrip": false,
      "rstrip": false,
      "normalized": false,
      "special": true
    },
    {
      "id": 2,
      "content": "<BOS>",
      "single_word": false,
      "lstrip": false,
      "rstrip": false,
      "normalized": false,
      "special": true
    },
    {
      "id": 3,
      "content": "<EOS>",
      "single_word": false,
      "lstrip": false,
      "rstrip": false,
      "normalized": false,
      "special": true
    }
  ],
  "normalizer": null,
  "pre_tokenizer": {
    "type": "Metaspace",
    "replacement": "\u2581",
    "prepend_scheme": "always",
    "split": true
  },
  "decoder": null,
  "model": {
    "type": "BPE",
    "dropout": null,
    "unk_token": "<UNK>",
    "continuing_subword_prefix": null,
    "end_of_word_suffix": null,
    "fuse_unk": false,
    "byte_fallback": false,
    "ignore_merges": false,
    "vocab": {
      "<UNK>": 0,
      "<PAD>": 1,
      "<BOS>": 2,
      "<EOS>": 3,
      "\u2581": 4,
      "Z": 5,
      "a": 6,
      "t": 7,
      "u": 8,
      "r": 9,
      "n": 10,
      "h": 11,
      "B": 12,
      "g": 13,
      "i": 14,
      "l": 15,
      "s": 16,
      "'": 17,
      "o": 18,
      "m": 19,
      "p": 20,
      "d": 21,
      "k": 22,
      ",": 23,
      "-": 24,
      "E": 25,
      "j": 26,
      "6": 27,
      "1": 28,
      "/": 29,
      "2": 30,
      "D": 31,
      "P": 32,
      "R": 33,
      "3": 34,
      "\u2013": 35,
      "4": 36,
      "e": 37,
      "c": 38,
      "y": 39,
      "\u00dc": 40,
      "b": 41,
      "f": 42,
      "O": 43,
      "M": 44,
      "7": 45,
      "T": 46,
      ".": 47,
      "v": 48,
      "K": 49,
      "G": 50,
      "\u0113": 51,
      "(": 52,
      ")": 53,
      ":": 54,
      "\"": 55,
      "\u0161": 56,
      "8": 57,
      "J": 58,
      "\u887f": 59,
      "\u5ddd": 60,
      "\u5340": 61,
      "L": 62,
      "C": 63,
      "N": 64,
      "0": 65,
      "S": 66,
      "%": 67,
      "w": 68,
      "z": 69,
      "\u0435": 70,
      "\u0432": 71,
      "\u0438": 72,
      "\u0447": 73,
      "F": 74,
      "U": 75,
      "A": 76,
      "x": 77,
      "\u00e1": 78,
      "5": 79,
      "Y": 80,
      "V": 81,
      "\u00b1": 82,
      "?": 83,
      "$": 84,
      "q": 85,
      "\u2019": 86,
      "H": 87,
      "\u0101": 88,
      "=": 89,
      "|": 90,
      "\u00da": 91,
      "\u011b": 92,
      "\u00ed": 93,
      ";": 94,
      "9": 95,
      "*": 96,
      "\u00e9": 97,
      "X": 98,
      "W": 99,
      "I": 100,
      "@": 101,
      "\u98ef": 102,
      "\u5cf6": 103,
      "\u00fc": 104,
      "\u011f": 105,
      "\u00f3": 106,
      "!": 107,
      "\u2011": 108,
      "+": 109,
      "\u00f8": 110,
      "\u014d": 111,
      "\ub178": 112,
      "\uc6d0": 113,
      "\uad6c": 114,
      "\u5973": 115,
      "\u795e": 116,
      "\u8ee2": 117,
      "\u751f": 118,
      "\u0100": 119,
      "\u00c6": 120,
      "\u00e6": 121,
      ">": 122,
      "\ud800\udf32": 123,
      "\ud800\udf3f": 124,
      "\ud800\udf44": 125,
      "\ud800\udf30": 126,
      "\ud800\udf42": 127,
      "\ud800\udf36": 128,
      "\ud800\udf33": 129,
      "\u00f6": 130,
      "\u2014": 131,
      "\u201d": 132,
      "\ud802\udd11": 133,
      "\ud802\udd10": 134,
      "\ud802\udd0d": 135,
      "\ud802\udd01": 136,
      "\ud802\udd0f": 137,
      "\ud802\udd0b": 138,
      "\u00e4": 139,
      "#": 140,
      "\u0292": 141,
      "\u54b8": 142,
      "\u8208": 143,
      "\u5e02": 144,
      "\u5357": 145,
      "\u56db": 146,
      "\u0641": 147,
      "\u0627": 148,
      "\u0637": 149,
      "\u0645": 150,
      "\u0629": 151,
      "\u0644": 152,
      "\u0652": 153,
      "\u062e": 154,
      "\u064e": 155,
      "\u064a": 156,
      "\u0631": 157,
      "\u062a": 158,
      "\u0650": 159,
      "<": 160,
      "\u03b3": 161,
      "\u03c5": 162,
      "\u03bd": 163,
      "\u03b1": 164,
      "\u03b9": 165,
      "\u03be": 166,
      "\u03af": 167,
      "\u1e47": 168,
      "\u016b": 169,
      "~": 170,
      "\u201c": 171,
      "\u592a": 172,
      "\u539f": 173,
      "\u536b": 174,
      "\u661f": 175,
      "\u53d1": 176,
      "\u5c04": 177,
      "\u4e2d": 178,
      "\u5fc3": 179,
      "\u4ece": 180,
      "\u5f71": 181,
      "\u50cf": 182,
      "\u770b": 183,
      "\u5854": 184,
      "\u00eb": 185,
      "\u5f20": 186,
      "\u5b81": 187,
      "\u6b63": 188,
      "\u6708": 189,
      "\u015a": 190,
      "\u00e8": 191,
      "\u1e63": 192,
      "\u1e6d": 193,
      "\u1a04": 194,
      "\u1a19": 195,
      "\u1a11": 196,
      "\u1a13": 197,
      "\u1a00": 198,
      "\u1a17": 199,
      "\u1a12": 200,
      "]": 201,
      "\u00fa": 202,
      "Q": 203,
      "\u03c0": 204,
      "\u03c1": 205,
      "\u03bf": 206,
      "\u03b2": 207,
      "\u03ac": 208,
      "\u03c4": 209,
      "\u03c9": 210,
      "\u0648": 211,
      "\u064f": 212,
      "\u0628": 213,
      "\u0634": 214,
      "\u0651": 215,
      "\u064b": 216,
      "\u041f": 217,
      "\u043e": 218,
      "\u043d": 219,
      "\u0440": 220,
      "\u0441": 221,
      "\u043a": 222,
      "\uc11c": 223,
      "\ub839": 224,
      "\u3055": 225,
      "\u3068": 226,
      "\u308a": 227,
      "\u4e16": 228,
      "\u4ee3": 229,
      "\u969c": 230,
      "\u2212": 231,
      "\u2018": 232,
      "\u039b": 233,
      "\u00ef": 234,
      "&": 235,
      "\u00fd": 236,
      "\u00c7": 237,
      "\u0107": 238,
      "\u02bc": 239,
      "\u20ac": 240,
      "\u00b0": 241,
      "\u1eed": 242,
      "\u010c": 243,
      "\u5c9b": 244,
      "\u5ef7": 245,
      "\u8b70": 246,
      "_": 247,
      "\u00e7": 248,
      "\u00f5": 249,
      "\u00d3": 250,
      "\u0583": 251,
      "\u0642": 252,
      "\u060c": 253,
      "\u063a": 254,
      "\u91d1": 255,
      "\u9f8d": 256,
      "\u6625": 257,
      "\u00ea": 258,
      "\uc8fc": 259,
      "\uc778": 260,
      "[": 261,
      "\u00e2": 262,
      "\u012b": 263,
      "\u0926": 264,
      "\u093f": 265,
      "\u0928": 266,
      "\u0635": 267,
      "\uff08": 268,
      "\u0643": 269,
      "\u0422": 270,
      "\u044b": 271,
      "\u044f": 272,
      "\u00e0": 273,
      "\uc21c": 274,
      "\uc815": 275,
      "\u043c": 276,
      "\u5218": 277,
      "\u5b87": 278,
      "\u00ba": 279,
      "\u0623": 280,
      "\ua9b1": 281,
      "\ua9b8": 282,
      "\ua9ae": 283,
      "\ua981": 284,
      "\u2261": 285,
      "\u81ea": 286,
      "\u7531": 287,
      "\u3067": 288,
      "\u3042": 289,
      "\u308b": 290,
      "\u305f": 291,
      "\u3081": 292,
      "\u306b": 293,
      "\u1e0d": 294,
      "\u6d25": 295,
      "\u4e45": 296,
      "\u5149": 297,
      "\u516c": 298,
      "\u5b9f": 299,
      "\u7d00": 300,
      "\u017b": 301,
      "\u00b7": 302,
      "\u062d": 303,
      "\u062f": 304,
      "\u8846": 305,
      "\u4f17": 306,
      "\u062c": 307,
      "\u06ab": 308,
      "\u0693": 309,
      "\u0647": 310,
      "\u1f15": 311,
      "\u03b5": 312,
      "\u03c2": 313,
      "\u6620": 314,
      "\u30dc": 315,
      "\u30c8": 316,
      "\u30e0": 317,
      "\u00df": 318,
      "\u00f1": 319,
      "\u0649": 320,
      "\u00ec": 321,
      "\u00e3": 322,
      "\u1e45": 323,
      "\u041a": 324,
      "\u96fb": 325,
      "\u7535": 326,
      "\ud30c": 327,
      "\u79ae": 328,
      "\u793c": 329,
      "\u0646": 330,
      "\u00f0": 331,
      "\u96dc": 332,
      "\u6742": 333,
      "\u96d1": 334,
      "\u00d6": 335,
      "\u02be": 336,
      "\ua9b2": 337,
      "\ua9b6": 338,
      "\ua994": 339,
      "\ua982": 340,
      "\u200b": 341,
      "\ua9a0": 342,
      "\ua9ad": 343,
      "\ua99d": 344,
      "\u03b4": 345,
      "\u03c3": 346,
      "\u05dc": 347,
      "\u05d0": 348,
      "\u05de": 349,
      "\u05e8": 350,
      "\u4e0a": 351,
      "\u4e00": 352,
      "\u7fd4": 353,
      "\u00d8": 354,
      "\u03ad": 355,
      "\u03bc": 356,
      "\u0142": 357,
      "\u0119": 358,
      "\u017c": 359,
      "\u02bb": 360,
      "\u9547": 361,
      "\u8607": 362,
      "\u4e92": 363,
      "\u4e0d": 364,
      "\u4fb5": 365,
      "\u72af": 366,
      "\u689d": 367,
      "\u7d04": 368,
      "\u043b": 369,
      "\u0430": 370,
      "\u03b7": 371,
      "\u0115": 372,
      "\u00c9": 373,
      "\u041c": 374,
      "\u00f2": 375,
      "\u0443": 376,
      "\u0160": 377,
      "\u0105": 378,
      "\u00c0": 379,
      "\u010d": 380,
      "\u0426": 381,
      "\u043f": 382,
      "\u0434": 383,
      "\u0446": 384,
      "\u044c": 385,
      "\u0144": 386,
      "\u5510": 387,
      "\u8f89": 388,
      "\u9999": 389,
      "\u6e2f": 390,
      "\u85dd": 391,
      "\u8853": 392,
      "\u7bc0": 393,
      "\u2b50": 394,
      "\u10d0": 395,
      "\u04d9": 396,
      "\u0301": 397,
      "\u0442": 398,
      "\u7d05": 399,
      "\u8336": 400,
      "\u6bd5": 401,
      "\u96ef": 402,
      "\u73fa": 403,
      "\u22c5": 404,
      "\u8457": 405,
      "\u7740": 406,
      "\u10c3": 407,
      "\u10ad": 408,
      "\u014c": 409,
      "\u00be": 410,
      "\ud328": 411,
      "\ub7ec": 412,
      "\ube14": 413,
      "\u00bd": 414,
      "\u0621": 415,
      "\u00a3": 416,
      "\u039d": 417,
      "\u03b6": 418,
      "\u0633": 419,
      "\u5929": 420,
      "\u4e3b": 421,
      "\u6559": 422,
      "\u8056": 423,
      "\u5bb6": 424,
      "\u5802": 425,
      "\uc704": 426,
      "\ud55c": 427,
      "\u053d": 428,
      "\u0578": 429,
      "\u0582": 430,
      "\u0574": 431,
      "\u0562": 432,
      "\u00bb": 433,
      "\u00ae": 434,
      "\u017e": 435,
      "\u0103": 436,
      "\u00ee": 437,
      "\u0433": 438,
      "\u015b": 439,
      "\u017d": 440,
      "\u6b66": 441,
      "\u4e95": 442,
      "\u2229": 443,
      "\u94c1": 444,
      "\u77f3": 445,
      "\u90e8": 446,
      "\u961f": 447,
      "\u1e25": 448,
      "\uc18c": 449,
      "\u06cc": 450,
      "\u014f": 451,
      "\u0412": 452,
      "\u06ea": 453,
      "\u0670": 454,
      "\u0398": 455,
      "\u03ba": 456,
      "\u03cc": 457,
      "\u03bb": 458,
      "\u6f22": 459,
      "\u88dd": 460,
      "\u0924": 461,
      "\ud800\udf20": 462,
      "\ud800\udf22": 463,
      "\ub9d8": 464,
      "\ub300": 465,
      "\ub85c": 466,
      "\u842c": 467,
      "\u4e07": 468,
      "\u0625": 469,
      "\u0237": 470,
      "\u02b0": 471,
      "\u05b6": 472,
      "\u0131": 473,
      "\u80a5": 474,
      "\u59d0": 475,
      "\u99d5": 476,
      "\u5230": 477,
      "\u53e3": 478,
      "\u0392": 479,
      "\u015f": 480,
      "\u5b89": 481,
      "\u500d": 482,
      "\u671d": 483,
      "\u81e3": 484,
      "\u6674": 485,
      "\u660e": 486,
      "\u00fb": 487,
      "\uc88b": 488,
      "\uc740": 489,
      "\u00ad": 490,
      "\u2500": 491,
      "\u00c1": 492,
      "\u00ac": 493,
      "\u1e41": 494,
      "\u8910": 495,
      "\u0717": 496,
      "\u0718": 497,
      "\u0735": 498,
      "\u00f9": 499,
      "\u031f": 500,
      "\u5cb8": 501,
      "\u5f25": 502,
      "\u5de6": 503,
      "\u885b": 504,
      "\u9580": 505,
      "\u6bba": 506,
      "\u5546": 507,
      "\u80e1": 508,
      "\u6ce2": 509,
      "\u65af": 510,
      "\u6578": 511,
      "\u5343": 512,
      "\u4eba": 513,
      "\u0386": 514,
      "\u6a4b": 515,
      "\u982d": 516,
      "\u0437": 517,
      "\u0410": 518,
      "\u0439": 519,
      "\u8209": 520,
      "\u5169": 521,
      "\u5f97": 522,
      "\u0110": 523,
      "\u534a": 524,
      "\u6b69": 525,
      "\u3086": 526,
      "\u305a": 527,
      "\u3063": 528,
      "\u3066": 529,
      "{": 530,
      "\u03ce": 531,
      "\u9673": 532,
      "\u7f8e": 533,
      "\u9f61": 534,
      "\u0159": 535,
      "\u00e5": 536,
      "\u05d7": 537,
      "\u05d5": 538,
      "\u05ea": 539,
      "\u905e": 540,
      "\u9012": 541,
      "\u9013": 542,
      "\u1f00": 543,
      "\u0917": 544,
      "\u094b": 545,
      "\u0935": 546,
      "\u0902": 547,
      "\u301c": 548,
      "\u0266": 549,
      "\u5927": 550,
      "\u85cf": 551,
      "\u7d93": 552,
      "\uc5f0": 553,
      "\uc138": 554,
      "\u51e4": 555,
      "\u722a": 556,
      "\ub4dc": 557,
      "\ub77c": 558,
      "\ub9c8": 559,
      "\uc2dc": 560,
      "\ud2f0": 561,
      "\u0391": 562,
      "\u0639": 563,
      "\u5c22": 564,
      "\u5217": 565,
      "\u99ac": 566,
      "\u514b": 567,
      "\u0421": 568,
      "\u0431": 569,
      "\u53cb": 570,
      "\u9054": 571,
      "\u58f2": 572,
      "\u8cb7": 573,
      "\u03c6": 574,
      "\u1f10": 575,
      "\u03a7": 576,
      "\u4e70": 577,
      "\ud1a0": 578,
      "\ub2c8": 579,
      "\uc548": 580,
      "}": 581,
      "\u00b5": 582,
      "\u00b3": 583,
      "\u2122": 584,
      "\u2026": 585,
      "\u300c": 586,
      "\u30e4": 587,
      "\u308c": 588,
      "\u5642": 589,
      "\u306e": 590,
      "\u8ab0": 591,
      "\u3082": 592,
      "\u3044": 593,
      "\u306a": 594,
      "\u59cb": 595,
      "\u767a": 596,
      "\u8eca": 597,
      "\u30cc": 598,
      "\u30a4": 599,
      "\u304f": 600,
      "\u30aa": 601,
      "\u30f3": 602,
      "\u30ca": 603,
      "\u304c": 604,
      "\u5728": 605,
      "\u3057": 606,
      "\u300d": 607,
      "\u09b8": 608,
      "\u09c7": 609,
      "\u09ad": 610,
      "\u0995": 611,
      "\u03cd": 612,
      "\u795d": 613,
      "\u2022": 614,
      "\u05d9": 615,
      "\u05dd": 616,
      "\u3002": 617,
      "\u53e5": 618,
      "\u70b9": 619,
      "\u30fb": 620,
      "\u5341": 621,
      "\u4e94": 622,
      "\u669d": 623,
      "`": 624,
      "\u3147": 625,
      "\uc774": 626,
      "\uc57c": 627,
      "\uae30": 628,
      "\u2606": 629,
      "\ufeb3": 630,
      "\ufb91": 631,
      "\ufe98": 632,
      "\ufeea": 633,
      "\u013d": 634,
      "\u9756": 635,
      "\u5100": 636,
      "\u0632": 637,
      "\u0141": 638,
      "\u6d77": 639,
      "\u967d": 640,
      "\u7e23": 641,
      "\u00cd": 642,
      "\u53bf": 643,
      "\uc9c0": 644,
      "\ub2e4": 645,
      "\ud61c": 646,
      "\ub828": 647,
      "\u0111": 648,
      "\u9648": 649,
      "\u6bc5": 650,
      "\u7eaa": 651,
      "\u5ff5": 652,
      "\u9986": 653,
      "\u05db": 654,
      "\u05be": 655,
      "\u03a6": 656,
      "\u67ef": 657,
      "\u7f85": 658,
      "\u044a": 659,
      "\u0153": 660,
      "\u0420": 661,
      "\u1a14": 662,
      "\u1a05": 663,
      "\u1a18": 664,
      "\u1a15": 665,
      "\u0445": 666,
      "\u0636": 667,
      "\uc54c": 668,
      "\uc544": 669,
      "\u1ebf": 670,
      "\u1eaf": 671,
      "\u00ab": 672,
      "\u5f31": 673,
      "\u30ed": 674,
      "\u0417": 675,
      "\u00b2": 676,
      "\u30ae": 677,
      "\u30ba": 678,
      "\u0146": 679,
      "\u01ce": 680,
      "\u8b66": 681,
      "\u5bdf": 682,
      "\u6545": 683,
      "\u4e8b": 684,
      "\uff12": 685,
      "\u05d3": 686,
      "\u05d1": 687,
      "\u044e": 688,
      "\u5e95": 689,
      "\u9686": 690,
      "\u5e7f": 691,
      "\u7d50": 692,
      "\u96c6": 693,
      "\uff01": 694,
      "\uff11": 695,
      "\uff15": 696,
      "\u773c": 697,
      "\u9b42": 698,
      "\u30d1": 699,
      "\u3092": 700,
      "\u98df": 701,
      "\u3079": 702,
      "\u307e": 703,
      "\u305b": 704,
      "\u3093": 705,
      "\u0414": 706,
      "\u0436": 707,
      "\u0671": 708,
      "\u05e0": 709,
      "\u05e2": 710,
      "\u304a": 711,
      "\u5893": 712,
      "\u01d2": 713,
      "\u0397": 714,
      "\u7530": 715,
      "\u8c37": 716,
      "\u91ce": 717,
      "\uadf9": 718,
      "\ub77d": 719,
      "\uc804": 720,
      "\u0219": 721,
      "\ud800\udec2": 722,
      "\ud800\udec3": 723,
      "\u0456": 724,
      "\uc0ac": 725,
      "\ud2b8": 726,
      "\u02d0": 727,
      "\uff5e": 728,
      "\u672d": 729,
      "\u753b": 730,
      "\ud22c": 731,
      "\uc5d0": 732,
      "\uc5e0": 733,
      "\u30bd": 734,
      "\u30d5": 735,
      "\u30a3": 736,
      "\u30a2": 737,
      "\u30ea": 738,
      "\u30b0": 739,
      "\u30b5": 740,
      "\u30bf": 741,
      "\u30fc": 742,
      "\u00bf": 743,
      "\u0413": 744,
      "\u30ef": 745,
      "\u30cd": 746,
      "\u30c3": 747,
      "\u30d6": 748,
      "\u30eb": 749,
      "\u30c9": 750,
      "\u30c4": 751,
      "\u5c4b": 752,
      "\u5e97": 753,
      "\u9577": 754,
      "\u0192": 755,
      "\uc7ac": 756,
      "\uac80": 757,
      "\uac00": 758,
      "\u00ce": 759,
      "\u05bc": 760,
      "\u05b0": 761,
      "\u05b7": 762,
      "\u0283": 763,
      "\u0418": 764,
      "\u0444": 765,
      "\u0259": 766,
      "\u1f30": 767,
      "\u1fc6": 768,
      "\u03b8": 769,
      "\ud0dd": 770,
      "\ud604": 771,
      "\u0170": 772,
      "\u0423": 773,
      "\u05e4": 774,
      "\u05e7": 775,
      "\u05c3": 776,
      "\u05d4": 777,
      "\u05b8": 778,
      "\uc131": 779,
      "\ua9cb": 780,
      "\ua9c0": 781,
      "\ua9a9": 782,
      "\ua98f": 783,
      "\ua9a4": 784,
      "\ua9bc": 785,
      "\ua992": 786,
      "\ua9ab": 787,
      "\ua9c7": 788,
      "\ua9d1": 789,
      "\ua9a7": 790,
      "\u1f21": 791,
      "\u1fb6": 792,
      "\u0540": 793,
      "\u0561": 794,
      "\u0575": 795,
      "\u056f": 796,
      "\u0576": 797,
      "\u7a57": 798,
      "\u9da5": 799,
      "\ue00e": 800,
      "\u305d": 801,
      "\u03a4": 802,
      "\u1ed1": 803,
      "\u026a": 804,
      "\u02c8": 805,
      "\u025b": 806,
      "\u77e2": 807,
      "\u00c4": 808,
      "\u0151": 809,
      "\u30b1": 810,
      "\u732a": 811,
      "\u7b3c": 812,
      "\u8349": 813,
      "\u7684": 814,
      "\u7ec4": 815,
      "\u7ec7": 816,
      "\u57f9": 817,
      "\u517b": 818,
      "\u05f4": 819,
      "\ud6c8": 820,
      "\ubbfc": 821,
      "\uc74c": 822,
      "\u8a13": 823,
      "\u6c11": 824,
      "\u97f3": 825,
      "\ufb01": 826,
      "\u0915": 827,
      "\u0947": 828,
      "\u092d": 829,
      "\u093e": 830,
      "\u0930": 831,
      "\u094d": 832,
      "\u0493": 833,
      "\u1ea7": 834,
      "\u5247": 835,
      "\u5e73": 836,
      "\u9060": 837,
      "\u4e4b": 838,
      "\u76dc": 839,
      "\u5f2d": 840,
      "\u658e": 841,
      "\u85e4": 842,
      "\u51ac": 843,
      "\u512a": 844,
      "\u82b1": 845,
      "\uc911": 846,
      "\uacf5": 847,
      "\uc5c5": 848,
      "\u1ec7": 849,
      "\u5b6b": 850,
      "\u596e": 851,
      "\u5c07": 852,
      "\u5c06": 853,
      "\u1f4c": 854,
      "\u30e9": 855,
      "\u4f1d": 856,
      "\u8aac": 857,
      "\u6587": 858,
      "\u8ff0": 859,
      "\u5bab": 860,
      "\u535a": 861,
      "\u7269": 862,
      "\u9662": 863,
      "\u7121": 864,
      "\u65e0": 865,
      "\uc640": 866,
      "\uc918": 867,
      "\u957f": 868,
      "\u30e6": 869,
      "\u30cb": 870,
      "\u30b9": 871,
      "\uff0e": 872,
      "\u30c1": 873,
      "\u30e3": 874,
      "\u01d4": 875,
      "\u5144": 876,
      "\u10b5": 877,
      "\u10a0": 878,
      "\u10b0": 879,
      "\u10a7": 880,
      "\u10aa": 881,
      "\u10a8": 882,
      "\uae40": 883,
      "\ud760": 884,
      "\ub3cc": 885,
      "\u0255": 886,
      "\u2609": 887,
      "\ube0c": 888,
      "\ub808": 889,
      "\ud130": 890,
      "\u01d0": 891,
      "\u12a0": 892,
      "\u1263": 893,
      "\u1324": 894,
      "\u1293": 895,
      "\u12f0": 896,
      "\u1303": 897,
      "\u90b5": 898,
      "\u5955": 899,
      "\u73ab": 900,
      "\u0273": 901,
      "\u0121": 902,
      "\u5b54": 903,
      "\u7d07": 904,
      "\u8cc0": 905,
      "\u8d3a": 906,
      "\u30de": 907,
      "\u30f4": 908,
      "\u9d72": 909,
      "\u05e9": 910,
      "\u5074": 911,
      "\u4fa7": 912,
      "\u674e": 913,
      "\u6cf0": 914,
      "\u9f99": 915,
      "\u2016": 916,
      "\u064d": 917,
      "\u1f74": 918,
      "\u7687": 919,
      "\u5e1d": 920,
      "\u6885": 921,
      "\u2012": 922,
      "\u601d": 923,
      "\u516d": 924,
      "\u5f13": 925,
      "\u4e61": 926,
      "\u5f62": 927,
      "\u5bb9": 928,
      "\u52d5": 929,
      "\u8a5e": 930,
      "\u9ec4": 931,
      "\u73b0": 932,
      "\u74a0": 933,
      "\u9ec3": 934,
      "\u73fe": 935,
      "^": 936,
      "\u666f": 937,
      "\u70c1": 938,
      "\u0457": 939,
      "\u062b": 940,
      "\u4eca": 941,
      "\u3059": 942,
      "\u3050": 943,
      "\u30ab": 944,
      "\u30dd": 945,
      "\u30a6": 946,
      "\u054d": 947,
      "\u057a": 948,
      "\u0565": 949,
      "\u0580": 950,
      "\u057d": 951,
      "\u0569": 952,
      "\u7aae": 953,
      "\u65e5": 954,
      "\u6e9c": 955,
      "\u8857": 956,
      "\u1e32": 957,
      "\u3060": 958,
      "\u1ff7": 959,
      "\u00f4": 960,
      "\u014b": 961,
      "\u65b0": 962,
      "\u76c8": 963,
      "\u5317": 964,
      "\u5308": 965,
      "\u5974": 966,
      "\u00d7": 967,
      "\u03a0": 968,
      "\u5019": 969,
      "\u53c3": 970,
      "\u53c2": 971,
      "\ube44": 972,
      "\u2044": 973,
      "\u5174": 974,
      "\u05e1": 975,
      "\ub291": 976,
      "\u5deb": 977,
      "\u00a7": 978,
      "\u8b39": 979,
      "\u1f55": 980,
      "\u90ed": 981,
      "\u91c7": 982,
      "\u6f54": 983,
      "\u6210": 984,
      "\u8ecd": 985,
      "\u60c5": 986,
      "\u9192": 987,
      "\u02b7": 988,
      "\u92fc": 989,
      "\u94a2": 990,
      "\u9444": 991,
      "\u94f8": 992,
      "\u92f3": 993,
      "\u9e7f": 994,
      "\u897f": 995,
      "\u753a": 996,
      "\u7570": 997,
      "\u5f02": 998,
      "\u671f": 999,
      "\u743c": 1000,
      "\u5c71": 1001,
      "\ubc00": 1002,
      "\uc6d4": 1003,
      "\u0942": 1004,
      "\u0916": 1005,
      "\u0921": 1006,
      "\u627f": 1007,
      "\u4e7e": 1008,
      "\u2032": 1009,
      "\u6bcd": 1010,
      "\u0424": 1011,
      "\u798f": 1012,
      "\u5ef3": 1013,
      "\u5e81": 1014,
      "\u5275": 1015,
      "\u521b": 1016,
      "\u6682": 1017,
      "\u4f11": 1018,
      "\u1e6f": 1019,
      "\u8096": 1020,
      "\u529b": 1021,
      "\u6853": 1022,
      "\u1e37": 1023,
      "\u05e6": 1024,
      "\u67da": 1025,
      "\u5f79": 1026,
      "\u4fbf": 1027,
      "\u05d8": 1028,
      "\ub78c": 1029,
      "\u5e03": 1030,
      "\u6162": 1031,
      "\u041d": 1032,
      "\u0640": 1033,
      "\u1a0a": 1034,
      "\u0393": 1035,
      "\u9b4f": 1036,
      "\u5982": 1037,
      "\u8431": 1038,
      "\u5965": 1039,
      "\u30b7": 1040,
      "\u30a9": 1041,
      "\u79cb": 1042,
      "\u0139": 1043,
      "\ufeb1": 1044,
      "\u8679": 1045,
      "\u6865": 1046,
      "\u00d1": 1047,
      "\u201e": 1048,
      "\u7387": 1049,
      "\u4e09": 1050,
      "\u4e9a": 1051,
      "\uaf43": 1052,
      "\ubbf8": 1053,
      "\ub0a8": 1054,
      "\u59b9": 1055,
      "\u3061": 1056,
      "\u3088": 1057,
      "\ud669": 1058,
      "\uc9c4": 1059,
      "\u670d": 1060,
      "\u1e62": 1061,
      "\u79bb": 1062,
      "\u4f53": 1063,
      "\u53ca": 1064,
      "\u690d": 1065,
      "\u682a": 1066,
      "\u518d": 1067,
      "\u7814": 1068,
      "\u7a76": 1069,
      "\u0394": 1070,
      "\u1e43": 1071,
      "\u846c": 1072,
      "\u9675": 1073,
      "\u7b2c": 1074,
      "\u4e5d": 1075,
      "\u7247": 1076,
      "\u00bc": 1077,
      "\u9ad8": 1078,
      "\u7537": 1079,
      "\u65b9": 1080,
      "\u8a00": 1081,
      "\u1e49": 1082,
      "\u00b4": 1083,
      "\u0622": 1084,
      "\u8bb8": 1085,
      "\uff09": 1086,
      "\u0686": 1087,
      "\uff14": 1088,
      "\u5c45": 1089,
      "\u623f": 1090,
      "\u1eb8": 1091,
      "\u6c7d": 1092,
      "\u05d2": 1093,
      "\u5931": 1094,
      "\u308f": 1095,
      "\u79d8": 1096,
      "\u5b9d": 1097,
      "\u8b0e": 1098,
      "\uc720": 1099,
      "\uc0b0": 1100,
      "\uadf8": 1101,
      "\ub9bd": 1102,
      "\u534f": 1103,
      "\u914d": 1104,
      "\u6751": 1105,
      "\u30d9": 1106,
      "\ubc15": 1107,
      "\uc601": 1108,
      "\uaddc": 1109,
      "\u1ff6": 1110,
      "\u015e": 1111,
      "\u746a": 1112,
      "\u5229": 1113,
      "\u4e9e": 1114,
      "\uff0c": 1115,
      "\u70ba": 1116,
      "\u6211": 1117,
      "\u7b49": 1118,
      "\u7f6a": 1119,
      "\u30d0": 1120,
      "\u1e24": 1121,
      "\u653f": 1122,
      "\u041e": 1123,
      "\u6e21": 1124,
      "\u5c97": 1125,
      "\uac1c": 1126,
      "\ud654": 1127,
      "\u1eb1": 1128,
      "\u5b50": 1129,
      "\u6ca2": 1130,
      "\ubc31": 1131,
      "\ud558": 1132,
      "\ub098": 1133,
      "\u5fa1": 1134,
      "\u4e8c": 1135,
      "\u5185": 1136,
      "\u6c99": 1137,
      "\u6a39": 1138,
      "\u1ead": 1139,
      "\u60e1": 1140,
      "\u6076": 1141,
      "\u60aa": 1142,
      "\uc655": 1143,
      "\uc790": 1144,
      "\ub9cc": 1145,
      "\ud638": 1146,
      "\ubd80": 1147,
      "\u5fb7": 1148,
      "\u5b97": 1149,
      "\uc219": 1150,
      "\u025f": 1151,
      "\u505c": 1152,
      "\u4f8d": 1153,
      "\u0e40": 1154,
      "\u0e08": 1155,
      "\u0e2d": 1156,
      "\\": 1157,
      "\u51b3": 1158,
      "\uce5c": 1159,
      "\uc5ec": 1160,
      "\u30cf": 1161,
      "\u7d44": 1162,
      "\u05df": 1163,
      "\u0117": 1164,
      "\u27e8": 1165,
      "\u27e9": 1166,
      "\u7f72": 1167,
      "\u4e9c": 1168,
      "\u8cb4": 1169,
      "\u571f": 1170,
      "\u8c41": 1171,
      "\u1ea5": 1172,
      "\u099a": 1173,
      "\u09be": 1174,
      "\u06a9": 1175,
      "\uc218": 1176,
      "\ucd0c": 1177,
      "\u8463": 1178,
      "\u666e": 1179,
      "\u89ba": 1180,
      "\u570b": 1181,
      "\u5e2b": 1182,
      "\u017a": 1183,
      "\u53a6": 1184,
      "\u95e8": 1185,
      "\ubc94": 1186,
      "\u5bc6": 1187,
      "\u8fad": 1188,
      "\u8f9e": 1189,
      "\u56fd": 1190,
      "\uc6b0": 1191,
      "\ub9ac": 1192,
      "\u5c09": 1193,
      "\u5bc4": 1194,
      "\u8af8": 1195,
      "\u8bae": 1196,
      "\u66f9": 1197,
      "\u03c7": 1198,
      "\u1fd6": 1199,
      "\u02c0": 1200,
      "\u05da": 1201,
      "\u1ea3": 1202,
      "\u01eb": 1203,
      "\u0626": 1204,
      "\u067e": 1205,
      "\u30b4": 1206,
      "\u30b8": 1207,
      "\u554f": 1208,
      "\u95ee": 1209,
      "\u91cc": 1210,
      "\u793e": 1211,
      "\u516b": 1212,
      "\ufec1": 1213,
      "\u00c2": 1214,
      "\u0280": 1215,
      "\u73ed": 1216,
      "\u6dd1": 1217,
      "\u4f20": 1218,
      "\u5947": 1219,
      "\u1fe6": 1220,
      "\u7acb": 1221,
      "\u0330": 1222,
      "\u0291": 1223,
      "\u0254": 1224,
      "\u0300": 1225,
      "\u0395": 1226,
      "\u2033": 1227,
      "\u622f": 1228,
      "\u2205": 1229,
      "\u8d75": 1230,
      "\u4f57": 1231,
      "\u0459": 1232,
      "\u03ae": 1233,
      "\u82cf": 1234,
      "\u5824": 1235,
      "\u9633": 1236,
      "\u5730": 1237,
      "\u7344": 1238,
      "\u10d8": 1239,
      "\u10d9": 1240,
      "\u10dd": 1241,
      "\u10d1": 1242,
      "\u0e2a": 1243,
      "\u0e34": 1244,
      "\u0e07": 1245,
      "\u0e2b": 1246,
      "\u0e4c": 1247,
      "\u0e1b": 1248,
      "\u0e23": 1249,
      "\u0e30": 1250,
      "\u0e10": 1251,
      "\u6697": 1252,
      "\uacc4": 1253,
      "\u96ea": 1254,
      "\u0986": 1255,
      "\u099b": 1256,
      "\u8001": 1257,
      "\u820d": 1258,
      "\u8cde": 1259,
      "\u8cdc": 1260,
      "\u5b88": 1261,
      "\u307f": 1262,
      "\u30e1": 1263,
      "\u30c7": 1264,
      "\u82b8": 1265,
      "\u4ea4": 1266,
      "\u8dbe": 1267,
      "\ufeb9": 1268,
      "\u0251": 1269,
      "\uc9d1": 1270,
      "\u1a1a": 1271,
      "\u1a07": 1272,
      "\u1a1b": 1273,
      "\u1f34": 1274,
      "\u0325": 1275,
      "\u7c21": 1276,
      "\u7b80": 1277,
      "\u7f57": 1278,
      "\u029c": 1279,
      "\u03a3": 1280,
      "\u9887": 1281,
      "\u8bed": 1282,
      "\u6c49": 1283,
      "\u8bcd": 1284,
      "\u5178": 1285,
      "\u524d": 1286,
      "\u696d": 1287,
      "\u6821": 1288,
      "\u6f14": 1289,
      "\u4e39": 1290,
      "\u971e": 1291,
      "\u6d66": 1292,
      "\u908a": 1293,
      "\u0a2d": 1294,
      "\u0a17": 1295,
      "\u0a24": 1296,
      "\u9435": 1297,
      "\u91dc": 1298,
      "\u30a7": 1299,
      "\u30a1": 1300,
      "\u5f0f": 1301,
      "\u4f1a": 1302,
      "\u8b1b": 1303,
      "\u8bb2": 1304,
      "\u771e": 1305,
      "\u0d91": 1306,
      "\u0dc5": 1307,
      "\u0dd4": 1308,
      "\u76c6": 1309,
      "\u1fe5": 1310,
      "\u03c8": 1311,
      "\u1ff3": 1312,
      "\ucc9c": 1313,
      "\u1e07": 1314,
      "\uace0": 1315,
      "\u9589": 1316,
      "\u95ed": 1317,
      "\u6797": 1318,
      "\u9091": 1319,
      "\u4f0a": 1320,
      "\u50f9": 1321,
      "\u4ef7": 1322,
      "\u4fa1": 1323,
      "\u76ae": 1324,
      "\u6c0f": 1325,
      "\u00a5": 1326,
      "\u56de": 1327,
      "\u611b": 1328,
      "\u4ee5": 1329,
      "\u9769": 1330,
      "\u4f7f": 1331,
      "\u6e56": 1332,
      "\u8003": 1333,
      "\u53e4": 1334,
      "\u5b63": 1335,
      "\u520a": 1336,
      "\u6d3b": 1337,
      "\u5173": 1338,
      "\u2e22": 1339,
      "\u767e": 1340,
      "\u5668": 1341,
      "\u5f92": 1342,
      "\u7136": 1343,
      "\u888b": 1344,
      "\u5468": 1345,
      "\u4f5c": 1346,
      "\u57ce": 1347,
      "\u0519": 1348,
      "\ucc44": 1349,
      "\u1ed3": 1350,
      "\ub108": 1351,
      "\ub97c": 1352,
      "\u00d2": 1353,
      "\u0106": 1354,
      "\u4eae": 1355,
      "\u738b": 1356,
      "\u5609": 1357,
      "\u8588": 1358,
      "\u8ed2": 1359,
      "\u96d9": 1360,
      "\u5c4d": 1361,
      "\u5147": 1362,
      "\u6848": 1363,
      "\u0987": 1364,
      "\u0989": 1365,
      "\u09a8": 1366,
      "\u09c1": 1367,
      "\u6483": 1368,
      "\ubcf4": 1369,
      "\u178f": 1370,
      "\u17be": 1371,
      "\u1794": 1372,
      "\u1793": 1373,
      "\u17d2": 1374,
      "\u1791": 1375,
      "\u17cb": 1376,
      "\u17b9": 1377,
      "\u1780": 1378,
      "\u17c5": 1379,
      "\u17b8": 1380,
      "\u178e": 1381,
      "\u17b6": 1382,
      "\u4e0b": 1383,
      "\u6c34": 1384,
      "\u10da": 1385,
      "\u10d5": 1386,
      "\u10e0": 1387,
      "\u10d4": 1388,
      "\u10dc": 1389,
      "\u10e2": 1390,
      "\u904b": 1391,
      "\u547d": 1392,
      "\u8d77": 1393,
      "\u51fa": 1394,
      "\u5df1": 1395,
      "\u5321": 1396,
      "\u05b5": 1397,
      "\u606d": 1398,
      "\ud800\ude9c": 1399,
      "\u0411": 1400,
      "\u0425": 1401,
      "\u521d": 1402,
      "\u6b21": 1403,
      "\u6703": 1404,
      "\u826f": 1405,
      "\u00fe": 1406,
      "\u30ad": 1407,
      "\u30df": 1408,
      "\u30ac": 1409,
      "\u7fa9": 1410,
      "\u585a": 1411,
      "\u7891": 1412,
      "\u63a9": 1413,
      "\u57cb": 1414,
      "\u6bb5": 1415,
      "\u8840": 1416,
      "\u5beb": 1417,
      "\u6b77": 1418,
      "\u53f2": 1419,
      "\u5bbf": 1420,
      "\u73b2": 1421,
      "\u65fa": 1422,
      "\u4e50": 1423,
      "\u02bf": 1424,
      "\u7e41": 1425,
      "\u5c0a": 1426,
      "\u5361": 1427,
      "\u00c5": 1428,
      "\u4f55": 1429,
      "\u61ff": 1430,
      "\u5cfb": 1431,
      "\u88c1": 1432,
      "\u9cf3": 1433,
      "\u963f": 1434,
      "\u54ea": 1435,
      "\u0294": 1436,
      "\u6636": 1437,
      "\u65fb": 1438,
      "\u8a71": 1439,
      "\u8bdd": 1440,
      "\u756a": 1441,
      "\u4ed4": 1442,
      "\u5712": 1443,
      "\u907a": 1444,
      "\u5740": 1445,
      "\ucd9c": 1446,
      "\u63ee": 1447,
      "\u6325": 1448,
      "\u1ea1": 1449,
      "\u4ed3": 1450,
      "\u9889": 1451,
      "\u1f76": 1452,
      "\u56b4": 1453,
      "\u4e25": 1454,
      "\u53b3": 1455,
      "\u8292": 1456,
      "\u95dc": 1457,
      "\u5edf": 1458,
      "\u1f38": 1459,
      "\u0390": 1460,
      "\u5f35": 1461,
      "\u660c": 1462,
      "\u7ae0": 1463,
      "\u221e": 1464,
      "\u980a": 1465,
      "\ub370": 1466,
      "\ubdf0": 1467,
      "\u1ed9": 1468,
      "\u032f": 1469,
      "\u6b7b": 1470,
      "\u754c": 1471,
      "\u6226": 1472,
      "\u7dda": 1473,
      "\u0287": 1474,
      "\u045a": 1475,
      "\u7ff0": 1476,
      "\u54b2": 1477,
      "\u99c5": 1478,
      "\u5409": 1479,
      "\uacbd": 1480,
      "\u0123": 1481,
      "\uc120": 1482,
      "\uc0dd": 1483,
      "\uacfc": 1484,
      "\u05b9": 1485,
      "\u05e3": 1486,
      "\u05c1": 1487,
      "\ua997": 1488,
      "\ua983": 1489,
      "\ua9ba": 1490,
      "\ua9b4": 1491,
      "\ua9c8": 1492,
      "\ua99a": 1493,
      "\ua995": 1494,
      "\u10ab": 1495,
      "\u10a4": 1496,
      "\u10b4": 1497,
      "\u10c1": 1498,
      "\u6548": 1499,
      "\u52b9": 1500,
      "\u5d0e": 1501,
      "\u0399": 1502,
      "\u9b54": 1503,
      "\u6cd5": 1504,
      "\u968a": 1505,
      "\u30ec": 1506,
      "\u3008": 1507,
      "\u3009": 1508,
      "\u1f20": 1509,
      "\u7a40": 1510,
      "\u5ef6": 1511,
      "\u5c55": 1512,
      "\u624d": 1513,
      "\u662f": 1514,
      "\u786c": 1515,
      "\u9053": 1516,
      "\u7406": 1517,
      "\u309c": 1518,
      "\u0428": 1519,
      "\u97ff": 1520,
      "\u06d5": 1521,
      "\u1f50": 1522,
      "\u1fc7": 1523,
      "\u300a": 1524,
      "\u6200": 1525,
      "\u8c46": 1526,
      "\u51b0": 1527,
      "\u300b": 1528,
      "\u5b98": 1529,
      "\u09ac": 1530,
      "\u09c8": 1531,
      "\u09b6": 1532,
      "\u0996": 1533,
      "\u0547": 1534,
      "\u0570": 1535,
      "\ucd5c": 1536,
      "\ub3d9": 1537,
      "\uc900": 1538,
      "\u7279": 1539,
      "\u52a1": 1540,
      "\u0932": 1541,
      "\u0938": 1542,
      "\u4f2f": 1543,
      "\u7235": 1544,
      "\u604b": 1545,
      "\u092b": 1546,
      "\u0933": 1547,
      "\uac15": 1548,
      "\u6069": 1549,
      "\u660a": 1550,
      "\u95d5": 1551,
      "\u6148": 1552,
      "\u6fdf": 1553,
      "\u91ab": 1554,
      "\u9748": 1555,
      "\u5999": 1556,
      "\u771f": 1557,
      "\u541b": 1558,
      "\u58fd": 1559,
      "\u6975": 1560,
      "\u4fdd": 1561,
      "\u6d88": 1562,
      "\u5316": 1563,
      "\u6db2": 1564,
      "\u86cb": 1565,
      "\u767d": 1566,
      "\u9176": 1567,
      "\u6027": 1568,
      "\u63a2": 1569,
      "\u0415": 1570,
      "\uc2e4": 1571,
      "\uc190": 1572,
      "\ud765": 1573,
      "\u05e5": 1574,
      "\u4f50": 1575,
      "\u5065": 1576,
      "\u90ce": 1577,
      "\u578b": 1578,
      "\u88c5": 1579,
      "\u5099": 1580,
      "\u78c1": 1581,
      "\u0936": 1582,
      "\u094c": 1583,
      "\u092f": 1584,
      "\u0925": 1585,
      "\u6bad": 1586,
      "\u5148": 1587,
      "\ubabb": 1588,
      "\ucc3e": 1589,
      "\uaca0": 1590,
      "\u5f00": 1591,
      "\u573a": 1592,
      "\u5dfb": 1593,
      "\u304d": 1594,
      "\u5bff": 1595,
      "\u53f8": 1596,
      "\uc6b8": 1597,
      "\u662d": 1598,
      "\u06d7": 1599,
      "\ud6a8": 1600,
      "\ud800\udf21": 1601,
      "\u02e6": 1602,
      "\u0163": 1603,
      "\u0448": 1604,
      "\u0630": 1605,
      "\u06df": 1606,
      "\uc7a5": 1607,
      "\u96e3": 1608,
      "\u10db": 1609,
      "\u10ec": 1610,
      "\u5fd7": 1611,
      "\u7a42": 1612,
      "\u06af": 1613,
      "\u77e5": 1614,
      "\u672a": 1615,
      "\u5e74": 1616,
      "\u4ec1": 1617,
      "\u6d45": 1618,
      "\u5bfa": 1619,
      "\u5883": 1620,
      "\u9752": 1621,
      "\u7a7a": 1622,
      "\u3043": 1623,
      "\u1ea4": 1624,
      "\u0396": 1625,
      "\u9e7d": 1626,
      "\u76d0": 1627,
      "\u5869": 1628,
      "\u1ec1": 1629,
      "\u0b85": 1630,
      "\u0ba9": 1631,
      "\u0bc1": 1632,
      "\u0bb0": 1633,
      "\u0bbe": 1634,
      "\u0ba4": 1635,
      "\u0baa": 1636,
      "\u5df4": 1637,
      "\u8f66": 1638,
      "\u5382": 1639,
      "\uca50": 1640,
      "\uc758": 1641,
      "\u0169": 1642,
      "\u898f": 1643,
      "\u89c4": 1644,
      "\u90d1": 1645,
      "\u8944": 1646,
      "\u5ba2": 1647,
      "\u01a1": 1648,
      "\uff5a": 1649,
      "\ubd81": 1650,
      "\u8fe6": 1651,
      "\u843d": 1652,
      "\u2020": 1653,
      "\u1e93": 1654,
      "\u0304": 1655,
      "\ua683": 1656,
      "\ucc2c": 1657,
      "\u5cf0": 1658,
      "\u5bc2": 1659,
      "\u5bde": 1660,
      "\u092e": 1661,
      "\u093c": 1662,
      "\u6597": 1663,
      "\u5c0e": 1664,
      "\u822a": 1665,
      "\u8a66": 1666,
      "\u9a57": 1667,
      "\u7cfb": 1668,
      "\u7d71": 1669,
      "\u30b3": 1670,
      "\u30d7": 1671,
      "\uc591": 1672,
      "\u5e0c": 1673,
      "\u671b": 1674,
      "\u677e": 1675,
      "\u5009": 1676,
      "\u97d3": 1677,
      "\u67fb": 1678,
      "\u9664": 1679,
      "\u5225": 1680,
      "\u0ba3": 1681,
      "\u0bbf": 1682,
      "\u01b0": 1683,
      "\u4e73": 1684,
      "\u5eb7": 1685,
      "\u756b": 1686,
      "\u83ef": 1687,
      "\u8133": 1688,
      "\u89a7": 1689,
      "\uc9c8": 1690,
      "\uc801": 1691,
      "\u5bfe": 1692,
      "\u7236": 1693,
      "\u5a18": 1694,
      "\u8caf": 1695,
      "\u8d2e": 1696,
      "\u88ca": 1697,
      "\u90e1": 1698,
      "\ubc1b": 1699,
      "\uc904": 1700,
      "\ub798": 1701,
      "\u0165": 1702,
      "\u03a1": 1703,
      "\ub530": 1704,
      "\u7d1a": 1705,
      "\u7ea7": 1706,
      "\u0997": 1707,
      "\u09a1": 1708,
      "\u09bc": 1709,
      "\u09bf": 1710,
      "\u0306": 1711,
      "\u5f01": 1712,
      "\u0566": 1713,
      "\u30d2": 1714,
      "\u30a8": 1715,
      "\u30b2": 1716,
      "\u770c": 1717,
      "\u5e7b": 1718,
      "\u60f3": 1719,
      "\u66f2": 1720,
      "\u06a4": 1721,
      "\u664b": 1722,
      "\u6c5f": 1723,
      "\u67cf": 1724,
      "\u04ba": 1725,
      "\u4f91": 1726,
      "\u53f0": 1727,
      "\u6717": 1728,
      "\u4e18": 1729,
      "\u7b1b": 1730,
      "\u6728": 1731,
      "\u594f": 1732,
      "\uc74d": 1733,
      "\u5433": 1734,
      "\u6f84": 1735,
      "\u00a9": 1736,
      "\ub8e1": 1737,
      "\u3001": 1738,
      "\u559c": 1739,
      "\u3073": 1740,
      "\ud074": 1741,
      "\ub7fd": 1742,
      "\u25b2": 1743,
      "\u984c": 1744,
      "\u9898": 1745,
      "\u6e05": 1746,
      "\u9285": 1747,
      "\u5f70": 1748,
      "\u0531": 1749,
      "\u057f": 1750,
      "\u056b": 1751,
      "\u039c": 1752,
      "\u5c65": 1753,
      "\u4eac": 1754,
      "\u00a2": 1755,
      "\u6d1b": 1756,
      "\u5c14": 1757,
      "\u1e17": 1758,
      "\u0e39": 1759,
      "\u0e49": 1760,
      "\u0e32": 1761,
      "\u0e17": 1762,
      "\u0e35": 1763,
      "\u0e48": 1764,
      "\u9280": 1765,
      "\u5ea7": 1766,
      "\u3072": 1767,
      "\u6bd4": 1768,
      "\u5916": 1769,
      "\u697d": 1770,
      "\u66fd": 1771,
      "\u026f": 1772,
      "\u614b": 1773,
      "\u6001": 1774,
      "\u0127": 1775,
      "\u3053": 1776,
      "\u10eb": 1777,
      "\u55e3": 1778,
      "\u7db1": 1779,
      "\u30b6": 1780,
      "\u200c": 1781,
      "\u0941": 1782,
      "\u00ff": 1783,
      "\u529f": 1784,
      "\u592b": 1785,
      "\u8db3": 1786,
      "\u7403": 1787,
      "\u6276": 1788,
      "\u7b50": 1789,
      "\u4e03": 1790,
      "\u1ecb": 1791,
      "\u30d3": 1792,
      "\u0130": 1793,
      "\u0406": 1794,
      "\u9023": 1795,
      "\ud559": 1796,
      "\u82d4": 1797,
      "\u300f": 1798,
      "\u4e26": 1799,
      "\u66f8": 1800,
      "\u5ca9": 1801,
      "\u811a": 1802,
      "\u021b": 1803,
      "\u6642": 1804,
      "\u83dc": 1805,
      "\u039a": 1806,
      "\u0a38": 1807,
      "\u0a3e": 1808,
      "\u0a39": 1809,
      "\u0a3f": 1810,
      "\u0a2c": 1811,
      "\u30e8": 1812,
      "\u01f5": 1813,
      "\u7d14": 1814,
      "\u7eaf": 1815,
      "\u59ec": 1816,
      "\u4f86": 1817,
      "\u667a": 1818,
      "\u8655": 1819,
      "\u5904": 1820,
      "\u51e6": 1821,
      "\u64d4": 1822,
      "\u62c5": 1823,
      "\uc784": 1824,
      "\uc2ac": 1825,
      "\uc639": 1826,
      "\u0458": 1827,
      "\u624b": 1828,
      "\u8108": 1829,
      "\u8109": 1830,
      "\ub791": 1831,
      "\u8fd0": 1832,
      "\u0962": 1833,
      "\u092a": 1834,
      "\u8cac": 1835,
      "\u8d23": 1836,
      "\u57fa": 1837,
      "\u970d": 1838,
      "\u9c67": 1839,
      "\u05b3": 1840,
      "\u6c85": 1841,
      "\u540c": 1842,
      "\u10d3": 1843,
      "\u6df1": 1844,
      "\u1a08": 1845,
      "\u821e": 1846,
      "\u0f51": 1847,
      "\u0f56": 1848,
      "\u0f44": 1849,
      "\u0f0b": 1850,
      "\u0f55": 1851,
      "\u0fb1": 1852,
      "\u0f74": 1853,
      "\u0f42": 1854,
      "\u0f62": 1855,
      "\u0f92": 1856,
      "\u0f63": 1857,
      "\u016d": 1858,
      "\u2153": 1859,
      "\u67f1": 1860,
      "\u300e": 1861,
      "\u8266": 1862,
      "\u8239": 1863,
      "\ufe0f": 1864,
      "\u0361": 1865,
      "\uc724": 1866,
      "\u8272": 1867,
      "\u30ce": 1868,
      "\u3084": 1869,
      "\u30e5": 1870,
      "\u1f11": 1871,
      "\u6731": 1872,
      "\u5b66": 1873,
      "\u6613": 1874,
      "\u7259": 1875,
      "\u0ba8": 1876,
      "\u0bcd": 1877,
      "\u0bb1": 1878,
      "\u0b9a": 1879,
      "\u0bc6": 1880,
      "\u0b99": 1881,
      "\u1ed5": 1882,
      "\uc870": 1883,
      "\ub2f9": 1884,
      "\u05d6": 1885,
      "\u706b": 1886,
      "\u2010": 1887,
      "\u99c4": 1888,
      "\u7bb1": 1889,
      "\u06ac": 1890,
      "\u0135": 1891,
      "\u0332": 1892,
      "\u0669": 1893,
      "\u0494": 1894,
      "\u10ea": 1895,
      "\u10e3": 1896,
      "\u6f0f": 1897,
      "\u1a06": 1898,
      "\u1039": 1899,
      "\u9322": 1900,
      "\u0402": 1901,
      "\u306f": 1902,
      "\u7720": 1903,
      "\u3089": 1904,
      "\u4e01": 1905,
      "\uffe5": 1906,
      "\uce60": 1907,
      "\u6e9d": 1908,
      "\u72ed": 1909,
      "\u675c": 1910,
      "\u838e": 1911,
      "\u8721": 1912,
      "\uba85": 1913,
      "\u3007": 1914,
      "\u1e92": 1915,
      "\u7ba1": 1916,
      "\u0638": 1917,
      "\u3070": 1918,
      "\u65c5": 1919,
      "\u03a5": 1920,
      "\u2260": 1921,
      "\ud6c4": 1922,
      "\ub54c": 1923,
      "\u7a0e": 1924,
      "\u0666": 1925,
      "\uc2ec": 1926,
      "\u2248": 1927,
      "\u1f04": 1928,
      "\uac11": 1929,
      "\u4e88": 1930,
      "\u672c": 1931,
      "\u53f7": 1932,
      "\u990a": 1933,
      "\u8d08": 1934,
      "\u0454": 1935,
      "\u98a8": 1936,
      "\u67f3": 1937,
      "\u93ae": 1938,
      "\u9022": 1939,
      "\u7532": 1940,
      "\u904a": 1941,
      "\u8a69": 1942,
      "\u6240": 1943,
      "\u8868": 1944,
      "\u6075": 1945,
      "\uc2e0": 1946,
      "\uc554": 1947,
      "\uc5ed": 1948,
      "\u591c": 1949,
      "\u793a": 1950,
      "\u1f70": 1951,
      "\u52a0": 1952,
      "\u1e5b": 1953,
      "\u5fe0": 1954,
      "\u4fca": 1955,
      "\u8302": 1956,
      "\u30af": 1957,
      "\u834a": 1958,
      "\u695a": 1959,
      "\u6b72": 1960,
      "\u8a18": 1961,
      "\u10e1": 1962,
      "\u10e5": 1963,
      "\u10d7": 1964,
      "\u1f05": 1965,
      "\u04b6": 1966,
      "\u4fe1": 1967,
      "\u9003": 1968,
      "\u5b78": 1969,
      "\u5a01": 1970,
      "\u9951": 1971,
      "\u8352": 1972,
      "\u5be6": 1973,
      "\u4e4c": 1974,
      "\u9c81": 1975,
      "\u9f50": 1976,
      "\u20b9": 1977,
      "\u06a0": 1978,
      "\u5ca1": 1979,
      "\u5b8c": 1980,
      "\u5168": 1981,
      "\u7d20": 1982,
      "\u7de8": 1983,
      "\ufed1": 1984,
      "\u064c": 1985,
      "\ubb38": 1986,
      "\ud5c8": 1987,
      "\u03f1": 1988,
      "\u5bdd": 1989,
      "\u5f85": 1990,
      "\u985e": 1991,
      "\u7c7b": 1992,
      "\u75db": 1993,
      "\u74e3": 1994,
      "\u4e54": 1995,
      "\uc124": 1996,
      "\uc528": 1997,
      "\u7591": 1998,
      "\u5d50": 1999,
      "\u8535": 2000,
      "\u00c8": 2001,
      "\u2265": 2002,
      "\u0257": 2003,
      "\u10f0": 2004,
      "\u042f": 2005,
      "\u6743": 2006,
      "\u755a": 2007,
      "\u7b95": 2008,
      "\u67d2": 2009,
      "\u953a": 2010,
      "\u6d9b": 2011,
      "\uaca8": 2012,
      "\u53c8": 2013,
      "\u898b": 2014,
      "\u8521": 2015,
      "\u5761": 2016,
      "\u0daf": 2017,
      "\u0dd9": 2018,
      "\u0d9a": 2019,
      "\u013e": 2020,
      "\u9093": 2021,
      "\u5c0f": 2022,
      "\u5de1": 2023,
      "\u1ee9": 2024,
      "\u6f58": 2025,
      "\u6b4c": 2026,
      "\u4faf": 2027,
      "\u5ee3": 2028,
      "\u5ed6": 2029,
      "\u81e8": 2030,
      "\u4e34": 2031,
      "\u04c4": 2032,
      "\u64da": 2033,
      "\u636e": 2034,
      "\u62e0": 2035,
      "\u6234": 2036,
      "\u7389": 2037,
      "\u5f3a": 2038,
      "\u66ae": 2039,
      "\u6df7": 2040,
      "\u040a": 2041,
      "\u8fea": 2042,
      "\u0982": 2043,
      "\u09b2": 2044,
      "\u09ae": 2045,
      "\u09c0": 2046,
      "\u8207": 2047,
      "\u6804": 2048,
      "\u7f8a": 2049,
      "\uae34": 2050,
      "\ud615": 2051,
      "\ub2d8": 2052,
      "\uae08": 2053,
      "\uad70": 2054,
      "\u5b2a": 2055,
      "\u0148": 2056,
      "\u05b4": 2057,
      "\u0591": 2058,
      "\u7dbf": 2059,
      "\u7ef5": 2060,
      "\u307d": 2061,
      "\uc26c": 2062,
      "\uc988": 2063,
      "\u9020": 2064,
      "\u548c": 2065,
      "\u8865": 2066,
      "\u1ec5": 2067,
      "\u5bf8": 2068,
      "\u6c38": 2069,
      "\u82b3": 2070,
      "\u0323": 2071,
      "\u83f1": 2072,
      "\u6771": 2073,
      "\u88fd": 2074,
      "\u85ac": 2075,
      "\u78ba": 2076,
      "\u786e": 2077,
      "\ub984": 2078,
      "\ub2f5": 2079,
      "\u0d30": 2080,
      "\u0d3e": 2081,
      "\u0d1c": 2082,
      "\u0d4d": 2083,
      "\u0d2f": 2084,
      "\u0d19": 2085,
      "\u0d7e": 2086,
      "\u042d": 2087,
      "\u4f9d": 2088,
      "\u65cf": 2089,
      "\ucda9": 2090,
      "\u76ee": 2091,
      "\u026c": 2092,
      "\u029f": 2093,
      "\u6b62": 2094,
      "\u2264": 2095,
      "\u5b59": 2096,
      "\u7956": 2097,
      "\u00de": 2098,
      "\u675f": 2099,
      "\u6a5f": 2100,
      "\u5de7": 2101,
      "\u5716": 2102,
      "\u5f59": 2103,
      "\ud3ec": 2104,
      "\ub180": 2105,
      "\ucda4": 2106,
      "\ub73b": 2107,
      "\ud588": 2108,
      "\ub124": 2109,
      "\ud800\udeba": 2110,
      "\u73ca": 2111,
      "\u6fc0": 2112,
      "\u5fc5": 2113,
      "\u52dd": 2114,
      "\u2193": 2115,
      "\u7d0d": 2116,
      "\u4ec0": 2117,
      "\u58a8": 2118,
      "\u79e6": 2119,
      "\u5a66": 2120,
      "\u5f9e": 2121,
      "\u5f93": 2122,
      "\u9cf4": 2123,
      "\u9e23": 2124,
      "\u7bc9": 2125,
      "\u7b51": 2126,
      "\u2113": 2127,
      "\u806f": 2128,
      "\u5408": 2129,
      "\u58e4": 2130,
      "\u884c": 2131,
      "\u6298": 2132,
      "\u0173": 2133,
      "\u0bae": 2134,
      "\u0bb5": 2135,
      "\u0b9f": 2136,
      "\u6edd": 2137,
      "\u090f": 2138,
      "\ub208": 2139,
      "\ub3c4": 2140,
      "\ud589": 2141,
      "\u829d": 2142,
      "\u3056": 2143,
      "\u2015": 2144,
      "\uba39": 2145,
      "\u065a": 2146,
      "\u0419": 2147,
      "\u91cd": 2148,
      "\u5de5": 2149,
      "\u010f": 2150,
      "\u018f": 2151,
      "\u700b": 2152,
      "\u6b74": 2153,
      "\u1ef3": 2154,
      "\u33a1": 2155,
      "\u0581": 2156,
      "\u056d": 2157,
      "\u0927": 2158,
      "\u0940": 2159,
      "\u091c": 2160,
      "\u00d0": 2161,
      "\u5922": 2162,
      "\u68a6": 2163,
      "\u5544": 2164,
      "\u5451": 2165,
      "\u1edd": 2166,
      "\u0e19": 2167,
      "\u0e04": 2168,
      "\u0e1e": 2169,
      "\u0e21": 2170,
      "\u6a44": 2171,
      "\u6b16": 2172,
      "\u864e": 2173,
      "\u901a": 2174,
      "\u7528": 2175,
      "\u80a1": 2176,
      "\u4efd": 2177,
      "\u6709": 2178,
      "\u9650": 2179,
      "\u5165": 2180,
      "\u6d41": 2181,
      "\u59bb": 2182,
      "\u1012": 2183,
      "\u102f": 2184,
      "\u1031": 2185,
      "\u101c": 2186,
      "\u1004": 2187,
      "\u6bdb": 2188,
      "\u02bd": 2189,
      "\u6c6a": 2190,
      "\u0081": 2191,
      "\u807d": 2192,
      "\u6fe4": 2193,
      "\ub9bc": 2194,
      "\u7384": 2195,
      "\u5fcd": 2196,
      "\uc624": 2197,
      "\ube60": 2198,
      "\ub780": 2199,
      "\u54e1": 2200,
      "\u9644": 2201,
      "\u8fd1": 2202,
      "\u4f6c": 2203,
      "\uc0bc": 2204,
      "\ucf1c": 2205,
      "\u0db1": 2206,
      "\u0ddc": 2207,
      "\u0dd0": 2208,
      "\u30da": 2209,
      "\u0d06": 2210,
      "\u0d23": 2211,
      "\u0d35": 2212,
      "\u0d41": 2213,
      "\u0d27": 2214,
      "\u0d3f": 2215,
      "\u0d26": 2216,
      "\u6eab": 2217,
      "\u6e29": 2218,
      "\u7075": 2219,
      "\u970a": 2220,
      "\u6f6e": 2221,
      "\u0177": 2222,
      "\u725b": 2223,
      "\u55ae": 2224,
      "\u74bd": 2225,
      "\u013c": 2226,
      "\u02e4": 2227,
      "\u9178": 2228,
      "\u2603": 2229,
      "\u66fc": 2230,
      "\u4fde": 2231,
      "\u66f4": 2232,
      "\u5bc5": 2233,
      "\uc81c": 2234,
      "\ubca0": 2235,
      "\u62c2": 2236,
      "\u83fb": 2237,
      "\ucf58": 2238,
      "\u53cd": 2239,
      "\u8caa": 2240,
      "\u8150": 2241,
      "\u5012": 2242,
      "\u6241": 2243,
      "\u5dba": 2244,
      "\u2070": 2245,
      "\u039f": 2246,
      "\u5c6c": 2247,
      "\u5c5e": 2248,
      "\ubb34": 2249,
      "\u81f4": 2250,
      "\u6046": 2251,
      "\u8d5e": 2252,
      "\u591a": 2253,
      "\u9f20": 2254,
      "\u0ea5": 2255,
      "\u0eb2": 2256,
      "\u0e9a": 2257,
      "\u4ea1": 2258,
      "\u1f45": 2259,
      "\u5e78": 2260,
      "\ubcf5": 2261,
      "\ud790": 2262,
      "\u8a31": 2263,
      "\u51a0": 2264,
      "\ub9dd": 2265,
      "\uc2a4": 2266,
      "\u3005": 2267,
      "\u5dde": 2268,
      "\u5efa": 2269,
      "\u1ef7": 2270,
      "\u6563": 2271,
      "\u1ecd": 2272,
      "\u0710": 2273,
      "\u304b": 2274,
      "\u79c1": 2275,
      "\u7206": 2276,
      "\u5f3e": 2277,
      "\u6a02": 2278,
      "\u8981": 2279,
      "\u5305": 2280,
      "\u8a98": 2281,
      "\u62d0": 2282,
      "\u5831": 2283,
      "\u2192": 2284,
      "\u2661": 2285,
      "\u051b": 2286,
      "\u1ee5": 2287,
      "\uacf0": 2288,
      "\ubc30": 2289,
      "\ud56d": 2290,
      "\uad6d": 2291,
      "\u0667": 2292,
      "\u60b2": 2293,
      "\u5584": 2294,
      "\ufe8f": 2295,
      "\u5e08": 2296,
      "\u8a95": 2297,
      "\u8bde": 2298,
      "\u030d": 2299,
      "\u96e8": 2300,
      "\u6ef4": 2301,
      "\u7690": 2302,
      "\u97e9": 2303,
      "\u4f69": 2304,
      "\u6cc9": 2305,
      "\u6050": 2306,
      "\u6016": 2307,
      "\u30bb": 2308,
      "\u3058": 2309,
      "\u4f19": 2310,
      "\u4f34": 2311,
      "\ufe8d": 2312,
      "\ud76c": 2313,
      "\u1f01": 2314,
      "\u06a2": 2315,
      "\u9810": 2316,
      "\u9884": 2317,
      "\u6238": 2318,
      "\ubaac": 2319,
      "\u04af": 2320,
      "\u59da": 2321,
      "\u6df3": 2322,
      "\u8000": 2323,
      "\u7d42": 2324,
      "\u65bc": 2325,
      "\u9032": 2326,
      "\u4e86": 2327,
      "\u6232": 2328,
      "\u5287": 2329,
      "\u3046": 2330,
      "\u0908": 2331,
      "\ufeed": 2332,
      "\u8005": 2333,
      "\u0104": 2334,
      "\ub5a0": 2335,
      "\ub4e4": 2336,
      "\uc744": 2337,
      "\uc62c": 2338,
      "\u555f": 2339,
      "\u7248": 2340,
      "\ubc84": 2341,
      "\u90fd": 2342,
      "\ud800\udecf": 2343,
      "\u10d2": 2344,
      "\u10de": 2345,
      "\u7d66": 2346,
      "\u7ed9": 2347,
      "\u6768": 2348,
      "\u5be8": 2349,
      "\u00a1": 2350,
      "\u53f6": 2351,
      "\u7693": 2352,
      "\u9ad4": 2353,
      "\u0985": 2354,
      "\u09a6": 2355,
      "\u09b9": 2356,
      "\u09cd": 2357,
      "\u09af": 2358,
      "\u014e": 2359,
      "\u7c73": 2360,
      "\u76e4": 2361,
      "\u575d": 2362,
      "\u20a9": 2363,
      "\u1f78": 2364,
      "\u018e": 2365,
      "\u7d17": 2366,
      "\u7a00": 2367,
      "\u3134": 2368,
      "\u041b": 2369,
      "\ua99b": 2370,
      "\ua9a2": 2371,
      "\ucc38": 2372,
      "\u79d2": 2373,
      "\u9593": 2374,
      "\u0937": 2375,
      "\u091f": 2376,
      "\uc8fd": 2377,
      "\u09b0": 2378,
      "\u0bca": 2379,
      "\u0bb2": 2380,
      "\u5cd2": 2381,
      "\u5bae": 2382,
      "\u0e81": 2383,
      "\u0eb5": 2384,
      "\u0e94": 2385,
      "\u0ea7": 2386,
      "\u0ead": 2387,
      "\u0e99": 2388,
      "\u00b9": 2389,
      "\u6469": 2390,
      "\u62fd": 2391,
      "\u4f10": 2392,
      "\u0451": 2393,
      "\u25a0": 2394,
      "\u3087": 2395,
      "\u3074": 2396,
      "\u5171": 2397,
      "\u9057": 2398,
      "\u0715": 2399,
      "\u0732": 2400,
      "\u072a": 2401,
      "\u0713": 2402,
      "\u073c": 2403,
      "\u072b": 2404,
      "\u072c": 2405,
      "\u5c11": 2406,
      "\u8efd": 2407,
      "\u4ee4": 2408,
      "\u0303": 2409,
      "\u6297": 2410,
      "\u6218": 2411,
      "\u4e89": 2412,
      "\u9762": 2413,
      "\u8bb0": 2414,
      "\ubc29": 2415,
      "\u8d35": 2416,
      "\u7701": 2417,
      "\u8282": 2418,
      "\u533a": 2419,
      "\u8bc6": 2420,
      "\u522b": 2421,
      "\u529e": 2422,
      "\u5ba4": 2423,
      "\ud574": 2424,
      "\ube48": 2425,
      "\u7a9f": 2426,
      "\u76f8": 2427,
      "\u8ddd": 2428,
      "\u9918": 2429,
      "\u03a8": 2430,
      "\u02d1": 2431,
      "\u4e91": 2432,
      "\u50e7": 2433,
      "\u9e64": 2434,
      "\u9c40": 2435,
      "\u96c0": 2436,
      "\u6bbc": 2437,
      "\u58f3": 2438,
      "\u6bbb": 2439,
      "\u1f36": 2440,
      "\u70cf": 2441,
      "\u6280": 2442,
      "\u6cbb": 2443,
      "\u5e9c": 2444,
      "\u1789": 2445,
      "\u1785": 2446,
      "\u179a": 2447,
      "\u17c0": 2448,
      "\u0721": 2449,
      "\u071d": 2450,
      "\u04cc": 2451,
      "\u5606": 2452,
      "\u10ae": 2453,
      "\u0a2a": 2454,
      "\u0a70": 2455,
      "\u0a1c": 2456,
      "\u0a40": 2457,
      "\ud802\ude6b": 2458,
      "\ud802\ude6c": 2459,
      "\ud802\ude75": 2460,
      "\ud802\ude69": 2461,
      "\u64c0": 2462,
      "\u6be1": 2463,
      "\u85ab": 2464,
      "\u0e22": 2465,
      "\u0e02": 2466,
      "\u0e28": 2467,
      "\u702c": 2468,
      "\u3048": 2469,
      "\u56fe": 2470,
      "\u56f3": 2471,
      "\u02b2": 2472,
      "\u04bb": 2473,
      "\u82e5": 2474,
      "\u7231": 2475,
      "\u182e": 2476,
      "\u1823": 2477,
      "\u1835": 2478,
      "\u1873": 2479,
      "\u1865": 2480,
      "\u1836": 2481,
      "\u1820": 2482,
      "\u1830": 2483,
      "\u1225": 2484,
      "\u120b": 2485,
      "\u1234": 2486,
      "\u7d76": 2487,
      "\u3051": 2488,
      "\u0245": 2489,
      "\u8f38": 2490,
      "\u8f93": 2491,
      "\ucd1d": 2492,
      "\uc3d8": 2493,
      "\u7ae5": 2494,
      "\u8fdc": 2495,
      "\u6740": 2496,
      "\ub0b4": 2497,
      "\u5718": 2498,
      "\u56e2": 2499,
      "\u56e3": 2500,
      "\u02c1": 2501,
      "\ufebb": 2502,
      "\ufee0": 2503,
      "\ufbaf": 2504,
      "\uff0f": 2505,
      "\u975c": 2506,
      "\u9759": 2507,
      "\u6dda": 2508,
      "\u5f6d": 2509,
      "\u542f": 2510,
      "\u733f": 2511,
      "\u641c": 2512,
      "\u1f0c": 2513,
      "\u0171": 2514,
      "\u5b5d": 2515,
      "\u5ba3": 2516,
      "\u540e": 2517,
      "\u2d30": 2518,
      "\u2d45": 2519,
      "\u2d4f": 2520,
      "\u2d53": 2521,
      "\u2d5b": 2522,
      "\u00cb": 2523,
      "\u6cfd": 2524,
      "\u5764": 2525,
      "\u9418": 2526,
      "\u96e2": 2527,
      "\u5f5d": 2528,
      "\u0416": 2529,
      "\u6ce3": 2530,
      "\uc885": 2531,
      "\u9905": 2532,
      "\u0112": 2533,
      "\u8a87": 2534,
      "\u3083": 2535,
      "\u602a": 2536,
      "\u5e7e": 2537,
      "\u8d70": 2538,
      "\u5411": 2539,
      "\u5348": 2540,
      "\u4ecb": 2541,
      "\u7d39": 2542,
      "\u2299": 2543,
      "\u6388": 2544,
      "\u0e01": 2545,
      "\u0e4a": 2546,
      "\u0e31": 2547,
      "\u9645": 2548,
      "\u1e5f": 2549,
      "\u1b1c": 2550,
      "\u1b36": 2551,
      "\u1b2d": 2552,
      "\u1b40": 2553,
      "\u1b13": 2554,
      "\u1b24": 2555,
      "\u1b38": 2556,
      "\u1b2e": 2557,
      "\u1b44": 2558,
      "\u63a1": 2559,
      "\ubc14": 2560,
      "\u8303": 2561,
      "\u5091": 2562,
      "\u03cb": 2563,
      "\u3054": 2564,
      "\u10e8": 2565,
      "\u04b3": 2566,
      "\u10ef": 2567,
      "\u10ee": 2568,
      "\ud64d": 2569,
      "\ub294": 2570,
      "\u0e15": 2571,
      "\u0e33": 2572,
      "\u0e38": 2573,
      "\u7cbe": 2574,
      "\u5206": 2575,
      "\u88c2": 2576,
      "\u75c5": 2577,
      "\u7576": 2578,
      "\u5175": 2579,
      "\u5c31": 2580,
      "\u6155": 2581,
      "\u6c9b": 2582,
      "\u6d0b": 2583,
      "\u0281": 2584,
      "\u028d": 2585,
      "\u1f51": 2586,
      "\u4e5f": 2587,
      "\u5feb": 2588,
      "\u672f": 2589,
      "\uadc0": 2590,
      "\u17a2": 2591,
      "\u1784": 2592,
      "\u1782": 2593,
      "\u179c": 2594,
      "\u0e27": 2595,
      "\u0e0a": 2596,
      "\u04d8": 2597,
      "\u58f0": 2598,
      "\u0913": 2599,
      "\u0427": 2600,
      "\u1005": 2601,
      "\u102c": 2602,
      "\u7bc6": 2603,
      "\u5434": 2604,
      "\u81fa": 2605,
      "\u0162": 2606,
      "\u1fb0": 2607,
      "\u1fe0": 2608,
      "\u68e0": 2609,
      "\u6e7e": 2610,
      "\u83ab": 2611,
      "\u1b8a": 2612,
      "\u1ba7": 2613,
      "\u1b92": 2614,
      "\u78a7": 2615,
      "\u5251": 2616,
      "\u9ea5": 2617,
      "\u8c6a": 2618,
      "\u6606": 2619,
      "\u7f55": 2620,
      "\u1edb": 2621,
      "\u054e": 2622,
      "\u0577": 2623,
      "\u820a": 2624,
      "\u65e7": 2625,
      "\u2640": 2626,
      "\uba74": 2627,
      "\u7e96": 2628,
      "\u7ea4": 2629,
      "\u7e4a": 2630,
      "\u4e66": 2631,
      "\u97fb": 2632,
      "\u734e": 2633,
      "\u8f2f": 2634,
      "\u7363": 2635,
      "\u5ac1": 2636,
      "\u30c0": 2637,
      "\u30e7": 2638,
      "\ufe9d": 2639,
      "\u1e2a": 2640,
      "\u5a3c": 2641,
      "\u5993": 2642,
      "\u8fc7": 2643,
      "\u53bb": 2644,
      "\u016a": 2645,
      "\u7a46": 2646,
      "\uc6a9": 2647,
      "\u6295": 2648,
      "\u9996": 2649,
      "\u4e59": 2650,
      "\u5e8a": 2651,
      "\uad11": 2652,
      "\uc5fc": 2653,
      "\ud0c0": 2654,
      "\u6a19": 2655,
      "\u6e96": 2656,
      "\u8a9e": 2657,
      "\u0db8": 2658,
      "\u0dd2": 2659,
      "\u0dc1": 2660,
      "\u0dca": 2661,
      "\u0dbb": 2662,
      "\u5143": 2663,
      "\u7dcf": 2664,
      "\u9078": 2665,
      "\u6319": 2666,
      "\u5236": 2667,
      "\u0532": 2668,
      "\u0571": 2669,
      "\u0563": 2670,
      "\u0253": 2671,
      "\u21c4": 2672,
      "\u05b1": 2673,
      "\u0596": 2674,
      "\u65d7": 2675,
      "\ub825": 2676,
      "\u9e2d": 2677,
      "\u4ff1": 2678,
      "\u7bee": 2679,
      "\u820e": 2680,
      "\ud802\udd21": 2681,
      "\u4eee": 2682,
      "\uc545": 2683,
      "\u50b3": 2684,
      "\u8ffd": 2685,
      "\u61b6": 2686,
      "\u3075": 2687,
      "\u5c1a": 2688,
      "\u866b": 2689,
      "\u4f60": 2690,
      "\uc77c": 2691,
      "\ub514": 2692,
      "\uc5b4": 2693,
      "\u049a": 2694,
      "\u04b1": 2695,
      "\u0dc3": 2696,
      "\u0dda": 2697,
      "\u8bba": 2698,
      "\u575b": 2699,
      "\u9a5a": 2700,
      "\uc6cc": 2701,
      "\u030c": 2702,
      "\ua9a5": 2703,
      "\u03a9": 2704,
      "\uc648": 2705,
      "\uce20": 2706,
      "\u0657": 2707,
      "\u06e4": 2708,
      "\u2191": 2709,
      "\u0e37": 2710,
      "\u012d": 2711,
      "\u098f": 2712,
      "\u0905": 2713,
      "\u714e": 2714,
      "\u0218": 2715,
      "\u5fae": 2716,
      "\u1f08": 2717,
      "\u06b5": 2718,
      "\u61c9": 2719,
      "\u5e94": 2720,
      "\u5fdc": 2721,
      "\u5047": 2722,
      "\u51b7": 2723,
      "\u031e": 2724,
      "\u6c23": 2725,
      "\u6c14": 2726,
      "\u6c17": 2727,
      "\u62f3": 2728,
      "\u0e25": 2729,
      "\u5a03": 2730,
      "\u4ead": 2731,
      "\u9ece": 2732,
      "\u82d7": 2733,
      "\u9ed2": 2734,
      "\u9f13": 2735,
      "\u63fa": 2736,
      "\u304e": 2737,
      "\u0b87": 2738,
      "\u0b95": 2739,
      "\u0baf": 2740,
      "\u63a8": 2741,
      "\u5199": 2742,
      "\u679c": 2743,
      "\u685c": 2744,
      "\u5f8c": 2745,
      "\u5f17": 2746,
      "\u8fdf": 2747,
      "\u0109": 2748,
      "\uac01": 2749,
      "\u06c1": 2750,
      "\ua937": 2751,
      "\ua941": 2752,
      "\ua93c": 2753,
      "\u640d": 2754,
      "\u635f": 2755,
      "\u016f": 2756,
      "\u5e1b": 2757,
      "\u4ec4": 2758,
      "\u012a": 2759,
      "\u4ef2": 2760,
      "\u58eb": 2761,
      "\u0331": 2762,
      "\ud800\udf13": 2763,
      "\uad50": 2764,
      "\u06be": 2765,
      "\u5c1d": 2766,
      "\u918b": 2767,
      "\u4ed5": 2768,
      "\u0679": 2769,
      "\u0272": 2770,
      "\u7cd6": 2771,
      "\u89aa": 2772,
      "\u5c79": 2773,
      "\u0e18": 2774,
      "\u8f2a": 2775,
      "\u8f6e": 2776,
      "\u72c4": 2777,
      "\u09aa": 2778,
      "\u8b72": 2779,
      "\u0db0": 2780,
      "\u04f7": 2781,
      "\u7c60": 2782,
      "\u6bd2": 2783,
      "\ub144": 2784,
      "\u7e7c": 2785,
      "\u7ee7": 2786,
      "\u7d99": 2787,
      "\u044d": 2788,
      "\u6bcf": 2789,
      "\u6bce": 2790,
      "\u8ac7": 2791,
      "\u6574": 2792,
      "\ud601": 2793,
      "\u3064": 2794,
      "\ube64": 2795,
      "\u6c7a": 2796,
      "\u65ad": 2797,
      "\u7f36": 2798,
      "\ucca9": 2799,
      "\u945b": 2800,
      "\u7926": 2801,
      "\u77ff": 2802,
      "\u9271": 2803,
      "\ub95c": 2804,
      "\ud0dc": 2805,
      "\u17c6": 2806,
      "\u1799": 2807,
      "\u1798": 2808,
      "\u8d64": 2809,
      "\u071a": 2810,
      "\u073f": 2811,
      "\u52c7": 2812,
      "\u7a74": 2813,
      "\u67f5": 2814,
      "\u1f1c": 2815,
      "\u1eef": 2816,
      "\u091a": 2817,
      "\u77ac": 2818,
      "\u307b": 2819,
      "\u3069": 2820,
      "\u9304": 2821,
      "\u5f55": 2822,
      "\u9332": 2823,
      "\u732b": 2824,
      "\u0939": 2825,
      "\u805e": 2826,
      "\u95fb": 2827,
      "\ud802\udf55": 2828,
      "\ud802\udf49": 2829,
      "\ud802\udf53": 2830,
      "\ud802\udf43": 2831,
      "\ucc28": 2832,
      "\u0e42": 2833,
      "\u68ee": 2834,
      "\u7e6a": 2835,
      "\u7ed8": 2836,
      "\u7d75": 2837,
      "\u9ede": 2838,
      "\u65e2": 2839,
      "\uc11d": 2840,
      "\u0118": 2841,
      "\u8b1d": 2842,
      "\u1eeb": 2843,
      "\u6e58": 2844,
      "\u0452": 2845,
      "\u045b": 2846,
      "\u5403": 2847,
      "\ud380": 2848,
      "\uc1a1": 2849,
      "\ud3c9": 2850,
      "\uc0c1": 2851,
      "\ud68c": 2852,
      "\u9a45": 2853,
      "\u9a71": 2854,
      "\u99c6": 2855,
      "\u0a41": 2856,
      "\u0a30": 2857,
      "\u0a26": 2858,
      "\u0a06": 2859,
      "\ua9aa": 2860,
      "\u028e": 2861,
      "\u0157": 2862,
      "\u9670": 2863,
      "\ub0ad": 2864,
      "\u8fde": 2865,
      "\u05f3": 2866,
      "\u2030": 2867,
      "\u00d4": 2868,
      "\u02cc": 2869,
      "\u2c6f": 2870,
      "\u96f7": 2871,
      "\u8aa0": 2872,
      "\u7a81": 2873,
      "\u0db4": 2874,
      "\u6307": 2875,
      "\u79d1": 2876,
      "\u17c1": 2877,
      "\u665d": 2878,
      "\u663c": 2879,
      "\u5967": 2880,
      "\u723e": 2881,
      "\u0c95": 2882,
      "\u0cc6": 2883,
      "\u5439": 2884,
      "\u5948": 2885,
      "\u5bfc": 2886,
      "\u7edf": 2887,
      "\u4f5b": 2888,
      "\u59d4": 2889,
      "\u731b": 2890,
      "\u9ae2": 2891,
      "\u010a": 2892,
      "\u6734": 2893,
      "\u7433": 2894,
      "\u042e": 2895,
      "\ud5a5": 2896,
      "\u9069": 2897,
      "\u9002": 2898,
      "\u4e1c": 2899,
      "\u513a": 2900,
      "\u5267": 2901,
      "\uff65": 2902,
      "\u09a4": 2903,
      "\u9298": 2904,
      "\u0d9c": 2905,
      "\u79a7": 2906,
      "\u9594": 2907,
      "\u6cf3": 2908,
      "\u73ea": 2909,
      "\u0e09": 2910,
      "\ub4f1": 2911,
      "\u71c3": 2912,
      "\u71c8": 2913,
      "\uc625": 2914,
      "\u30bc": 2915,
      "\ubc25": 2916,
      "\u9ed9": 2917,
      "\u654f": 2918,
      "\u010e": 2919,
      "\u8c9e": 2920,
      "\u89b3": 2921,
      "\u9707": 2922,
      "\u10e7": 2923,
      "\u96f2": 2924,
      "\u10fb": 2925,
      "\u82fb": 2926,
      "\u0654": 2927,
      "\u226b": 2928,
      "\u5e2d": 2929,
      "\u03ca": 2930,
      "\u515c": 2931,
      "\u7d19": 2932,
      "\u98db": 2933,
      "\u7eb1": 2934,
      "\u89e3": 2935,
      "\ubb3c": 2936,
      "\u89bd": 2937,
      "\u89c8": 2938,
      "\u21d2": 2939,
      "\u5e83": 2940,
      "\u0624": 2941,
      "\u221a": 2942,
      "\u1ee6": 2943,
      "\u53d6": 2944,
      "\uff3f": 2945,
      "\u266a": 2946,
      "\u95a2": 2947,
      "\u63b2": 2948,
      "\u8f09": 2949,
      "\ubc95": 2950,
      "\u5c39": 2951,
      "\u54f2": 2952,
      "\u96c4": 2953,
      "\u9452": 2954,
      "\u9274": 2955,
      "\u9451": 2956,
      "\u53d9": 2957,
      "\uc6b4": 2958,
      "\u1ee7": 2959,
      "\uc628": 2960,
      "\u6614": 2961,
      "\u8eab": 2962,
      "\uc0b4": 2963,
      "\ubc18": 2964,
      "\u8dcf": 2965,
      "\u60df": 2966,
      "\u035f": 2967,
      "\u96c1": 2968,
      "\ud508": 2969,
      "\u8089": 2970,
      "\ud802\udc95": 2971,
      "\ud802\udc83": 2972,
      "\ud802\udc8b": 2973,
      "\ud802\udc88": 2974,
      "\u6d01": 2975,
      "\u6c88": 2976,
      "\u5112": 2977,
      "\ucde8": 2978,
      "\u7409": 2979,
      "\u7fa4": 2980,
      "\u5bf9": 2981,
      "\u5360": 2982,
      "\u9886": 2983,
      "\u5733": 2984,
      "\u5de2": 2985,
      "\u5de3": 2986,
      "\u6ce8": 2987,
      "\u5404": 2988,
      "\ud5e8": 2989,
      "\u200e": 2990,
      "\u6b6f": 2991,
      "\u679a": 2992,
      "\u099c": 2993,
      "\u6b0a": 2994,
      "\ub5b4": 2995,
      "\u6c96": 2996,
      "\u7e04": 2997,
      "\u540d": 2998,
      "\u98c4": 2999,
      "\u1834": 3000,
      "\u182d": 3001,
      "\u1828": 3002,
      "\u0923": 3003,
      "\u5e84": 3004,
      "\u62fe": 3005,
      "\u5fa9": 3006,
      "\u590d": 3007,
      "\u6d2a": 3008,
      "\u7337": 3009,
      "\u0965": 3010,
      "\u00f7": 3011,
      "\u8bda": 3012,
      "\u8b8c": 3013,
      "\u0b8e": 3014,
      "\u0bc8": 3015,
      "\u5b8f": 3016,
      "\u7b46": 3017,
      "\u7b14": 3018,
      "\u0129": 3019,
      "\u30e2": 3020,
      "\uc810": 3021,
      "\u9704": 3022,
      "\u845b": 3023,
      "\u04e0": 3024,
      "\uc791": 3025,
      "\u7640": 3026,
      "\u0256": 3027,
      "\u606f": 3028,
      "\u02de": 3029,
      "\u6df5": 3030,
      "\u0261": 3031,
      "\u0308": 3032,
      "\u1e5a": 3033,
      "\u0bb3": 3034,
      "\u1796": 3035,
      "\u17c3": 3036,
      "\u17c2": 3037,
      "\u85cd": 3038,
      "\u574a": 3039,
      "\u7fd2": 3040,
      "\u4e60": 3041,
      "\u975e": 3042,
      "\u5782": 3043,
      "\u00ca": 3044,
      "\ub355": 3045,
      "\u210c": 3046,
      "\u82bd": 3047,
      "\u730e": 3048,
      "\u9f4a": 3049,
      "\u69d8": 3050,
      "\u5d11": 3051,
      "\u5d19": 3052,
      "\u8236": 3053,
      "\u73cd": 3054,
      "\u7e54": 3055,
      "\u8a33": 3056,
      "\ud63c": 3057,
      "\uc5f4": 3058,
      "\u2116": 3059,
      "\u9a6c": 3060,
      "\u6f01": 3061,
      "\u6e14": 3062,
      "\u1010": 3063,
      "\u1090": 3064,
      "\u6761": 3065,
      "\u4ef6": 3066,
      "\u02cb": 3067,
      "\u5834": 3068,
      "\uac10": 3069,
      "\ub3c5": 3070,
      "\u8cfd": 3071,
      "\u8549": 3072,
      "\u5cad": 3073,
      "\u8d8a": 3074,
      "\ucd09": 3075,
      "\u4f75": 3076,
      "\u17a1": 3077,
      "\u178a": 3078,
      "\u178b": 3079,
      "\u7199": 3080,
      "\ub140": 3081,
      "\u72d7": 3082,
      "\u8036": 3083,
      "\u77ed": 3084,
      "\uc18d": 3085,
      "\uc608": 3086,
      "\u90b1": 3087,
      "\u6f33": 3088,
      "\u5289": 3089,
      "\u7ea2": 3090,
      "\u7bad": 3091,
      "\u9928": 3092,
      "\u72d0": 3093,
      "\u5043": 3094,
      "\u658c": 3095,
      "\ub274": 3096,
      "\u5410": 3097,
      "\u547c": 3098,
      "\u9115": 3099,
      "\u85e5": 3100,
      "\u6551": 3101,
      "\u6025": 3102,
      "\u784f": 3103,
      "\u1fd1": 3104,
      "\u1fd0": 3105,
      "\u58d3": 3106,
      "\u6607": 3107,
      "\u05ab": 3108,
      "\u05a5": 3109,
      "\u049b": 3110,
      "\u6566": 3111,
      "\u5370": 3112,
      "\u5c3c": 3113,
      "\u6b78": 3114,
      "\u50d1": 3115,
      "\u5354": 3116,
      "\u5fd8": 3117,
      "\u9244": 3118,
      "\u5049": 3119,
      "\u9706": 3120,
      "\u9bae": 3121,
      "\u68cb": 3122,
      "\ufdfa": 3123,
      "\u534e": 3124,
      "\u032b": 3125,
      "\u57f4": 3126,
      "\u95d8": 3127,
      "\u5263": 3128,
      "\u8449": 3129,
      "\u5937": 3130,
      "\u53ce": 3131,
      "\u045f": 3132,
      "\u0662": 3133,
      "\u028a": 3134,
      "\u0964": 3135,
      "\u656c": 3136,
      "\ubd95": 3137,
      "\ub958": 3138,
      "\uac74": 3139,
      "\u1a09": 3140,
      "\u5352": 3141,
      "\u027d": 3142,
      "\u6643": 3143,
      "\u80b2": 3144,
      "\u62e5": 3145,
      "\u6838": 3146,
      "\u718a": 3147,
      "\ud800\udec7": 3148,
      "\ud800\udeb6": 3149,
      "\u745f": 3150,
      "\u90af": 3151,
      "\u057e": 3152,
      "\u056e": 3153,
      "\u9ebb": 3154,
      "\u8fbe": 3155,
      "\uad00": 3156,
      "\u0463": 3157,
      "\u525b": 3158,
      "\u0263": 3159,
      "\u6881": 3160,
      "\u65bd": 3161,
      "\u0274": 3162,
      "\u5b8b": 3163,
      "\u7bc7": 3164,
      "\uc9c1": 3165,
      "\u06e2": 3166,
      "\u4ecd": 3167,
      "\u0656": 3168,
      "\u1f48": 3169,
      "\u1fb3": 3170,
      "\u5c64": 3171,
      "\u9326": 3172,
      "\u042a": 3173,
      "\uc7c1": 3174,
      "\u200d": 3175,
      "\u5915": 3176,
      "\u713c": 3177,
      "\u028c": 3178,
      "\u59dc": 3179,
      "\u8d74": 3180,
      "\u6230": 3181,
      "\uc65c": 3182,
      "\u697c": 3183,
      "\ud2c0": 3184,
      "\u53d7": 3185,
      "\u04c1": 3186,
      "\u028b": 3187,
      "\u88d4": 3188,
      "\u885d": 3189,
      "\u0653": 3190,
      "\u7e31": 3191,
      "\u7eb5": 3192,
      "\u7e26": 3193,
      "\u0a15": 3194,
      "\u798e": 3195,
      "\u308d": 3196,
      "\u2190": 3197,
      "\u1ec3": 3198,
      "\u5983": 3199,
      "\u1fc3": 3200,
      "\u552f": 3201,
      "\uac70": 3202,
      "\u0661": 3203,
      "\u9a81": 3204,
      "\u519b": 3205,
      "\u6052": 3206,
      "\u5f1f": 3207,
      "\u9583": 3208,
      "\u8fb0": 3209,
      "\ud83c\udf46": 3210,
      "\u30c6": 3211,
      "\u989d": 3212,
      "\u5ea6": 3213,
      "\u5f90": 3214,
      "\u7ecd": 3215,
      "\u5c9a": 3216,
      "\u6d1e": 3217,
      "\u76ca": 3218,
      "\u88d5": 3219,
      "\u4e08": 3220,
      "\u10b6": 3221,
      "\u10ac": 3222,
      "\u10c2": 3223,
      "\uae5c": 3224,
      "\u8abf": 3225,
      "\u75c7": 3226,
      "\u9802": 3227,
      "\u9876": 3228,
      "\u0e4b": 3229,
      "\u778e": 3230,
      "\u7267": 3231,
      "\u89d2": 3232,
      "\u6e38": 3233,
      "\u56ed": 3234,
      "\u76cf": 3235,
      "\u94f3": 3236,
      "\u2e23": 3237,
      "\u1fb1": 3238,
      "\u0302": 3239,
      "\u6bbf": 3240,
      "\u8def": 3241,
      "\u9805": 3242,
      "\ub9d0": 3243,
      "\ud1b0": 3244,
      "\u0268": 3245,
      "\u179f": 3246,
      "\u17c4": 3247,
      "\u1792": 3248,
      "\u17bb": 3249,
      "\u17c8": 3250,
      "\u72c2": 3251,
      "\u7a4d": 3252,
      "\u79ef": 3253,
      "\u5934": 3254,
      "\u1f44": 3255,
      "\u5531": 3256,
      "\ud0a4": 3257,
      "\u0906": 3258,
      "\u092c": 3259,
      "\u0282": 3260,
      "\u59c9": 3261,
      "\uff0d": 3262,
      "\u803f": 3263,
      "\ud800\udeb4": 3264,
      "\u7802": 3265,
      "\u1264": 3266,
      "\u1270": 3267,
      "\u986f": 3268,
      "\u884d": 3269,
      "\u6176": 3270,
      "\u7d8f": 3271,
      "\u8085": 3272,
      "\uff1a": 3273,
      "\ucd98": 3274,
      "\uc575": 3275,
      "\u6700": 3276,
      "\u6669": 3277,
      "\u9910": 3278,
      "\u0981": 3279,
      "\u20a1": 3280,
      "\u222a": 3281,
      "\u3076": 3282,
      "\u7fbd": 3283,
      "\ub7c9": 3284,
      "\u314e": 3285,
      "\u694a": 3286,
      "\u745e": 3287,
      "\u2605": 3288,
      "\u57df": 3289,
      "\ub2e8": 3290,
      "\u04ff": 3291,
      "\u0720": 3292,
      "\u0738": 3293,
      "\u1dc9": 3294,
      "\u17b7": 3295,
      "\u8a2a": 3296,
      "\u8bbf": 3297,
      "\uad81": 3298,
      "\u5cac": 3299,
      "\u8ad2": 3300,
      "\u6765": 3301,
      "\u76d7": 3302,
      "\u7eb3": 3303,
      "\u1ed7": 3304,
      "\uc560": 3305,
      "\ua99f": 3306,
      "\u0e2f": 3307,
      "\u203b": 3308,
      "\u8cc8": 3309,
      "\ubd88": 3310,
      "\uba78": 3311,
      "\u7426": 3312,
      "\u6fa4": 3313,
      "\u0407": 3314,
      "\u3091": 3315,
      "\u10a2": 3316,
      "\u10b2": 3317,
      "\u742f": 3318,
      "\uc695": 3319,
      "\u86c7": 3320,
      "\ud800\udeb0": 3321,
      "\u0404": 3322,
      "\u52de": 3323,
      "\u52b3": 3324,
      "\u52b4": 3325,
      "\u6562": 3326,
      "\ua7b5": 3327,
      "\u6293": 3328,
      "\u60a0": 3329,
      "\u0449": 3330,
      "\u10a5": 3331,
      "\u5e25": 3332,
      "\u4f59": 3333,
      "\u6f2b": 3334,
      "\u4ed9": 3335,
      "\u6839": 3336,
      "\u938c": 3337,
      "\u27e6": 3338,
      "\u535c": 3339,
      "\u7e82": 3340,
      "\u9109": 3341,
      "\u0dc4": 3342,
      "\u0ddd": 3343,
      "\u0da9": 3344,
      "\u0dba": 3345,
      "\u53f3": 3346,
      "\u7559": 3347,
      "\u0dd3": 3348,
      "\u6eff": 3349,
      "\u01da": 3350,
      "\u0943": 3351,
      "\u6575": 3352,
      "\u654c": 3353,
      "\ucc98": 3354,
      "\ub7fc": 3355,
      "\u04dc": 3356,
      "\u01bf": 3357,
      "\u836f": 3358,
      "\u574c": 3359,
      "\u5751": 3360,
      "\u652f": 3361,
      "\u1f61": 3362,
      "\u8ff7": 3363,
      "\u5371": 3364,
      "\ube68": 3365,
      "\uc694": 3366,
      "\ud53c": 3367,
      "\u66dc": 3368,
      "\u4efb": 3369,
      "\u82f1": 3370,
      "\u570d": 3371,
      "\u0388": 3372,
      "\u6982": 3373,
      "\u51b5": 3374,
      "\u9678": 3375,
      "\u10a3": 3376,
      "\u04e9": 3377,
      "\u0572": 3378,
      "\u1a01": 3379,
      "\u5bcc": 3380,
      "\u859b": 3381,
      "\u1283": 3382,
      "\u12ed": 3383,
      "\u120c": 3384,
      "\u987a": 3385,
      "\u2665": 3386,
      "\u72ac": 3387,
      "\uc721": 3388,
      "\u0267": 3389,
      "\u6d69": 3390,
      "\ub354": 3391,
      "\u5be7": 3392,
      "\u5858": 3393,
      "\u7526": 3394,
      "\u81f3": 3395,
      "\u8f29": 3396,
      "\u6cca": 3397,
      "\u6c42": 3398,
      "\ubcc4": 3399,
      "\uad7f": 3400,
      "\ud0c8": 3401,
      "\u1baa": 3402,
      "\u1ba0": 3403,
      "\u1b9a": 3404,
      "\u1ba4": 3405,
      "\u1b98": 3406,
      "\u20b1": 3407,
      "\u06e6": 3408,
      "\u8b01": 3409,
      "\ubc1c": 3410,
      "\uae38": 3411,
      "\u7f6e": 3412,
      "\u04fe": 3413,
      "\u80b9": 3414,
      "\u5c90": 3415,
      "\u5177": 3416,
      "\ud83c\udf51": 3417,
      "\u52a9": 3418,
      "\u76d8": 3419,
      "\u1b93": 3420,
      "\u1b9d": 3421,
      "\u1b8f": 3422,
      "\ubd04": 3423,
      "\u042b": 3424,
      "\u6115": 3425,
      "\u7a1a": 3426,
      "\u00aa": 3427,
      "\u5473": 3428,
      "\ub298": 3429,
      "\u6850": 3430,
      "\u653e": 3431,
      "\u04f6": 3432,
      "\u4fee": 3433,
      "\ud800\udea5": 3434,
      "\u0d85": 3435,
      "\u0dc2": 3436,
      "\u88dc": 3437,
      "\u1275": 3438,
      "\u130d": 3439,
      "\u122d": 3440,
      "\u129b": 3441,
      "\u934a": 3442,
      "\u70bc": 3443,
      "\u932c": 3444,
      "\u4e1a": 3445,
      "\u06ba": 3446,
      "\u5907": 3447,
      "\u0136": 3448,
      "\u0533": 3449,
      "\u0587": 3450,
      "\u7950": 3451,
      "\u6b65": 3452,
      "\u4e21": 3453,
      "\u2227": 3454,
      "\u0cb0": 3455,
      "\u0cbe": 3456,
      "\u0c9c": 3457,
      "\u0e1f": 3458,
      "\u1e6b": 3459,
      "\uac8c": 3460,
      "\u5b57": 3461,
      "\u027e": 3462,
      "\u68b0": 3463,
      "\u0d82": 3464,
      "\u0dbd": 3465,
      "\u22cb": 3466,
      "\u75f4": 3467,
      "\u05c2": 3468,
      "\u82e6": 3469,
      "\uac04": 3470,
      "\ubcd1": 3471,
      "\u00c3": 3472,
      "\ud808\udd29": 3473,
      "\ud808\udd40": 3474,
      "\ud808\udc00": 3475,
      "\ud808\ude4c": 3476,
      "\uc6b1": 3477,
      "\u0c2e": 3478,
      "\u0c3e": 3479,
      "\u0c24": 3480,
      "\u0c30": 3481,
      "\u0c02": 3482,
      "\uccad": 3483,
      "\ud48d": 3484,
      "\u4eec": 3485,
      "\u539a": 3486,
      "\u5152": 3487,
      "\u513f": 3488,
      "\u5150": 3489,
      "\u7551": 3490,
      "\uc220": 3491,
      "\u4f3d": 3492,
      "\u031d": 3493,
      "\u9858": 3494,
      "\u613f": 3495,
      "\u94b1": 3496,
      "\u92ad": 3497,
      "\ud504": 3498,
      "\uc81d": 3499,
      "\uae4c": 3500,
      "\u9f9c": 3501,
      "\u9f9f": 3502,
      "\u4e80": 3503,
      "\u65f6": 3504,
      "\u9632": 3505,
      "\u8bd5": 3506,
      "\u1f56": 3507,
      "\u5bf6": 3508,
      "\u7114": 3509,
      "\u030a": 3510,
      "\u0518": 3511,
      "\u54c1": 3512,
      "\u6284": 3513,
      "\u6e1b": 3514,
      "\u51cf": 3515,
      "\ucc3d": 3516,
      "\u4e57": 3517,
      "\u314c": 3518,
      "\u06da": 3519,
      "\ud800\udeb1": 3520,
      "\u80fd": 3521,
      "\u5909": 3522,
      "\u60a8": 3523,
      "\u4eab": 3524,
      "\u59a3": 3525,
      "\u96b9": 3526,
      "\u6e90": 3527,
      "\ufed5": 3528,
      "\ud5ec": 3529,
      "\u7ec8": 3530,
      "\u7d33": 3531,
      "\u988d": 3532,
      "\u7aef": 3533,
      "\u84ee": 3534,
      "\u5c08": 3535,
      "\u4e13": 3536,
      "\u5c02": 3537,
      "\u57d4": 3538,
      "\u207f": 3539,
      "\ud800\udeb5": 3540,
      "\u040e": 3541,
      "\u98de": 3542,
      "\u4f4f": 3543,
      "\u5f81": 3544,
      "\u56f0": 3545,
      "\u672b": 3546,
      "\u1e2b": 3547,
      "\u0e13": 3548,
      "\u4f4e": 3549,
      "\u7be4": 3550,
      "\u1b27": 3551,
      "\u1b29": 3552,
      "\u1b42": 3553,
      "\u1b32": 3554,
      "\u1b04": 3555,
      "\ub538": 3556,
      "\u5167": 3557,
      "\u5eda": 3558,
      "\u56da": 3559,
      "\uff17": 3560,
      "\uff10": 3561,
      "\u7854": 3562,
      "\u0dcf": 3563,
      "\u0dad": 3564,
      "\u901f": 3565,
      "\u6b96": 3566,
      "\u6e6f": 3567,
      "\u6c64": 3568,
      "\u6cd7": 3569,
      "\u6c98": 3570,
      "\u9059": 3571,
      "\u17bd": 3572,
      "\u7a9d": 3573,
      "\ufed7": 3574,
      "\ufef4": 3575,
      "\ufed2": 3576,
      "\u6893": 3577,
      "\u93e1": 3578,
      "\u937e": 3579,
      "\u1e60": 3580,
      "\u59d1": 3581,
      "\u00dd": 3582,
      "\u523b": 3583,
      "\ubfd0": 3584,
      "\ub7b4": 3585,
      "\u79c0": 3586,
      "\u64b0": 3587,
      "\u552e": 3588,
      "\u5b9a": 3589,
      "\u55b6": 3590,
      "\u09cb": 3591,
      "\u09a5": 3592,
      "\u2660": 3593,
      "\uba54": 3594,
      "\uc2a8": 3595,
      "\ud3ed": 3596,
      "\u573b": 3597,
      "\u4e24": 3598,
      "\u51af": 3599,
      "\u7965": 3600,
      "\u2642": 3601,
      "\uc871": 3602,
      "\u5200": 3603,
      "\u65e9": 3604,
      "\u8d27": 3605,
      "\u6376": 3606,
      "\u4e38": 3607,
      "\uc068": 3608,
      "\u10b1": 3609,
      "\u10b7": 3610,
      "\ud06c": 3611,
      "\ub9b0": 3612,
      "\u8863": 3613,
      "\u8f68": 3614,
      "\u6355": 3615,
      "\u73a9": 3616,
      "\u9b3c": 3617,
      "\u5f18": 3618,
      "\u7a33": 3619,
      "\u4e3f": 3620,
      "\u4ed6": 3621,
      "\uade0": 3622,
      "\u5fb3": 3623,
      "\u1a10": 3624,
      "\u5e79": 3625,
      "\u011e": 3626,
      "\u1019": 3627,
      "\u103c": 3628,
      "\u1014": 3629,
      "\u103a": 3630,
      "\u6a29": 3631,
      "\u6311": 3632,
      "\u1e0f": 3633,
      "\u674f": 3634,
      "\u5e38": 3635,
      "\u6237": 3636,
      "\u7c4d": 3637,
      "\u0384": 3638,
      "\u179b": 3639,
      "\u90a3": 3640,
      "\u9001": 3641,
      "\u04a1": 3642,
      "\u0116": 3643,
      "\u9ee8": 3644,
      "\u515a": 3645,
      "\u0bc7": 3646,
      "\u10e4": 3647,
      "\u201a": 3648,
      "\u0e14": 3649,
      "\uabc4": 3650,
      "\uabe5": 3651,
      "\uabc8": 3652,
      "\uabea": 3653,
      "\uabd5": 3654,
      "\ubcc0": 3655,
      "\u8230": 3656,
      "\u792e": 3657,
      "\uc6c5": 3658,
      "\ub358": 3659,
      "\ud800\udeaa": 3660,
      "\u09a7": 3661,
      "\ufed9": 3662,
      "\u52d9": 3663,
      "\u8a8d": 3664,
      "\u8ba4": 3665,
      "\ub418": 3666,
      "\u9751": 3667,
      "\u7063": 3668,
      "\u50c5": 3669,
      "\u5b58": 3670,
      "\u9e9f": 3671,
      "\u958b": 3672,
      "\u8aaa": 3673,
      "\u0712": 3674,
      "\u8d3e": 3675,
      "\u7eed": 3676,
      "\u64ab": 3677,
      "\u800c": 3678,
      "\ub099": 3679,
      "\u5e72": 3680,
      "\u538b": 3681,
      "\u5727": 3682,
      "\u96aa": 3683,
      "\u9669": 3684,
      "\u967a": 3685,
      "\u1e61": 3686,
      "\u122b": 3687,
      "\u20b4": 3688,
      "\u06cf": 3689,
      "\ud788": 3690,
      "\uc757": 3691,
      "\u5f52": 3692,
      "\u5e30": 3693,
      "\u1787": 3694,
      "\u590f": 3695,
      "\u22ca": 3696,
      "\u5f7c": 3697,
      "\u3078": 3698,
      "\u12a5": 3699,
      "\u1235": 3700,
      "\u12a4": 3701,
      "\u120d": 3702,
      "\u51ea": 3703,
      "\u8fa3": 3704,
      "\u7cdc": 3705,
      "\ub860": 3706,
      "\u6e80": 3707,
      "\u7ffc": 3708,
      "\u63d0": 3709,
      "\u0d24": 3710,
      "\u0d2a": 3711,
      "\u0d1a": 3712,
      "\u0d32": 3713,
      "\u0d15": 3714,
      "\u0d02": 3715,
      "\u1f24": 3716,
      "\uc5b5": 3717,
      "\u0c15": 3718,
      "\u0c25": 3719,
      "\ufead": 3720,
      "\u5362": 3721,
      "\u856d": 3722,
      "\u742e": 3723,
      "\u6b3d": 3724,
      "\u8ce2": 3725,
      "\u2206": 3726,
      "\u02da": 3727,
      "\u1f7c": 3728,
      "\u0295": 3729,
      "\u0726": 3730,
      "\u0723": 3731,
      "\u0722": 3732,
      "\u4eb2": 3733,
      "\u53ea": 3734,
      "\u5dbd": 3735,
      "\ud398": 3736,
      "\ucf54": 3737,
      "\u8abc": 3738,
      "\u9808": 3739,
      "\u597d": 3740,
      "\u0966": 3741,
      "\u0967": 3742,
      "\u0968": 3743,
      "\u0969": 3744,
      "\u096a": 3745,
      "\u096b": 3746,
      "\u096c": 3747,
      "\u096d": 3748,
      "\u096e": 3749,
      "\u096f": 3750,
      "\u0586": 3751,
      "\u9818": 3752,
      "\u7b54": 3753,
      "\u90f5": 3754,
      "\u90ae": 3755,
      "\u542b": 3756,
      "\u543e": 3757,
      "\u0298": 3758,
      "\u56e0": 3759,
      "\u7e01": 3760,
      "\u4e2a": 3761,
      "\u7de3": 3762,
      "\u7a37": 3763,
      "\u6ed1": 3764,
      "\u984f": 3765,
      "\u989c": 3766,
      "\u9854": 3767,
      "\u1f62": 3768,
      "\u0cc8": 3769,
      "\u87f2": 3770,
      "\u1290": 3771,
      "\u1308": 3772,
      "\u1220": 3773,
      "\u8e0a": 3774,
      "\u7a2e": 3775,
      "\u91cf": 3776,
      "\u7f61": 3777,
      "\u7efc": 3778,
      "\u8fbb": 3779,
      "\u6691": 3780,
      "\u6eaf": 3781,
      "\u8fa8": 3782,
      "\u034c": 3783,
      "\u5dbc": 3784,
      "\u0e41": 3785,
      "\u0e20": 3786,
      "\u0e29": 3787,
      "\u0e1a": 3788,
      "\u0e0d": 3789,
      "\u8add": 3790,
      "\u50d5": 3791,
      "\u575a": 3792,
      "\ub9f9": 3793,
      "\u220f": 3794,
      "\u02e5": 3795,
      "\u5589": 3796,
      "\ud14c": 3797,
      "\u0252": 3798,
      "\u5c6f": 3799,
      "\u9045": 3800,
      "\ud800\udeb2": 3801,
      "\u0e12": 3802,
      "\u8f6c": 3803,
      "\u8cbb": 3804,
      "\u8072": 3805,
      "\u99f1": 3806,
      "\u99dd": 3807,
      "\ufee5": 3808,
      "\u6beb": 3809,
      "\u89c9": 3810,
      "\u899a": 3811,
      "\u6599": 3812,
      "\ua9bf": 3813,
      "\ua9a3": 3814,
      "\ua989": 3815,
      "\u04c3": 3816,
      "\u6811": 3817,
      "\u06c7": 3818,
      "\u659c": 3819,
      "\u5ead": 3820,
      "\uc2b9": 3821,
      "\ud658": 3822,
      "\u5bb3": 3823,
      "\u0584": 3824,
      "\u7801": 3825,
      "\u620f": 3826,
      "\u9152": 3827,
      "\u1000": 3828,
      "\u1038": 3829,
      "\u0918": 3830,
      "\u03d8": 3831,
      "\u592e": 3832,
      "\u1e8f": 3833,
      "\u8bad": 3834,
      "\ud480": 3835,
      "\u206f": 3836,
      "\u6c37": 3837,
      "\ubc88": 3838,
      "\u1f14": 3839,
      "\u5364": 3840,
      "\u94ed": 3841,
      "\uce74": 3842,
      "\ub4e0": 3843,
      "\u57c3": 3844,
      "\u585e": 3845,
      "\u4fc4": 3846,
      "\u53ef": 3847,
      "\u79b0": 3848,
      "\u06d0": 3849,
      "\u5bb5": 3850,
      "\u0b89": 3851,
      "\u840a": 3852,
      "\u71b1": 3853,
      "\u70ed": 3854,
      "\uc2f6": 3855,
      "\u0405": 3856,
      "\u8339": 3857,
      "\u7fca": 3858,
      "\u0d1f": 3859,
      "\u0d2c": 3860,
      "\u0d33": 3861,
      "\u0d4b": 3862,
      "\u0d17": 3863,
      "\u8b6f": 3864,
      "\u8bd1": 3865,
      "\u9db4": 3866,
      "\u5533": 3867,
      "\u7686": 3868,
      "\u0278": 3869,
      "\u53eb": 3870,
      "\u8482": 3871,
      "\u4ea5": 3872,
      "\u8475": 3873,
      "\u54c8": 3874,
      "\u7a32": 3875,
      "\u70ad": 3876,
      "\u94dc": 3877,
      "\u266f": 3878,
      "\u795a": 3879,
      "\u52e4": 3880,
      "\u1e35": 3881,
      "\u8c9d": 3882,
      "\u8d1d": 3883,
      "\uccab": 3884,
      "\u017f": 3885,
      "\u59ff": 3886,
      "\u7a1c": 3887,
      "\u0152": 3888,
      "\u96b7": 3889,
      "\u5c42": 3890,
      "\uc0c6": 3891,
      "\u2217": 3892,
      "\u1e33": 3893,
      "\u6c10": 3894,
      "\u715c": 3895,
      "\u8a08": 3896,
      "\u5283": 3897,
      "\u7af9": 3898,
      "\u96b1": 3899,
      "\uc9d3": 3900,
      "\u3010": 3901,
      "\u7db2": 3902,
      "\u9801": 3903,
      "\u3011": 3904,
      "\u20a4": 3905,
      "\u0993": 3906,
      "\u6834": 3907,
      "\ub2a5": 3908,
      "\u0d38": 3909,
      "\u0d2e": 3910,
      "\u8d44": 3911,
      "\u5176": 3912,
      "\u683d": 3913,
      "\u62bc": 3914,
      "\u968e": 3915,
      "\u9636": 3916,
      "\u013a": 3917,
      "\u1781": 3918,
      "\u1f7a": 3919,
      "\u857e": 3920,
      "\u2295": 3921,
      "\uc0cc": 3922,
      "\u501f": 3923,
      "\u9640": 3924,
      "\u4f01": 3925,
      "\ufee1": 3926,
      "\u6279": 3927,
      "\u8584": 3928,
      "\u7167": 3929,
      "\u1e96": 3930,
      "\u66c7": 3931,
      "\u0429": 3932,
      "\ud568": 3933,
      "\u0126": 3934,
      "\u3052": 3935,
      "\u82ac": 3936,
      "\u1265": 3937,
      "\u1228": 3938,
      "\u6c9f": 3939,
      "\u7fc1": 3940,
      "\uad8c": 3941,
      "\u04e4": 3942,
      "\ud750": 3943,
      "\ub974": 3944,
      "\u9e92": 3945,
      "\u1e73": 3946,
      "\u8bd7": 3947,
      "\u8f9b": 3948,
      "\ub8e8": 3949,
      "\u5377": 3950,
      "\u62db": 3951,
      "\u210e": 3952,
      "\u503b": 3953,
      "\u7968": 3954,
      "\u6807": 3955,
      "\u5272": 3956,
      "\u9f52": 3957,
      "\u9f7f": 3958,
      "\u99ff": 3959,
      "\u8edf": 3960,
      "\u5207": 3961,
      "\u0e44": 3962,
      "\ucfe0": 3963,
      "\u7dad": 3964,
      "\ud3b8": 3965,
      "\u1f40": 3966,
      "\u9806": 3967,
      "\u58c1": 3968,
      "\u2161": 3969,
      "\ua682": 3970,
      "\u0948": 3971,
      "\u7434": 3972,
      "\ub450": 3973,
      "\u6249": 3974,
      "\u8fb2": 3975,
      "\u519c": 3976,
      "\u72ec": 3977,
      "\u6c55": 3978,
      "\u05f2": 3979,
      "\u0358": 3980,
      "\u64cd": 3981,
      "\u029d": 3982,
      "\u7533": 3983,
      "\u58ee": 3984,
      "\u609f": 3985,
      "\u0179": 3986,
      "\u0553": 3987,
      "\u7c89": 3988,
      "\u98fe": 3989,
      "\u51f1": 3990,
      "\u9830": 3991,
      "\u988a": 3992,
      "\u982c": 3993,
      "\u820c": 3994,
      "\u5442": 3995,
      "\u9f0e": 3996,
      "\u904e": 3997,
      "\u74b0": 3998,
      "\u2713": 3999,
      "\u1837": 4000,
      "\u03db": 4001,
      "\u6842": 4002,
      "\u2103": 4003,
      "\u9ed1": 4004,
      "\u0262": 4005,
      "\uc88c": 4006,
      "\u8178": 4007,
      "\u80a0": 4008,
      "\u1f3c": 4009,
      "\u026b": 4010,
      "\u5395": 4011,
      "\uce58": 4012,
      "\u5496": 4013,
      "\u52d2": 4014,
      "\u5f29": 4015,
      "\u51c6": 4016,
      "\ubc24": 4017,
      "\u4f97": 4018,
      "\u9e97": 4019,
      "\u6f64": 4020,
      "\u767c": 4021,
      "\uba38": 4022,
      "\u96c5": 4023,
      "\u6df8": 4024,
      "\u51e0": 4025,
      "\u603b": 4026,
      "\u8499": 4027,
      "\u1e6c": 4028,
      "\ud1b5": 4029,
      "\u80dc": 4030,
      "\u0496": 4031,
      "\u57f7": 4032,
      "\ub09c": 4033,
      "\u6cb3": 4034,
      "\u8fb9": 4035,
      "\u266d": 4036,
      "\u7238": 4037,
      "\u4ed8": 4038,
      "\u8d85": 4039,
      "\u65e6": 4040,
      "\u5c81": 4041,
      "\u6b73": 4042,
      "\u8392": 4043,
      "\u09c3": 4044,
      "\u58be": 4045,
      "\u865f": 4046,
      "\u7ecf": 4047,
      "\u6749": 4048,
      "\u7368": 4049,
      "\u8363": 4050,
      "\u7adf": 4051,
      "\uff1f": 4052,
      "\uccb4": 4053,
      "\ud0d0": 4054,
      "\ud5d8": 4055,
      "\u1201": 4056,
      "\u12f5": 4057,
      "\u12ca": 4058,
      "\u5375": 4059,
      "\u2021": 4060,
      "\u8b58": 4061,
      "\u5b5f": 4062,
      "\u61b2": 4063,
      "\uac1d": 4064,
      "\u045e": 4065,
      "\ubd10": 4066,
      "\u3080": 4067,
      "\u8ab2": 4068,
      "\u8bfe": 4069,
      "\ufeab": 4070,
      "\u0920": 4071,
      "\ucd08": 4072,
      "\u0455": 4073,
      "\u8b93": 4074,
      "\u8ba9": 4075,
      "\u53d4": 4076,
      "\u5e36": 4077,
      "\ubaa8": 4078,
      "\u1243": 4079,
      "\u12e8": 4080,
      "\u7ca4": 4081,
      "\uc5c4": 4082,
      "\u78d0": 4083,
      "\u6770": 4084,
      "\u58ec": 4085,
      "\u0264": 4086,
      "\u1f72": 4087,
      "\u30d8": 4088,
      "\u88cf": 4089,
      "\ud544": 4090,
      "\u0585": 4091,
      "\u8212": 4092,
      "\u0175": 4093,
      "\u307c": 4094,
      "\u1f35": 4095,
      "\u665a": 4096,
      "\u6634": 4097,
      "\ub204": 4098,
      "\ubd09": 4099,
      "\ufec9": 4100,
      "\u3137": 4101,
      "\ucf8c": 4102,
      "\ucee4": 4103,
      "\u78ca": 4104,
      "\u610f": 4105,
      "\u0544": 4106,
      "\u057b": 4107,
      "\u817e": 4108,
      "\u0275": 4109,
      "\u102d": 4110,
      "\u1002": 4111,
      "\u1064": 4112,
      "\ubab0": 4113,
      "\u56fa": 4114,
      "\ud488": 4115,
      "\uc368": 4116,
      "\u6649": 4117,
      "\u032a": 4118,
      "\u9aa8": 4119,
      "\u9084": 4120,
      "\u0bb4": 4121,
      "\u02d2": 4122,
      "\u8c61": 4123,
      "\uc194": 4124,
      "\ud0c1": 4125,
      "\u0901": 4126,
      "\u0e47": 4127,
      "\ua72b": 4128,
      "\u98ce": 4129,
      "\u97e6": 4130,
      "\u6781": 4131,
      "\u53e9": 4132,
      "\u76df": 4133,
      "\u7adc": 4134,
      "\u0909": 4135,
      "\uc0c8": 4136,
      "\ubcbd": 4137,
      "\u9009": 4138,
      "\u59d3": 4139,
      "\u4f1f": 4140,
      "\u8896": 4141,
      "\u034d": 4142,
      "\u0b88": 4143,
      "\u0bb7": 4144,
      "\ud649": 4145,
      "\u969b": 4146,
      "\u52a8": 4147,
      "\u537f": 4148,
      "\u5c18": 4149,
      "\u69ae": 4150,
      "\u2081": 4151,
      "\u964d": 4152,
      "\u5fbd": 4153,
      "\u805f": 4154,
      "\u5a92": 4155,
      "\ud800\udf1f": 4156,
      "\u6163": 4157,
      "\u60ef": 4158,
      "\u6843": 4159,
      "\u8083": 4160,
      "\u7c9b": 4161,
      "\u06ad": 4162,
      "\u706f": 4163,
      "\u5b9e": 4164,
      "\u0729": 4165,
      "\u7da0": 4166,
      "\u7eff": 4167,
      "\u7dd1": 4168,
      "\u016e": 4169,
      "\u5acc": 4170,
      "\u5f53": 4171,
      "\ubc16": 4172,
      "\u5145": 4173,
      "\ufee9": 4174,
      "\uc2f8": 4175,
      "\u6ecc": 4176,
      "\u20a8": 4177,
      "\ud514": 4178,
      "\u0e1c": 4179,
      "\u0e0b": 4180,
      "\u5b85": 4181,
      "\u8166": 4182,
      "\u8111": 4183,
      "\u9738": 4184,
      "\u1e53": 4185,
      "\u95eb": 4186,
      "\ud5cc": 4187,
      "\u9685": 4188,
      "\u01f0": 4189,
      "\u1a0d": 4190,
      "\u6953": 4191,
      "\ub12c": 4192,
      "\ud800\udeae": 4193,
      "\u27e7": 4194,
      "\u0919": 4195,
      "\u0475": 4196,
      "\u52c3": 4197,
      "\u2646": 4198,
      "\u7949": 4199,
      "\u3045": 4200,
      "\u6e0b": 4201,
      "\u033a": 4202,
      "\u04b7": 4203,
      "\u9ce5": 4204,
      "\ucca0": 4205,
      "\u5237": 4206,
      "\ud800\udeac": 4207,
      "\uacf1": 4208,
      "\u8377": 4209,
      "\u0539": 4210,
      "\u84b8": 4211,
      "\u5f37": 4212,
      "\u0495": 4213,
      "\u7d0b": 4214,
      "\u84ec": 4215,
      "\u1ba8": 4216,
      "\u1ba5": 4217,
      "\u1b9e": 4218,
      "\u1e31": 4219,
      "\u30d4": 4220,
      "\u4e58": 4221,
      "\u8c93": 4222,
      "\u6b23": 4223,
      "\u5c27": 4224,
      "\u677f": 4225,
      "\u09b7": 4226,
      "\u5e7c": 4227,
      "\u8ca0": 4228,
      "\u70ae": 4229,
      "\u4e30": 4230,
      "\u600e": 4231,
      "\u4e48": 4232,
      "\u7981": 4233,
      "\u2d13": 4234,
      "\u9031": 4235,
      "\u6a2a": 4236,
      "\u5024": 4237,
      "\ud734": 4238,
      "\ub3c8": 4239,
      "\u6750": 4240,
      "\u7948": 4241,
      "\u722d": 4242,
      "\u8054": 4243,
      "\u8d5b": 4244,
      "\u7b52": 4245,
      "\u011a": 4246,
      "\u7de0": 4247,
      "\u0408": 4248,
      "\u653b": 4249,
      "\u52e2": 4250,
      "\ufea9": 4251,
      "\u4ecf": 4252,
      "\u1f31": 4253,
      "\ufea5": 4254,
      "\u79fb": 4255,
      "\u02e7": 4256,
      "\u66fe": 4257,
      "\u9a4a": 4258,
      "\u62d4": 4259,
      "\ubba4": 4260,
      "\u8bf4": 4261,
      "\u6f8e": 4262,
      "\u500b": 4263,
      "\u7a05": 4264,
      "\u0158": 4265,
      "\u009d": 4266,
      "\u1d5d": 4267,
      "\u21cc": 4268,
      "\u0102": 4269,
      "\u6d6a": 4270,
      "\u066e": 4271,
      "\u6167": 4272,
      "\u6628": 4273,
      "\ub2ec": 4274,
      "\uc2b4": 4275,
      "\uc5d4": 4276,
      "\u5d01": 4277,
      "\u7565": 4278,
      "\u5f84": 4279,
      "\u975a": 4280,
      "\u62d3": 4281,
      "\u5ee2": 4282,
      "\u7586": 4283,
      "\u80c3": 4284,
      "\ufe92": 4285,
      "\ufea2": 4286,
      "\u4f73": 4287,
      "\u70e8": 4288,
      "\u97ec": 4289,
      "\u63ed": 4290,
      "\uc9da": 4291,
      "\u6d32": 4292,
      "\u5e87": 4293,
      "\u9a0e": 4294,
      "\ucc0c": 4295,
      "\ub9bf": 4296,
      "\u7834": 4297,
      "\u7aea": 4298,
      "\u932b": 4299,
      "\u5186": 4300,
      "\u8131": 4301,
      "\u7df4": 4302,
      "\ufe99": 4303,
      "\ubc1d": 4304,
      "\u9065": 4305,
      "\u09a3": 4306,
      "\u0470": 4307,
      "\u20a6": 4308,
      "\u4e82": 4309,
      "\u4e71": 4310,
      "\u7f18": 4311,
      "\u70c8": 4312,
      "\u95bc": 4313,
      "\u533b": 4314,
      "\u5dd6": 4315,
      "\uc7a1": 4316,
      "\u518a": 4317,
      "\uff18": 4318,
      "\u1001": 4319,
      "\u0155": 4320,
      "\u8996": 4321,
      "\u526f": 4322,
      "\u6a6b": 4323,
      "\u6afb": 4324,
      "\u6a31": 4325,
      "\u0288": 4326,
      "\u99ae": 4327,
      "\ubc8c": 4328,
      "\u9d69": 4329,
      "\u8ce6": 4330,
      "\uc654": 4331,
      "\ud800\udead": 4332,
      "\u5e86": 4333,
      "\u30db": 4334,
      "\u5355": 4335,
      "\u5358": 4336,
      "\u6c60": 4337,
      "\ucfe4": 4338,
      "\u69cb": 4339,
      "\u6784": 4340,
      "\u634d": 4341,
      "\u5f48": 4342,
      "\u5eab": 4343,
      "\u8b80": 4344,
      "\u8bfb": 4345,
      "\u8aad": 4346,
      "\u7070": 4347,
      "\u54c0": 4348,
      "\u611f": 4349,
      "\u0762": 4350,
      "\u1ef1": 4351,
      "\u6e2c": 4352,
      "\u6d4b": 4353,
      "\u8ad6": 4354,
      "\u7ffb": 4355,
      "\u5f80": 4356,
      "\u79cd": 4357,
      "\ufedb": 4358,
      "\ufe8e": 4359,
      "\u8861": 4360,
      "\u9646": 4361,
      "\u7a4e": 4362,
      "\u9b5a": 4363,
      "\u9c7c": 4364,
      "\ubc45": 4365,
      "\u62fc": 4366,
      "\u98f2": 4367,
      "\u996e": 4368,
      "\u5bb0": 4369,
      "\u4e1e": 4370,
      "\u8b6c": 4371,
      "\u04e5": 4372,
      "\u033d": 4373,
      "\u6c47": 4374,
      "\u5723": 4375,
      "\u5179": 4376,
      "\u8b77": 4377,
      "\u62a4": 4378,
      "\u76e7": 4379,
      "\ud551": 4380,
      "\u6fb3": 4381,
      "\u87ba": 4382,
      "\u65cb": 4383,
      "\u62b1": 4384,
      "\u8cc3": 4385,
      "\u8d41": 4386,
      "\u31f1": 4387,
      "\u71d2": 4388,
      "\u70e7": 4389,
      "\u04e1": 4390,
      "\u0725": 4391,
      "\u8d99": 4392,
      "\uace8": 4393,
      "\u62b9": 4394,
      "\u04a0": 4395,
      "\u81fb": 4396,
      "\u719f": 4397,
      "\u983c": 4398,
      "\u222b": 4399,
      "\u6d6e": 4400,
      "\u9262": 4401,
      "\u59eb": 4402,
      "\uac83": 4403,
      "\u04e8": 4404,
      "\u8fba": 4405,
      "\u12a2": 4406,
      "\u12ee": 4407,
      "\u1335": 4408,
      "\u12eb": 4409,
      "\u71df": 4410,
      "\u862d": 4411,
      "\uf046": 4412,
      "\u8b21": 4413,
      "\u5618": 4414,
      "\u306d": 4415,
      "\u5742": 4416,
      "\u0bc0": 4417,
      "\u955c": 4418,
      "\u1f19": 4419,
      "\uc6c3": 4420,
      "\u6a1f": 4421,
      "\u800d": 4422,
      "\u6444": 4423,
      "\u8d4f": 4424,
      "\u61cb": 4425,
      "\ucd1b": 4426,
      "\u7d4c": 4427,
      "\u9d6c": 4428,
      "\u20a3": 4429,
      "\u5949": 4430,
      "\u5d07": 4431,
      "\u95f2": 4432,
      "\u984d": 4433,
      "\u62e2": 4434,
      "\ud808\ude2a": 4435,
      "\ud808\ude61": 4436,
      "\u4ea8": 4437,
      "\ub840": 4438,
      "\u60e0": 4439,
      "\u5351": 4440,
      "\u601c": 4441,
      "\u04cb": 4442,
      "\u89c6": 4443,
      "\ufebc": 4444,
      "\ufede": 4445,
      "\u6602": 4446,
      "\u6eaa": 4447,
      "\u7c8d": 4448,
      "\u7832": 4449,
      "\u863f": 4450,
      "\u6b22": 4451,
      "\u8fce": 4452,
      "\u7f51": 4453,
      "\u7ad9": 4454,
      "\u2194": 4455,
      "\uc19c": 4456,
      "\ud0d5": 4457,
      "\uc54a": 4458,
      "\ufe93": 4459,
      "\u559d": 4460,
      "\u5cea": 4461,
      "\u5c48": 4462,
      "\u8fb1": 4463,
      "\u9a13": 4464,
      "\uac08": 4465,
      "\u63a5": 4466,
      "\u8b00": 4467,
      "\u7f60": 4468,
      "\ud800\udf07": 4469,
      "\u52bf": 4470,
      "\uff03": 4471,
      "\u51a8": 4472,
      "\u7b20": 4473,
      "\u96cd": 4474,
      "\u72b6": 4475,
      "\u6134": 4476,
      "\u6a21": 4477,
      "\u9daf": 4478,
      "\u56c0": 4479,
      "\u0327": 4480,
      "\u6c5c": 4481,
      "\uc950": 4482,
      "\u0e43": 4483,
      "\u80e4": 4484,
      "\u99b3": 4485,
      "\u3014": 4486,
      "\u3015": 4487,
      "\u8389": 4488,
      "\u04e3": 4489,
      "\u5e33": 4490,
      "\u10c5": 4491,
      "\uad1c": 4492,
      "\ucc2e": 4493,
      "\u8912": 4494,
      "\u10df": 4495,
      "\u7dbe": 4496,
      "\uc9f8": 4497,
      "\ubb18": 4498,
      "\u0250": 4499,
      "\u6d38": 4500,
      "\u8d56": 4501,
      "\u6570": 4502,
      "\u5c4a": 4503,
      "\u8d1f": 4504,
      "\u1e11": 4505,
      "\u040f": 4506,
      "\u8a3c": 4507,
      "\u5415": 4508,
      "\u524b": 4509,
      "\uff0b": 4510,
      "\u748b": 4511,
      "\u6cb9": 4512,
      "\u8cb8": 4513,
      "\u8d37": 4514,
      "\u638c": 4515,
      "\u0310": 4516,
      "\uc644": 4517,
      "\u52c1": 4518,
      "\ub2db": 4519,
      "\u0b86": 4520,
      "\u01e6": 4521,
      "\u659b": 4522,
      "\uac78": 4523,
      "\u0137": 4524,
      "\u5fcc": 4525,
      "\u6cea": 4526,
      "\u7522": 4527,
      "\u4ea7": 4528,
      "\u7523": 4529,
      "\u8eeb": 4530,
      "\u053a": 4531,
      "\u951f": 4532,
      "\u5bd2": 4533,
      "\u21b5": 4534,
      "\u8de1": 4535,
      "\ud2b9": 4536,
      "\ufec7": 4537,
      "\u1797": 4538,
      "\u7955": 4539,
      "\u7a97": 4540,
      "\u7a93": 4541,
      "\u6492": 4542,
      "\u683c": 4543,
      "\u5a04": 4544,
      "\u6c81": 4545,
      "\u598d": 4546,
      "\u60a9": 4547,
      "\u9811": 4548,
      "\u5b34": 4549,
      "\ua729": 4550,
      "\ud803\udc34": 4551,
      "\ud803\udc0d": 4552,
      "\ud803\udc23": 4553,
      "\ud802\udf50": 4554,
      "\ud802\udf47": 4555,
      "\uc288": 4556,
      "\ud2f4": 4557,
      "\ufe97": 4558,
      "\ufe82": 4559,
      "\ufed4": 4560,
      "\u4fc2": 4561,
      "\u962e": 4562,
      "\ucf69": 4563,
      "\u74a8": 4564,
      "\u25aa": 4565,
      "\u9264": 4566,
      "\u307a": 4567,
      "\u5146": 4568,
      "\u1f69": 4569,
      "\u5c3b": 4570,
      "\u4f18": 4571,
      "\ud800\udf03": 4572,
      "\u594b": 4573,
      "\u2160": 4574,
      "\u100a": 4575,
      "\ud800\ude9b": 4576,
      "\u64c7": 4577,
      "\u6d19": 4578,
      "\u634f": 4579,
      "\u502b": 4580,
      "\u5f66": 4581,
      "\uac13": 4582,
      "\u1786": 4583,
      "\u76f4": 4584,
      "\u0665": 4585,
      "\u996d": 4586,
      "\ud608": 4587,
      "\ucc45": 4588,
      "\u6876": 4589,
      "\u7763": 4590,
      "\u5288": 4591,
      "\u639b": 4592,
      "\u6a23": 4593,
      "\u6837": 4594,
      "\u9296": 4595,
      "\ud310": 4596,
      "\u9a8c": 4597,
      "\u7422": 4598,
      "\u0120": 4599,
      "\uc73c": 4600,
      "\u06a8": 4601,
      "\u7b11": 4602,
      "\ufea3": 4603,
      "\ufeb4": 4604,
      "\ufee6": 4605,
      "\u1f26": 4606,
      "\u7e69": 4607,
      "\u7ef3": 4608,
      "\u02e9": 4609,
      "\uba70": 4610,
      "\ub290": 4611,
      "\u80cc": 4612,
      "\u821f": 4613,
      "\u5c3a": 4614,
      "\u2630": 4615,
      "\u5fb5": 4616,
      "\u5594": 4617,
      "\u88ab": 4618,
      "\u5bf5": 4619,
      "\u5055": 4620,
      "\u7109": 4621,
      "\u1ef9": 4622,
      "\u576a": 4623,
      "\u8f49": 4624,
      "\u17c7": 4625,
      "\u0093": 4626,
      "\u71cf": 4627,
      "\u5c0d": 4628,
      "\u4f49": 4629,
      "\u912d": 4630,
      "\ufefb": 4631,
      "\u89c1": 4632,
      "\u7bc4": 4633,
      "\u6d4e": 4634,
      "\u6e08": 4635,
      "\uc15c": 4636,
      "\u620e": 4637,
      "\u2154": 4638,
      "\u5bce": 4639,
      "\uc7a0": 4640,
      "\u7897": 4641,
      "\u039e": 4642,
      "\u22cc": 4643,
      "\u05ae": 4644,
      "\ud800\udf23": 4645,
      "\u8fd4": 4646,
      "\u1018": 4647,
      "\u102e": 4648,
      "\u73bb": 4649,
      "\u7483": 4650,
      "\u8cea": 4651,
      "\u8d28": 4652,
      "\u6681": 4653,
      "\u67d3": 4654,
      "\u524a": 4655,
      "\u5238": 4656,
      "\u6676": 4657,
      "\u1361": 4658,
      "\u5747": 4659,
      "\u03f2": 4660,
      "\u690e": 4661,
      "\u10a9": 4662,
      "\u10ba": 4663,
      "\u8c03": 4664,
      "\u7336": 4665,
      "\u00d5": 4666,
      "\u1295": 4667,
      "\u81ba": 4668,
      "\u5f8b": 4669,
      "\u8b7d": 4670,
      "\u0eaa": 4671,
      "\u0eb8": 4672,
      "\u0eb1": 4673,
      "\u87c4": 4674,
      "\u6b89": 4675,
      "\u53d8": 4676,
      "\u4f3c": 4677,
      "\u0bcb": 4678,
      "\u4fe0": 4679,
      "\u8f15": 4680,
      "\u8f7b": 4681,
      "\u0092": 4682,
      "\u91dd": 4683,
      "\u9488": 4684,
      "\u85e9": 4685,
      "\u9072": 4686,
      "\u54c9": 4687,
      "\u6368": 4688,
      "\u9019": 4689,
      "\u3090": 4690,
      "\u827e": 4691,
      "\u949f": 4692,
      "\u9732": 4693,
      "\u707d": 4694,
      "\u7d9a": 4695,
      "\u5eb5": 4696,
      "\u6d52": 4697,
      "\u9634": 4698,
      "\u6094": 4699,
      "\u775b": 4700,
      "\u5b9b": 4701,
      "\u0c0a": 4702,
      "\u0c3f": 4703,
      "\u962a": 4704,
      "\u7e2e": 4705,
      "\u7f29": 4706,
      "\uaca9": 4707,
      "\u6696": 4708,
      "\u8c6b": 4709,
      "\ufeee": 4710,
      "\u0675": 4711,
      "\ufedf": 4712,
      "\u1f41": 4713,
      "\ub2e5": 4714,
      "\u4f9b": 4715,
      "\u878d": 4716,
      "\u8b19": 4717,
      "\u0474": 4718,
      "\u8d0a": 4719,
      "\u8cdb": 4720,
      "\u7d6e": 4721,
      "\u7d30": 4722,
      "\u8594": 4723,
      "\u8587": 4724,
      "\u78ef": 4725,
      "\u5bee": 4726,
      "\u0471": 4727,
      "\ud800\udea8": 4728,
      "\u7ea6": 4729,
      "\u4ef0": 4730,
      "\u0c38": 4731,
      "\u0c2f": 4732,
      "\u67e5": 4733,
      "\u62a5": 4734,
      "\u544a": 4735,
      "\u4e3d": 4736,
      "\u8c62": 4737,
      "\u7e4b": 4738,
      "\u6dfa": 4739,
      "\u0d7b": 4740,
      "\u10b9": 4741,
      "\u8cf4": 4742,
      "\u9000": 4743,
      "\uc2f1": 4744,
      "\uae00": 4745,
      "\u0c2c": 4746,
      "\u8956": 4747,
      "\u9006": 4748,
      "\u9127": 4749,
      "\u76bf": 4750,
      "\u968b": 4751,
      "\u6ce1": 4752,
      "\u6cab": 4753,
      "\u5353": 4754,
      "\u305c": 4755,
      "\u4e3c": 4756,
      "\u5617": 4757,
      "\u8b9a": 4758,
      "\u80ce": 4759,
      "\u7a4c": 4760,
      "\u7cb9": 4761,
      "\u5e99": 4762,
      "\u140a": 4763,
      "\u1449": 4764,
      "\u1438": 4765,
      "\u1451": 4766,
      "\u1550": 4767,
      "\u152a": 4768,
      "\u1585": 4769,
      "\u01c2": 4770,
      "\u6c39": 4771,
      "\u09e7": 4772,
      "\u68b6": 4773,
      "\u5ba0": 4774,
      "\u9eb5": 4775,
      "\u9eba": 4776,
      "\u66a0": 4777,
      "\u6de1": 4778,
      "\u7d2b": 4779,
      "\u57a3": 4780,
      "\u17ce": 4781,
      "\u10ed": 4782,
      "\uf0b7": 4783,
      "\u5f3c": 4784,
      "\u51c9": 4785,
      "\u676d": 4786,
      "\u30f6": 4787,
      "\u94a6": 4788,
      "\u06cb": 4789,
      "\u9e70": 4790,
      "\uc788": 4791,
      "\u95f4": 4792,
      "\u4f8b": 4793,
      "\u5e05": 4794,
      "\u7518": 4795,
      "\ud070": 4796,
      "\u05b2": 4797,
      "\u5e06": 4798,
      "\u51fb": 4799,
      "\u1b9c": 4800,
      "\u1b81": 4801,
      "\u1b83": 4802,
      "\u5438": 4803,
      "\u7ebf": 4804,
      "\u4f4d": 4805,
      "\u768b": 4806,
      "\u1ebd": 4807,
      "\u056a": 4808,
      "\uc0e4": 4809,
      "\uc954": 4810,
      "\u051a": 4811,
      "\u0143": 4812,
      "\ub7f0": 4813,
      "\u716e": 4814,
      "\u5a5a": 4815,
      "\u59fb": 4816,
      "\u5d14": 4817,
      "\u5bd4": 4818,
      "\u98e1": 4819,
      "\u0525": 4820,
      "\u8a0e": 4821,
      "\u8ba8": 4822,
      "\u7f16": 4823,
      "\u8a55": 4824,
      "\u8bc4": 4825,
      "\u848b": 4826,
      "\u05c0": 4827,
      "\ud0a8": 4828,
      "\u6935": 4829,
      "\u5c91": 4830,
      "\ub9c9": 4831,
      "\u6fd1": 4832,
      "\u9e1f": 4833,
      "\u1fec": 4834,
      "\uaed8": 4835,
      "\u02e8": 4836,
      "\u5dfe": 4837,
      "\u96bc": 4838,
      "\u6253": 4839,
      "\u0329": 4840,
      "\u0d4a": 4841,
      "\ub150": 4842,
      "\u55aa": 4843,
      "\u1f59": 4844,
      "\u207c": 4845,
      "\u25a2": 4846,
      "\u6863": 4847,
      "\u015d": 4848,
      "\ud800\udea0": 4849,
      "\u1b22": 4850,
      "\u1b26": 4851,
      "\u0664": 4852,
      "\u5106": 4853,
      "\u6b50": 4854,
      "\u8ca7": 4855,
      "\u8d2b": 4856,
      "\u03d1": 4857,
      "\u8b8a": 4858,
      "\u75be": 4859,
      "\u306c": 4860,
      "\u00cf": 4861,
      "\u57ad": 4862,
      "\uae68": 4863,
      "\u8f9f": 4864,
      "\u603f": 4865,
      "\u6db5": 4866,
      "\u05a4": 4867,
      "\u723d": 4868,
      "\u8bfa": 4869,
      "\u55ac": 4870,
      "\u81bd": 4871,
      "\ube45": 4872,
      "\u17bc": 4873,
      "\u1b99": 4874,
      "\u1b94": 4875,
      "\u1e51": 4876,
      "\u89c0": 4877,
      "\u89c2": 4878,
      "\u4e49": 4879,
      "\u099f": 4880,
      "\ud50c": 4881,
      "\ub79c": 4882,
      "\ub9e8": 4883,
      "\u540a": 4884,
      "\u7345": 4885,
      "\u93ad": 4886,
      "\u00db": 4887,
      "\u25bd": 4888,
      "\u203a": 4889,
      "\u1ea9": 4890,
      "\u0ca8": 4891,
      "\u0c97": 4892,
      "\u6874": 4893,
      "\u83b2": 4894,
      "\u6101": 4895,
      "\u202c": 4896,
      "\u0490": 4897,
      "\u7d46": 4898,
      "\u66c9": 4899,
      "\u767b": 4900,
      "\u74dc": 4901,
      "\u5f15": 4902,
      "\u5373": 4903,
      "\u2082": 4904,
      "\ufeff": 4905,
      "\u1ecc": 4906,
      "\u8179": 4907,
      "\u78b0": 4908,
      "\u528d": 4909,
      "\u5c16": 4910,
      "\u5713": 4911,
      "\ud5f9": 4912,
      "\uba3c": 4913,
      "\u305e": 4914,
      "\u0a2e": 4915,
      "\u7ec3": 4916,
      "\uacf3": 4917,
      "\u1b07": 4918,
      "\u1b15": 4919,
      "\u1b3e": 4920,
      "\u1b03": 4921,
      "\u1b2b": 4922,
      "\u1b05": 4923,
      "\u7d72": 4924,
      "\u4e1d": 4925,
      "\u7cf8": 4926,
      "\u75de": 4927,
      "\u90a6": 4928,
      "\u74db": 4929,
      "\u8247": 4930,
      "\ud802\udd0a": 4931,
      "\ud802\udd13": 4932,
      "\ud802\udd00": 4933,
      "\ud798": 4934,
      "\u8a8c": 4935,
      "\u6301": 4936,
      "\u03dd": 4937,
      "\u0150": 4938,
      "\u932f": 4939,
      "\u0a1a": 4940,
      "\u9f3b": 4941,
      "\u54e6": 4942,
      "\u2027": 4943,
      "\u751a": 4944,
      "\u9ebc": 4945,
      "\ufebd": 4946,
      "\u061e": 4947,
      "\ub2f4": 4948,
      "\u8235": 4949,
      "\u8907": 4950,
      "\u8fdb": 4951,
      "\uff06": 4952,
      "\u7a3f": 4953,
      "\u1f0d": 4954,
      "\u4e9b": 4955,
      "\u5cb3": 4956,
      "\u9716": 4957,
      "\u7b4b": 4958,
      "\u965b": 4959,
      "\u2460": 4960,
      "\u0698": 4961,
      "\u10d6": 4962,
      "\u8836": 4963,
      "\u8695": 4964,
      "\u760b": 4965,
      "\u68cd": 4966,
      "\u542c": 4967,
      "\u6cfc": 4968,
      "\u673a": 4969,
      "\u752f": 4970,
      "\u74a7": 4971,
      "\u02a2": 4972,
      "\u8399": 4973,
      "\ufedd": 4974,
      "\ucd94": 4975,
      "\u1f65": 4976,
      "\u5239": 4977,
      "\u6b32": 4978,
      "\u66b4": 4979,
      "\u8425": 4980,
      "\u1833": 4981,
      "\u7ec6": 4982,
      "\u1017": 4983,
      "\u0164": 4984,
      "\ubcf8": 4985,
      "\u6a13": 4986,
      "\u027b": 4987,
      "\u2286": 4988,
      "\u865c": 4989,
      "\u1f09": 4990,
      "\uc80a": 4991,
      "\ub0a0": 4992,
      "\u50a8": 4993,
      "\u65ed": 4994,
      "\uc5fd": 4995,
      "\u4ffa": 4996,
      "\u5b99": 4997,
      "\ufecd": 4998,
      "\u4f51": 4999,
      "\u6653": 5000,
      "\u2627": 5001,
      "\ua72d": 5002,
      "\u5897": 5003,
      "\u03d5": 5004,
      "\u84a8": 5005,
      "\u0cb5": 5006,
      "\u0ccd": 5007,
      "\ub8fd": 5008,
      "\ud800\udec1": 5009,
      "\ud800\udec0": 5010,
      "\u6267": 5011,
      "\u865b": 5012,
      "\u17a0": 5013,
      "\u868a": 5014,
      "\u69cd": 5015,
      "\u1ee3": 5016,
      "\u67b6": 5017,
      "\u8d39": 5018,
      "\u5256": 5019,
      "\u7ed3": 5020,
      "\u865a": 5021,
      "\u5676": 5022,
      "\u00b6": 5023,
      "\u0cb8": 5024,
      "\u0cbf": 5025,
      "\u61f2": 5026,
      "\u211d": 5027,
      "\u90f7": 5028,
      "\u633a": 5029,
      "\ud808\uddf7": 5030,
      "\ud808\udc8a": 5031,
      "\u8cd3": 5032,
      "\u983b": 5033,
      "\u8aa4": 5034,
      "\u8bef": 5035,
      "\uc57d": 5036,
      "\u5e26": 5037,
      "\u5e2f": 5038,
      "\ufeef": 5039,
      "\u2208": 5040,
      "\u25cc": 5041,
      "\u79b9": 5042,
      "\u0db6": 5043,
      "\u03f4": 5044,
      "\u2764": 5045,
      "\u742a": 5046,
      "\u7fd5": 5047,
      "\u7a31": 5048,
      "\u51dd": 5049,
      "\u50b7": 5050,
      "\u4f24": 5051,
      "\u60d1": 5052,
      "\u8015": 5053,
      "\u9824": 5054,
      "\u1a02": 5055,
      "\u80ba": 5056,
      "\u1309": 5057,
      "\u5f65": 5058,
      "\u5386": 5059,
      "\u9875": 5060,
      "\u4e8e": 5061,
      "\u5c19": 5062,
      "\ud83d\udc4d": 5063,
      "\u5f88": 5064,
      "\u1f28": 5065,
      "\u6236": 5066,
      "\u92b3": 5067,
      "\u9510": 5068,
      "\u92ed": 5069,
      "\ud800\udebc": 5070,
      "\ud800\udebd": 5071,
      "\u0324": 5072,
      "\u966c": 5073,
      "\u0660": 5074,
      "\u0663": 5075,
      "\u0668": 5076,
      "\u7a0b": 5077,
      "\ufeaf": 5078,
      "\u5899": 5079,
      "\u9cb2": 5080,
      "\u8986": 5081,
      "\u6012": 5082,
      "\u5e55": 5083,
      "\u04b8": 5084,
      "\u9aea": 5085,
      "\u17ca": 5086,
      "\u65b7": 5087,
      "\u5c46": 5088,
      "\u9134": 5089,
      "\u80f8": 5090,
      "\u1f33": 5091,
      "\u6d5c": 5092,
      "\u3145": 5093,
      "\u02a1": 5094,
      "\u7ed5": 5095,
      "\u1f57": 5096,
      "\u62dc": 5097,
      "\u62dd": 5098,
      "\u2667": 5099,
      "\u5c40": 5100,
      "\u0a28": 5101,
      "\u0a47": 5102,
      "\u0a35": 5103,
      "\u70b8": 5104,
      "\u708e": 5105,
      "\u9855": 5106,
      "\u1eb9": 5107,
      "\u12c8": 5108,
      "\ud83d\ude80": 5109,
      "\u6da6": 5110,
      "\u0190": 5111,
      "\u22c9": 5112,
      "\u06aa": 5113,
      "\u9396": 5114,
      "\u9d3b": 5115,
      "\u502a": 5116,
      "\u1eb5": 5117,
      "\u101d": 5118,
      "\uaa7b": 5119,
      "\u101f": 5120,
      "\u1015": 5121,
      "\u1036": 5122,
      "\u22ef": 5123,
      "\u68a8": 5124,
      "\u68d2": 5125,
      "\u72a8": 5126,
      "\u679d": 5127,
      "\ua9be": 5128,
      "\ud800\udece": 5129,
      "\ud800\udea6": 5130,
      "\u838a": 5131,
      "\u8358": 5132,
      "\u5830": 5133,
      "\u0554": 5134,
      "\u0536": 5135,
      "\u514d": 5136,
      "\u95f8": 5137,
      "\u8cda": 5138,
      "\u97ee": 5139,
      "\u4ff3": 5140,
      "\u840d": 5141,
      "\u8042": 5142,
      "\u6f13": 5143,
      "\u02a7": 5144,
      "\u051e": 5145,
      "\u045d": 5146,
      "\u6ce5": 5147,
      "\u626c": 5148,
      "\u799b": 5149,
      "\ua946": 5150,
      "\ua94b": 5151,
      "\ua931": 5152,
      "\ua950": 5153,
      "\u09a2": 5154,
      "\u134b": 5155,
      "\u122a": 5156,
      "\u71d5": 5157,
      "\u0a0f": 5158,
      "\u0a3c": 5159,
      "\uc058": 5160,
      "\uc796": 5161,
      "\u5dee": 5162,
      "\u52c9": 5163,
      "\uaf80": 5164,
      "\uaf2c": 5165,
      "\u0497": 5166,
      "\u6f5c": 5167,
      "\u6539": 5168,
      "\u6b98": 5169,
      "\u6b8b": 5170,
      "\u1f37": 5171,
      "\u76db": 5172,
      "\u589e": 5173,
      "\u1f18": 5174,
      "\u6ec5": 5175,
      "\u042c": 5176,
      "\u7af6": 5177,
      "\u7ade": 5178,
      "\u6a11": 5179,
      "\u2207": 5180,
      "\u589c": 5181,
      "\u101e": 5182,
      "\u8107": 5183,
      "\u614e": 5184,
      "\uc12f": 5185,
      "\uff13": 5186,
      "\u21d4": 5187,
      "\u71e6": 5188,
      "\u9f4b": 5189,
      "\u658b": 5190,
      "\u62e1": 5191,
      "\u8f1d": 5192,
      "\u4e32": 5193,
      "\u64f4": 5194,
      "\u6269": 5195,
      "\u95a3": 5196,
      "\u9601": 5197,
      "\u7b97": 5198,
      "\u25cf": 5199,
      "\u51cc": 5200,
      "\u7bab": 5201,
      "\uae4a": 5202,
      "\u758f": 5203,
      "\uc838": 5204,
      "\u6b67": 5205,
      "\u66ab": 5206,
      "\u7fcc": 5207,
      "\u95ad": 5208,
      "\u9038": 5209,
      "\u8606": 5210,
      "\u05bd": 5211,
      "\u05a3": 5212,
      "\u5104": 5213,
      "\u4ebf": 5214,
      "\u9591": 5215,
      "\u8033": 5216,
      "\u4e15": 5217,
      "\u221d": 5218,
      "\u1790": 5219,
      "\u17c9": 5220,
      "\ud800\udeab": 5221,
      "\uad34": 5222,
      "\u9642": 5223,
      "\u54e5": 5224,
      "\u0f68": 5225,
      "\u0f7a": 5226,
      "\u0f58": 5227,
      "\u0f5a": 5228,
      "\u0f72": 5229,
      "\u25b7": 5230,
      "\u7281": 5231,
      "\u6518": 5232,
      "\u707e": 5233,
      "\u8c50": 5234,
      "\u8c4a": 5235,
      "\u7e3d": 5236,
      "\u0f66": 5237,
      "\u0f53": 5238,
      "\u0f54": 5239,
      "\u0f7c": 5240,
      "\u0f46": 5241,
      "\u52aa": 5242,
      "\u5eca": 5243,
      "\u0290": 5244,
      "\u8b49": 5245,
      "\u8bc1": 5246,
      "\u6aa2": 5247,
      "\u68c0": 5248,
      "\u691c": 5249,
      "\u620c": 5250,
      "\u02d4": 5251,
      "\u0c90": 5252,
      "\u0cb6": 5253,
      "\u0caf": 5254,
      "\u6c72": 5255,
      "\u2083": 5256,
      "\u72e9": 5257,
      "\uc5d8": 5258,
      "\u8af6": 5259,
      "\ud749": 5260,
      "\ucc29": 5261,
      "\u4f0d": 5262,
      "\u5baa": 5263,
      "\u0cae": 5264,
      "\u0ca3": 5265,
      "\u846b": 5266,
      "\u82a6": 5267,
      "\u4fa8": 5268,
      "\u4ff5": 5269,
      "\ub2dd": 5270,
      "\u502e": 5271,
      "\u629c": 5272,
      "\u8ca1": 5273,
      "\u8d22": 5274,
      "\u63cf": 5275,
      "\u6ca1": 5276,
      "\u9760": 5277,
      "\u81df": 5278,
      "\u810f": 5279,
      "\u81d3": 5280,
      "\u06c6": 5281,
      "\u6ff1": 5282,
      "\u0564": 5283,
      "\u9d8f": 5284,
      "\ud800\udeb7": 5285,
      "\u56f4": 5286,
      "\u56f2": 5287,
      "\u6dee": 5288,
      "\u7cbf": 5289,
      "\u0d28": 5290,
      "\u8077": 5291,
      "\u804c": 5292,
      "\u21a6": 5293,
      "\u9690": 5294,
      "\u96a0": 5295,
      "\u595a": 5296,
      "\u5e8f": 5297,
      "\u1b80": 5298,
      "\ua98a": 5299,
      "\u7e8c": 5300,
      "\u6d74": 5301,
      "\u64ec": 5302,
      "\u31f2": 5303,
      "\u051f": 5304,
      "\u2666": 5305,
      "\u865e": 5306,
      "\ud800\udea4": 5307,
      "\ud800\udec8": 5308,
      "\ud800\uded0": 5309,
      "\u4e0e": 5310,
      "\u0094": 5311,
      "\u8061": 5312,
      "\u5bdb": 5313,
      "\u53cc": 5314,
      "\u81c2": 5315,
      "\u264b": 5316,
      "\u8ce3": 5317,
      "\u5356": 5318,
      "\u05bb": 5319,
      "\u1218": 5320,
      "\u1203": 5321,
      "\u1021": 5322,
      "\u5224": 5323,
      "\u8ba1": 5324,
      "\ud800\udea1": 5325,
      "\ud800\udeca": 5326,
      "\ud800\udecb": 5327,
      "\ud800\udecc": 5328,
      "\ud800\udecd": 5329,
      "\uc755": 5330,
      "\u108f": 5331,
      "\u1016": 5332,
      "\u0320": 5333,
      "\u8170": 5334,
      "\uc5c6": 5335,
      "\ufe95": 5336,
      "\u057c": 5337,
      "\ub871": 5338,
      "\ub123": 5339,
      "\u7d79": 5340,
      "\u7ee2": 5341,
      "\u4f26": 5342,
      "\u6589": 5343,
      "\u8cc7": 5344,
      "\uc564": 5345,
      "\u5e7d": 5346,
      "\ub18d": 5347,
      "\uc1fc": 5348,
      "\u1edf": 5349,
      "\u8ca8": 5350,
      "\u5f04": 5351,
      "\u1b84": 5352,
      "\u5b22": 5353,
      "\u8fbc": 5354,
      "\u0147": 5355,
      "\u5e10": 5356,
      "\u701a": 5357,
      "\u606c": 5358,
      "\u5df2": 5359,
      "\u9234": 5360,
      "\u0d86": 5361,
      "\u0dab": 5362,
      "\u0dc0": 5363,
      "\uafc8": 5364,
      "\u5ce1": 5365,
      "\u618e": 5366,
      "\u7573": 5367,
      "\u9b6f": 5368,
      "\u50cd": 5369,
      "\u61c2": 5370,
      "\u5aea": 5371,
      "\u6bd0": 5372,
      "\u81b3": 5373,
      "\u1b8c": 5374,
      "\u1b8d": 5375,
      "\u737b": 5376,
      "\u8c08": 5377,
      "\u9676": 5378,
      "\u5b69": 5379,
      "\u68d8": 5380,
      "\u80c1": 5381,
      "\u521a": 5382,
      "\u182a": 5383,
      "\u1824": 5384,
      "\u1822": 5385,
      "\u9088": 5386,
      "\u796d": 5387,
      "\ufeb5": 5388,
      "\u7ad6": 5389,
      "\u5201": 5390,
      "\uc808": 5391,
      "\u5996": 5392,
      "\u25b3": 5393,
      "\u693f": 5394,
      "\u7e3e": 5395,
      "\u7ee9": 5396,
      "\u021a": 5397,
      "\ub044": 5398,
      "\u5c3e": 5399,
      "\u7b56": 5400,
      "\u7def": 5401,
      "\u7eac": 5402,
      "\u1e0c": 5403,
      "\u6557": 5404,
      "\u8d25": 5405,
      "\ub978": 5406,
      "\u663a": 5407,
      "\u9739": 5408,
      "\u96f3": 5409,
      "\uc378": 5410,
      "\u5840": 5411,
      "\u4ee1": 5412,
      "\u0689": 5413,
      "\u6d17": 5414,
      "\u0154": 5415,
      "\u215c": 5416,
      "\u7076": 5417,
      "\u7941": 5418,
      "\u806a": 5419,
      "\u80e7": 5420,
      "\u53c9": 5421,
      "\u2d0d": 5422,
      "\u2d23": 5423,
      "\u856a": 5424,
      "\u020f": 5425,
      "\ube4c": 5426,
      "\u575e": 5427,
      "\ud3f0": 5428,
      "\u9e5b": 5429,
      "\u94f6": 5430,
      "\u517c": 5431,
      "\u6170": 5432,
      "\u8c22": 5433,
      "\u7d55": 5434,
      "\u7edd": 5435,
      "\u51db": 5436,
      "\uaebc": 5437,
      "\u04e6": 5438,
      "\u04e7": 5439,
      "\u886b": 5440,
      "\u071f": 5441,
      "\u6d3e": 5442,
      "\u526a": 5443,
      "\ufec5": 5444,
      "\u6168": 5445,
      "\u9980": 5446,
      "\u8a2d": 5447,
      "\u8bbe": 5448,
      "\u011d": 5449,
      "\u5458": 5450,
      "\u4fae": 5451,
      "\u7eb8": 5452,
      "\u96be": 5453,
      "\u226a": 5454,
      "\u798d": 5455,
      "\ub8b0": 5456,
      "\u215b": 5457,
      "\u62ab": 5458,
      "\u85a9": 5459,
      "\u9a5b": 5460,
      "\u9a7f": 5461,
      "\u73c9": 5462,
      "\u99a8": 5463,
      "\u6cbf": 5464,
      "\uce6d": 5465,
      "\u5de8": 5466,
      "\u6ee1": 5467,
      "\u8881": 5468,
      "\u73a5": 5469,
      "\ubbff": 5470,
      "\u6851": 5471,
      "\u5170": 5472,
      "\ua991": 5473,
      "\u0a13": 5474,
      "\u0a32": 5475,
      "\u0a4d": 5476,
      "\ud800\udeaf": 5477,
      "\ub0ae": 5478,
      "\u1f22": 5479,
      "\u03e1": 5480,
      "\u1ecf": 5481,
      "\u61f7": 5482,
      "\u8dc3": 5483,
      "\u5347": 5484,
      "\u4ea2": 5485,
      "\u0c4d": 5486,
      "\u786b": 5487,
      "\u961c": 5488,
      "\ub9e4": 5489,
      "\u5987": 5490,
      "\u1ba6": 5491,
      "\u1ba2": 5492,
      "\u2282": 5493,
      "\ua9b3": 5494,
      "\u8faf": 5495,
      "\u2202": 5496,
      "\u6b04": 5497,
      "\uce35": 5498,
      "\u64e7": 5499,
      "\u4e3e": 5500,
      "\ud0ac": 5501,
      "\ub7a8": 5502,
      "\u9ea6": 5503,
      "\u52e7": 5504,
      "\u6dbc": 5505,
      "\u98fc": 5506,
      "\u9972": 5507,
      "\u6144": 5508,
      "\u5f39": 5509,
      "\u67d4": 5510,
      "\u89a9": 5511,
      "\u6760": 5512,
      "\ub8f9": 5513,
      "\u1ef5": 5514,
      "\u6cae": 5515,
      "\u883b": 5516,
      "\u5706": 5517,
      "\u663e": 5518,
      "\u7f3a": 5519,
      "\u6b20": 5520,
      "\u8523": 5521,
      "\ud800\udd5d": 5522,
      "\u5ba5": 5523,
      "\u20ab": 5524,
      "\u7ee5": 5525,
      "\u54cd": 5526,
      "\u8cab": 5527,
      "\u2d44": 5528,
      "\u2d63": 5529,
      "\u2d49": 5530,
      "\u035c": 5531,
      "\u105a": 5532,
      "\u101b": 5533,
      "\u1dbb": 5534,
      "\u701b": 5535,
      "\u724c": 5536,
      "\u81ed": 5537,
      "\u8cbf": 5538,
      "\u8d38": 5539,
      "\u6ecb": 5540,
      "\u0133": 5541,
      "\u589f": 5542,
      "\u03fa": 5543,
      "\u6bb7": 5544,
      "\u0c12": 5545,
      "\u72c0": 5546,
      "\u4ea6": 5547,
      "\u6666": 5548,
      "\u7d62": 5549,
      "\u721b": 5550,
      "\u1020": 5551,
      "\u102b": 5552,
      "\u1011": 5553,
      "\u903c": 5554,
      "\u9677": 5555,
      "\u9631": 5556,
      "\u523a": 5557,
      "\u7e61": 5558,
      "\ud800\udf0c": 5559,
      "\u0d8c": 5560,
      "\u9f84": 5561,
      "\u5e93": 5562,
      "\u103d": 5563,
      "\u02e0": 5564,
      "\u9474": 5565,
      "\ud325": 5566,
      "\u5426": 5567,
      "\u7c84": 5568,
      "\u9976": 5569,
      "\u05aa": 5570,
      "\u5219": 5571,
      "\uc678": 5572,
      "\uc798": 5573,
      "\uc999": 5574,
      "\u10b3": 5575,
      "\uc1c4": 5576,
      "an": 5577,
      "er": 5578,
      "\u2581t": 5579,
      "in": 5580,
      "en": 5581,
      "\u2581d": 5582,
      "ar": 5583,
      "at": 5584,
      "he": 5585,
      "\u2581s": 5586,
      "al": 5587,
      "on": 5588,
      "\u2581m": 5589,
      "as": 5590,
      "\u2581p": 5591,
      "\u2581b": 5592,
      "\u2581the": 5593,
      "es": 5594,
      "or": 5595,
      "is": 5596,
      "ed": 5597,
      "it": 5598,
      "un": 5599,
      "\u2581,": 5600,
      "ang": 5601,
      "\u2581a": 5602,
      "\u2581w": 5603,
      "\u2581o": 5604,
      "ah": 5605,
      "am": 5606,
      "el": 5607,
      "\u2581S": 5608,
      "ing": 5609,
      "em": 5610,
      "\u2581in": 5611,
      "\u2581.": 5612,
      "and": 5613,
      "\u2581k": 5614,
      "\u2581f": 5615,
      "\u2581c": 5616,
      "il": 5617,
      "ak": 5618,
      "ad": 5619,
      "\u2581of": 5620,
      "\u2581A": 5621,
      "\u2581P": 5622,
      "\u2581T": 5623,
      "ur": 5624,
      "us": 5625,
      "\u2581di": 5626,
      "ro": 5627,
      "\u2581h": 5628,
      "\u2581l": 5629,
      "\u2581M": 5630,
      "ic": 5631,
      "\u2581and": 5632,
      "et": 5633,
      "\u2581r": 5634,
      "\u2581B": 5635,
      "ut": 5636,
      "\u25811": 5637,
      "\u2581to": 5638,
      "ion": 5639,
      "ik": 5640,
      "\u2581C": 5641,
      "ir": 5642,
      "\u2581se": 5643,
      "\u2581y": 5644,
      "eng": 5645,
      "ent": 5646,
      "\u2581I": 5647,
      "ol": 5648,
      "ul": 5649,
      "\u2581K": 5650,
      "\u2581D": 5651,
      "om": 5652,
      "id": 5653,
      "uk": 5654,
      "\u2581(": 5655,
      "ag": 5656,
      "ya": 5657,
      "\u2581dan": 5658,
      "im": 5659,
      "ec": 5660,
      "\u25812": 5661,
      "\u2581yang": 5662,
      "um": 5663,
      "ap": 5664,
      "\u2581\"": 5665,
      "\u2581n": 5666,
      "ia": 5667,
      "\u2581R": 5668,
      "ers": 5669,
      "\u2581=": 5670,
      "le": 5671,
      "\u2581H": 5672,
      "\u2581th": 5673,
      "ot": 5674,
      "ac": 5675,
      "\u2581g": 5676,
      "ari": 5677,
      "\u2581L": 5678,
      "\u2581J": 5679,
      "kan": 5680,
      "\u2581N": 5681,
      "ep": 5682,
      "ay": 5683,
      "os": 5684,
      "\u2581men": 5685,
      "ai": 5686,
      "\u2581G": 5687,
      "eb": 5688,
      "\u2581@": 5689,
      "ter": 5690,
      "up": 5691,
      "\u2581F": 5692,
      "ig": 5693,
      "ada": 5694,
      "00": 5695,
      "\u2581ber": 5696,
      "\u2581The": 5697,
      "\u2581was": 5698,
      "ek": 5699,
      "ab": 5700,
      "\u258119": 5701,
      "iv": 5702,
      "\u2581W": 5703,
      "tr": 5704,
      "\u2581on": 5705,
      "emb": 5706,
      "\u2581per": 5707,
      "ian": 5708,
      "ain": 5709,
      "ud": 5710,
      "\u2581as": 5711,
      "\u2581In": 5712,
      "\u2581'": 5713,
      "ly": 5714,
      "ara": 5715,
      "\u2581for": 5716,
      "re": 5717,
      "\u2581un": 5718,
      "\u2581at": 5719,
      "\u2581ad": 5720,
      "\u2581E": 5721,
      "\u2581@-": 5722,
      "\u2581@-@": 5723,
      "ow": 5724,
      "ug": 5725,
      "th": 5726,
      "\u2581ter": 5727,
      "\u2581dari": 5728,
      "\u2581e": 5729,
      "nya": 5730,
      "\u2581j": 5731,
      "ant": 5732,
      "ation": 5733,
      "ung": 5734,
      "ith": 5735,
      "\u2581seb": 5736,
      "\u2581wh": 5737,
      "\u2581O": 5738,
      "ch": 5739,
      "eg": 5740,
      "alah": 5741,
      "akan": 5742,
      "end": 5743,
      "od": 5744,
      "\u2581al": 5745,
      "ama": 5746,
      "\u2581U": 5747,
      "\u2581's": 5748,
      "engan": 5749,
      "\u2581it": 5750,
      "\u2581pada": 5751,
      "\u2581with": 5752,
      "ist": 5753,
      "op": 5754,
      "\u2581st": 5755,
      "est": 5756,
      "st": 5757,
      "ver": 5758,
      "\u2581that": 5759,
      "aw": 5760,
      "\u2581ini": 5761,
      "art": 5762,
      "ip": 5763,
      "\u2581dengan": 5764,
      "ub": 5765,
      "asi": 5766,
      "alam": 5767,
      "ere": 5768,
      "\u2581meng": 5769,
      "if": 5770,
      "av": 5771,
      "\u2581by": 5772,
      "\u2581pro": 5773,
      "ies": 5774,
      "ce": 5775,
      "\u2581be": 5776,
      "ok": 5777,
      "\u2581)": 5778,
      "\u2581unt": 5779,
      "\u2581is": 5780,
      "\u258120": 5781,
      "\u2581con": 5782,
      "\u2581an": 5783,
      "ew": 5784,
      "\u2581adalah": 5785,
      "\u2581v": 5786,
      "ong": 5787,
      "\u2581or": 5788,
      "\u2581untuk": 5789,
      "\u2581mer": 5790,
      "\u2581he": 5791,
      "\u2581mem": 5792,
      "rom": 5793,
      "ib": 5794,
      "ahun": 5795,
      "\u2581dalam": 5796,
      "\u2581200": 5797,
      "\u2581ar": 5798,
      "ess": 5799,
      "ard": 5800,
      "ect": 5801,
      "agai": 5802,
      "ert": 5803,
      "\u2581ke": 5804,
      "ill": 5805,
      "ran": 5806,
      "\u2581tahun": 5807,
      "unk": 5808,
      "ev": 5809,
      "atan": 5810,
      "uc": 5811,
      "a,": 5812,
      "og": 5813,
      "\u2581<": 5814,
      "\u2581201": 5815,
      "\u2581<unk": 5816,
      "\u2581<unk>": 5817,
      "\u2581from": 5818,
      "uh": 5819,
      "oun": 5820,
      "oc": 5821,
      "ov": 5822,
      "amp": 5823,
      "\u2581sebagai": 5824,
      "ial": 5825,
      "igh": 5826,
      "\u2581his": 5827,
      "\u2581com": 5828,
      "aj": 5829,
      "all": 5830,
      "\u2581Y": 5831,
      "\u2581V": 5832,
      "au": 5833,
      "ih": 5834,
      "ich": 5835,
      "adi": 5836,
      "\u2581sp": 5837,
      "ort": 5838,
      "\u2581St": 5839,
      "leh": 5840,
      "\u2581An": 5841,
      "ear": 5842,
      "\u25813": 5843,
      "\u2581pr": 5844,
      "\u2581oleh": 5845,
      "ikan": 5846,
      "ast": 5847,
      "emp": 5848,
      "\u2581Ch": 5849,
      "int": 5850,
      "qu": 5851,
      "ore": 5852,
      "ate": 5853,
      "\u2581were": 5854,
      "aan": 5855,
      "ity": 5856,
      "\u2581dis": 5857,
      "our": 5858,
      "\u2581pl": 5859,
      "ef": 5860,
      "ell": 5861,
      "ri": 5862,
      "\u2581Al": 5863,
      "si": 5864,
      "any": 5865,
      "ob": 5866,
      "\u2581ex": 5867,
      "\u2581|": 5868,
      "ilm": 5869,
      "elah": 5870,
      "\u2581Ind": 5871,
      "ack": 5872,
      "ember": 5873,
      "ated": 5874,
      "out": 5875,
      "uar": 5876,
      "ive": 5877,
      "\u2581ch": 5878,
      "ebut": 5879,
      "\u2581pen": 5880,
      "ame": 5881,
      "\u2581menj": 5882,
      "\u2581sh": 5883,
      "per": 5884,
      "ugh": 5885,
      "anya": 5886,
      "mer": 5887,
      "ingg": 5888,
      "ord": 5889,
      "rit": 5890,
      "\u2581had": 5891,
      "angan": 5892,
      "af": 5893,
      "ass": 5894,
      "man": 5895,
      "ine": 5896,
      "atu": 5897,
      "angg": 5898,
      "\u2581ac": 5899,
      "ous": 5900,
      "a.": 5901,
      "ukan": 5902,
      "uga": 5903,
      "\u2581Un": 5904,
      "ind": 5905,
      "ight": 5906,
      "asa": 5907,
      "ost": 5908,
      "ua": 5909,
      "\u2581tr": 5910,
      "amb": 5911,
      "\u2581which": 5912,
      "\u2581are": 5913,
      "\u2581Ar": 5914,
      "\u2581mel": 5915,
      "\u2581juga": 5916,
      "\u25814": 5917,
      "apat": 5918,
      "\u2581\u2013": 5919,
      "\u2581bah": 5920,
      "isi": 5921,
      "her": 5922,
      "\u2581ser": 5923,
      "\u258118": 5924,
      "ala": 5925,
      "ond": 5926,
      "ical": 5927,
      "umb": 5928,
      "\u2581not": 5929,
      "tion": 5930,
      "idak": 5931,
      "ika": 5932,
      "\u25815": 5933,
      "ens": 5934,
      "ali": 5935,
      "oh": 5936,
      "ones": 5937,
      "\u2581Th": 5938,
      "\u2581cl": 5939,
      "\u2581dit": 5940,
      "ish": 5941,
      "ons": 5942,
      "\u2581memb": 5943,
      "ust": 5944,
      "\u2581re": 5945,
      "ff": 5946,
      "\u2581res": 5947,
      "ide": 5948,
      "upakan": 5949,
      "ahan": 5950,
      "ge": 5951,
      "19": 5952,
      "\u2581merupakan": 5953,
      "\u2581menjadi": 5954,
      "aya": 5955,
      "\u2581fir": 5956,
      "\u2581sec": 5957,
      "oul": 5958,
      "\u2581ro": 5959,
      "\u2581peng": 5960,
      "\u2581Mar": 5961,
      "ment": 5962,
      "ual": 5963,
      "\u2581ab": 5964,
      "ave": 5965,
      "\u2581ters": 5966,
      "ota": 5967,
      "\u2581des": 5968,
      "wa": 5969,
      "ue": 5970,
      "\u2581rec": 5971,
      "imp": 5972,
      "\u2581tidak": 5973,
      "ater": 5974,
      "\u2581pert": 5975,
      "\u2581int": 5976,
      "\u2581ap": 5977,
      "orm": 5978,
      "agian": 5979,
      "\u2581sel": 5980,
      "\u2581Per": 5981,
      "\u2581set": 5982,
      "\u2581atau": 5983,
      "ther": 5984,
      "ld": 5985,
      "\u2581tim": 5986,
      "\u2581ag": 5987,
      "\u2581Sp": 5988,
      "onesia": 5989,
      "ork": 5990,
      "\u2581As": 5991,
      "und": 5992,
      "\u2581meny": 5993,
      "20": 5994,
      "\u2581pem": 5995,
      "\u2581199": 5996,
      "\u2581inc": 5997,
      "uan": 5998,
      "\u2581us": 5999,
      "ional": 6000,
      "ult": 6001,
      "ure": 6002,
      "\u2581but": 6003,
      "uah": 6004,
      "\u2581Indonesia": 6005,
      "fter": 6006,
      "ould": 6007,
      "oll": 6008,
      "\u2581sep": 6009,
      "ey": 6010,
      "wo": 6011,
      "\u2581comp": 6012,
      "\u2581-": 6013,
      "ement": 6014,
      ".,": 6015,
      "\u2581Amer": 6016,
      "\u2581:": 6017,
      "\u2581;": 6018,
      "so": 6019,
      "\u2581Pada": 6020,
      "age": 6021,
      "\u2581tersebut": 6022,
      "\u2581kar": 6023,
      "\u25816": 6024,
      "ana": 6025,
      "ign": 6026,
      "ound": 6027,
      "ata": 6028,
      "tern": 6029,
      "anj": 6030,
      "i,": 6031,
      "\u2581her": 6032,
      "\u2581first": 6033,
      "\u2581He": 6034,
      "ilik": 6035,
      "ome": 6036,
      "\u2581its": 6037,
      "\u2581rel": 6038,
      "ary": 6039,
      "ena": 6040,
      "\u2581their": 6041,
      "omp": 6042,
      "ail": 6043,
      "eka": 6044,
      "ont": 6045,
      "se": 6046,
      "\u2581Pr": 6047,
      "\u2581itu": 6048,
      "\u2581dib": 6049,
      "\u2581It": 6050,
      "ory": 6051,
      "iz": 6052,
      "\u2581su": 6053,
      "angk": 6054,
      "ark": 6055,
      "own": 6056,
      "),": 6057,
      "hed": 6058,
      "ence": 6059,
      "ach": 6060,
      "land": 6061,
      "\u2581film": 6062,
      "der": 6063,
      "\u2581sebuah": 6064,
      "\u2581also": 6065,
      "\u2581Pran": 6066,
      "\u2581kel": 6067,
      "\u25817": 6068,
      "\u2581mus": 6069,
      "\u2581has": 6070,
      "inal": 6071,
      "gr": 6072,
      ").": 6073,
      "urn": 6074,
      "\u2581kem": 6075,
      "ice": 6076,
      "ions": 6077,
      "ile": 6078,
      "\u2581cont": 6079,
      "\u2581sek": 6080,
      "esar": 6081,
      "rop": 6082,
      "an,": 6083,
      "ept": 6084,
      "ade": 6085,
      "\u2581sa": 6086,
      "\u2581part": 6087,
      "\u2581ak": 6088,
      "\u2581one": 6089,
      "ubl": 6090,
      "\u2581luar": 6091,
      "\u2581sc": 6092,
      "ra": 6093,
      "orang": 6094,
      "enc": 6095,
      "gun": 6096,
      "\u2581have": 6097,
      "\u2581str": 6098,
      "esies": 6099,
      "\u2581bagian": 6100,
      "oy": 6101,
      "\u2581dik": 6102,
      "act": 6103,
      "iliki": 6104,
      "ely": 6105,
      "itas": 6106,
      "\u2581two": 6107,
      "ations": 6108,
      "\u2581@.": 6109,
      "\u2581@.@": 6110,
      "\u2581up": 6111,
      "\u2581Pro": 6112,
      "\u2581dapat": 6113,
      "ite": 6114,
      "ace": 6115,
      "ick": 6116,
      "\u2581satu": 6117,
      "iri": 6118,
      "\u2581lain": 6119,
      "uring": 6120,
      "\u2581Ser": 6121,
      "\u2581Sh": 6122,
      "ase": 6123,
      "ae": 6124,
      "\u25818": 6125,
      "ough": 6126,
      "anc": 6127,
      "arg": 6128,
      "\u2581gen": 6129,
      "\u2581who": 6130,
      "\u2581been": 6131,
      "\u2581ia": 6132,
      "\u2581kep": 6133,
      "\u2581all": 6134,
      "ry": 6135,
      "eat": 6136,
      "\u2581ant": 6137,
      "les": 6138,
      "\u2581memiliki": 6139,
      "ode": 6140,
      "let": 6141,
      "ie": 6142,
      ",@": 6143,
      "\u2581@,@": 6144,
      "\u2581bec": 6145,
      "\u2581bahwa": 6146,
      "aran": 6147,
      "\u2581off": 6148,
      "lah": 6149,
      "\u2581year": 6150,
      "\u2581app": 6151,
      "\u2581telah": 6152,
      "\u2581(19": 6153,
      "\u2581this": 6154,
      "\u25819": 6155,
      "ward": 6156,
      "uj": 6157,
      "olog": 6158,
      "duc": 6159,
      "empat": 6160,
      "\u2581rep": 6161,
      "lud": 6162,
      "\u2581On": 6163,
      "ebih": 6164,
      "i.": 6165,
      "over": 6166,
      "\u2581En": 6167,
      "iss": 6168,
      "pr": 6169,
      "\u2581Sel": 6170,
      "\u2581after": 6171,
      "\u2581over": 6172,
      "te": 6173,
      "ree": 6174,
      "\u2581play": 6175,
      "erap": 6176,
      "\u2581out": 6177,
      "\u2581ket": 6178,
      "ans": 6179,
      "\u2581198": 6180,
      "\u2581dir": 6181,
      "ustr": 6182,
      "hir": 6183,
      "\u2581mereka": 6184,
      "\u2581they": 6185,
      "\u2581te": 6186,
      "erti": 6187,
      "\u2581Br": 6188,
      "\u2581lebih": 6189,
      "\u2581New": 6190,
      "000": 6191,
      "old": 6192,
      "\u2581Z": 6193,
      "son": 6194,
      "ton": 6195,
      "erb": 6196,
      "\u2581orang": 6197,
      "\u2581Pranala": 6198,
      "\u2581Is": 6199,
      "\u2581mas": 6200,
      "\u2581berb": 6201,
      "\u2581le": 6202,
      "bum": 6203,
      "ition": 6204,
      "ount": 6205,
      "amil": 6206,
      "inya": 6207,
      "\u2581Bar": 6208,
      "\u2581el": 6209,
      "ited": 6210,
      "\u2581pend": 6211,
      "uat": 6212,
      "ors": 6213,
      "\u2581cons": 6214,
      "\u2581man": 6215,
      "\u2581did": 6216,
      "etap": 6217,
      "\u2581includ": 6218,
      "ia.": 6219,
      "ingga": 6220,
      "ivers": 6221,
      "ational": 6222,
      "eh": 6223,
      "ingk": 6224,
      "\u258110": 6225,
      "ern": 6226,
      "ates": 6227,
      "ood": 6228,
      "we": 6229,
      "aus": 6230,
      "\u2581Des": 6231,
      "att": 6232,
      "\u2581bar": 6233,
      "ou": 6234,
      "\u2581pertama": 6235,
      "li": 6236,
      "\u2581would": 6237,
      "aft": 6238,
      "gunakan": 6239,
      "\u2581dip": 6240,
      "\u2581time": 6241,
      "eri": 6242,
      "\u2581ev": 6243,
      "one": 6244,
      "alu": 6245,
      "ican": 6246,
      "\u2581mend": 6247,
      "way": 6248,
      "eral": 6249,
      "\u2581into": 6250,
      "ja": 6251,
      "asan": 6252,
      "ings": 6253,
      "red": 6254,
      "\u2581seorang": 6255,
      "\u2581ker": 6256,
      "wn": 6257,
      "ungan": 6258,
      "\u2581him": 6259,
      "\u2581pos": 6260,
      "ank": 6261,
      "\u2581pol": 6262,
      "\u2581other": 6263,
      "\u2581karena": 6264,
      "ever": 6265,
      "\u2581bel": 6266,
      "\u2581akan": 6267,
      "\u2581bi": 6268,
      "nya,": 6269,
      "ait": 6270,
      "sp": 6271,
      "\u2581att": 6272,
      "\u2581she": 6273,
      "\u2581Di": 6274,
      "ild": 6275,
      "apan": 6276,
      "ased": 6277,
      "ict": 6278,
      "egara": 6279,
      "orld": 6280,
      "\u2581197": 6281,
      "are": 6282,
      "\u2581comm": 6283,
      "erapa": 6284,
      "rough": 6285,
      "\u2581ind": 6286,
      "cr": 6287,
      "\u2581dr": 6288,
      "\u2581bers": 6289,
      "eberapa": 6290,
      "\u2581de": 6291,
      "\u2581en": 6292,
      "ance": 6293,
      "orn": 6294,
      "\u2581Ad": 6295,
      "ann": 6296,
      "\u2581bet": 6297,
      "ina": 6298,
      "\u2581terb": 6299,
      "ati": 6300,
      "aman": 6301,
      "res": 6302,
      "az": 6303,
      "\u258117": 6304,
      "\u2581more": 6305,
      "anyak": 6306,
      "\u2581gr": 6307,
      "able": 6308,
      "udian": 6309,
      "\u2581Tim": 6310,
      "\u2581mak": 6311,
      "air": 6312,
      "alan": 6313,
      "\u2581194": 6314,
      "ook": 6315,
      "reat": 6316,
      "\u2581secara": 6317,
      "\u25810": 6318,
      "\u2581||": 6319,
      "\u2581Or": 6320,
      "\u2581Wh": 6321,
      "\u2581work": 6322,
      "akt": 6323,
      "hes": 6324,
      "\u2581op": 6325,
      "nya.": 6326,
      "oth": 6327,
      "orth": 6328,
      "unc": 6329,
      "\u2581seperti": 6330,
      "\u2581kec": 6331,
      "\u2581196": 6332,
      "mas": 6333,
      "\u2581rem": 6334,
      "\u2581sup": 6335,
      "ism": 6336,
      "\u2581air": 6337,
      "ock": 6338,
      "ose": 6339,
      "\u2581new": 6340,
      "\u2581we": 6341,
      "\u2581album": 6342,
      "uran": 6343,
      "\u2581Ia": 6344,
      "evel": 6345,
      "ita": 6346,
      "form": 6347,
      "unan": 6348,
      "ix": 6349,
      "agi": 6350,
      "angs": 6351,
      "\u2581Me": 6352,
      "umber": 6353,
      "\u2581Tr": 6354,
      "\u2581famil": 6355,
      "\u258115": 6356,
      "\u2581dil": 6357,
      "ents": 6358,
      "\u2581Le": 6359,
      "iga": 6360,
      "ason": 6361,
      "\u2581menc": 6362,
      "\u2581spesies": 6363,
      "\u2581Pem": 6364,
      "\u2581sej": 6365,
      "\u2581besar": 6366,
      "\u2581fl": 6367,
      "\u2581when": 6368,
      "\u2581acc": 6369,
      "\u2581sem": 6370,
      "\u2581sub": 6371,
      "\u2581tak": 6372,
      "\u258112": 6373,
      "\u2581tetap": 6374,
      "\u2581game": 6375,
      "asional": 6376,
      "\u2581gro": 6377,
      "ej": 6378,
      "\u2581pemb": 6379,
      "arkan": 6380,
      "ted": 6381,
      "\u2581Mus": 6382,
      "o,": 6383,
      "angkan": 6384,
      "asil": 6385,
      "\u2581pers": 6386,
      "\u2581At": 6387,
      "\u2581Joh": 6388,
      "\u2581class": 6389,
      "enal": 6390,
      "\u2581berk": 6391,
      "ics": 6392,
      "\u2581dec": 6393,
      "ames": 6394,
      "\u2581Sept": 6395,
      "\u2581during": 6396,
      "aten": 6397,
      "iew": 6398,
      "ses": 6399,
      "an.": 6400,
      "ween": 6401,
      "\u2581cent": 6402,
      "\u2581sur": 6403,
      "ered": 6404,
      "\u2581/": 6405,
      "\u2581min": 6406,
      "outh": 6407,
      "\u258116": 6408,
      "\u2581exp": 6409,
      "\u2581again": 6410,
      "201": 6411,
      "ts": 6412,
      "\u2581Amerika": 6413,
      "\u2581most": 6414,
      "\u2581met": 6415,
      "\u2581September": 6416,
      "\u2581kemudian": 6417,
      "ool": 6418,
      "awa": 6419,
      "\u2581&": 6420,
      "udi": 6421,
      "\u2581them": 6422,
      "\u2581Gr": 6423,
      "ikat": 6424,
      "hip": 6425,
      "\u2581ear": 6426,
      "ife": 6427,
      "ollow": 6428,
      "\u2581ep": 6429,
      "\u2581beg": 6430,
      "\u2581only": 6431,
      "\u2581am": 6432,
      "ia,": 6433,
      "\u2581saat": 6434,
      "ular": 6435,
      "\u2581inter": 6436,
      "\u2581Pen": 6437,
      "gan": 6438,
      "\u2581Film": 6439,
      "iel": 6440,
      "\u2581Ag": 6441,
      "\u2581me": 6442,
      "\u2581about": 6443,
      "\u2581kn": 6444,
      "rist": 6445,
      "\u2581beberapa": 6446,
      "\u2581tangg": 6447,
      "\u2581Univers": 6448,
      "ph": 6449,
      "\u2581reg": 6450,
      "\u2581imp": 6451,
      "\u2581between": 6452,
      "ayah": 6453,
      "inc": 6454,
      "\u2581Pl": 6455,
      "\u2581ret": 6456,
      "itar": 6457,
      "entuk": 6458,
      "\u2581than": 6459,
      "\u2581bu": 6460,
      "\u2581Brit": 6461,
      "\u2581terd": 6462,
      "\u2581po": 6463,
      "aga": 6464,
      "ins": 6465,
      "=\"": 6466,
      "oid": 6467,
      "\u2581Cl": 6468,
      "idup": 6469,
      "\u2581mat": 6470,
      "\u2581ut": 6471,
      "\u2581song": 6472,
      "\u2581co": 6473,
      "\u2581later": 6474,
      "rans": 6475,
      "erman": 6476,
      "\u2581195": 6477,
      "\u2581qu": 6478,
      "\u2581Ac": 6479,
      "erah": 6480,
      "ilayah": 6481,
      "ash": 6482,
      "\u2581three": 6483,
      "\u2581end": 6484,
      "\u2581Col": 6485,
      "\u258111": 6486,
      "ulai": 6487,
      "\u2581ked": 6488,
      "\u2581dep": 6489,
      "agu": 6490,
      "erint": 6491,
      "ected": 6492,
      "ision": 6493,
      "aik": 6494,
      "\u2581form": 6495,
      "abup": 6496,
      "erg": 6497,
      "abupaten": 6498,
      "ident": 6499,
      "\u2581John": 6500,
      "awan": 6501,
      "\u2581through": 6502,
      "ike": 6503,
      "ros": 6504,
      "\u2581Ang": 6505,
      "\u2581ada": 6506,
      "\u2581II": 6507,
      "idae": 6508,
      "\u2581Bl": 6509,
      "\u2581mil": 6510,
      "ale": 6511,
      "ll": 6512,
      "\u2581pop": 6513,
      "istr": 6514,
      "ulis": 6515,
      "\u2581setelah": 6516,
      "ima": 6517,
      "\u2581prov": 6518,
      "\u2581Jul": 6519,
      "\u2581publ": 6520,
      "yc": 6521,
      "\u2581mod": 6522,
      "erta": 6523,
      "eop": 6524,
      "u,": 6525,
      "aja": 6526,
      "akukan": 6527,
      "o.": 6528,
      "\u2581bert": 6529,
      "ks": 6530,
      "\u2581so": 6531,
      "ays": 6532,
      "\u2581do": 6533,
      "omb": 6534,
      "\u2581antara": 6535,
      "\u2581salah": 6536,
      "uhan": 6537,
      "\u2581Jan": 6538,
      "\u2581def": 6539,
      "\u2581high": 6540,
      "\u2581epis": 6541,
      "\u2581while": 6542,
      "ex": 6543,
      "min": 6544,
      "arah": 6545,
      "\u2581mon": 6546,
      "fore": 6547,
      "ium": 6548,
      "ang.": 6549,
      "\u2581rele": 6550,
      "\u2581War": 6551,
      "\u2581Ab": 6552,
      "ious": 6553,
      "\u2581Jun": 6554,
      "\u2581produc": 6555,
      "\u2581ass": 6556,
      "\u2581bl": 6557,
      "\u2581kes": 6558,
      "umum": 6559,
      "\u2581char": 6560,
      "\u2581put": 6561,
      "\u2581rev": 6562,
      "\u2581Sc": 6563,
      "ris": 6564,
      "\u2581war": 6565,
      "ath": 6566,
      "amatan": 6567,
      "ump": 6568,
      "ikut": 6569,
      "ampai": 6570,
      "\u258113": 6571,
      "tob": 6572,
      "\u2581Car": 6573,
      "\u2581banyak": 6574,
      "\u2581mengh": 6575,
      "ogr": 6576,
      "iet": 6577,
      "\u2581tel": 6578,
      "\u2581art": 6579,
      "\u2581Nov": 6580,
      "ished": 6581,
      "wal": 6582,
      "port": 6583,
      "\u2581sy": 6584,
      "ived": 6585,
      "\u2581pres": 6586,
      "\u2581dua": 6587,
      "\u2581Peng": 6588,
      "\u2581record": 6589,
      "\u2581peny": 6590,
      "\u2581second": 6591,
      "tober": 6592,
      "ulan": 6593,
      "elum": 6594,
      "\u2581000": 6595,
      "ury": 6596,
      "\u2581pre": 6597,
      "ayu": 6598,
      "ola": 6599,
      "\u2581\u2014": 6600,
      "\u25812000": 6601,
      "\u2581no": 6602,
      "\u2581sing": 6603,
      "\u258114": 6604,
      "\u2581where": 6605,
      "\u2581kota": 6606,
      "tor": 6607,
      "\u2581made": 6608,
      "\u2581pel": 6609,
      "\u2581Q": 6610,
      "urr": 6611,
      "cess": 6612,
      "\u2581spec": 6613,
      "\u2581atas": 6614,
      "aut": 6615,
      "ten": 6616,
      "\u2581season": 6617,
      "ating": 6618,
      "\u2581Austr": 6619,
      "hy": 6620,
      "\u2581ref": 6621,
      "tur": 6622,
      "eks": 6623,
      "\u2581four": 6624,
      "\u258125": 6625,
      "ower": 6626,
      "\u2581writ": 6627,
      "\u2581follow": 6628,
      "als": 6629,
      "arak": 6630,
      "\u2581Am": 6631,
      "era": 6632,
      "enn": 6633,
      "\u2581such": 6634,
      "ingkat": 6635,
      "\u2581ob": 6636,
      "\u2581Serikat": 6637,
      "ific": 6638,
      "\u2581Kabupaten": 6639,
      "\u2581inv": 6640,
      "ting": 6641,
      "\u2581under": 6642,
      "\u2581some": 6643,
      "\u2581hingga": 6644,
      "ebr": 6645,
      "\u2581tanggal": 6646,
      "\u2581negara": 6647,
      "\u2581before": 6648,
      "do": 6649,
      "erv": 6650,
      "\u2581United": 6651,
      "onom": 6652,
      "ied": 6653,
      "anding": 6654,
      "aki": 6655,
      "uas": 6656,
      "\u2581This": 6657,
      "ula": 6658,
      "ained": 6659,
      "\u2581ke-": 6660,
      "\u2581years": 6661,
      "\u2581wilayah": 6662,
      "ren": 6663,
      "unya": 6664,
      "200": 6665,
      "\u2581Pol": 6666,
      "omm": 6667,
      "\u25812011": 6668,
      "\u2581there": 6669,
      "aks": 6670,
      "\u2581(201": 6671,
      "ley": 6672,
      "unia": 6673,
      "iter": 6674,
      "\u2581ent": 6675,
      "\u2581team": 6676,
      "\u2581bahasa": 6677,
      "ang,": 6678,
      "inn": 6679,
      "ron": 6680,
      "ines": 6681,
      "\u2581mov": 6682,
      "ech": 6683,
      "\u2581193": 6684,
      "\u2581kepada": 6685,
      "ise": 6686,
      "\u2581kali": 6687,
      "\u2581med": 6688,
      "\u2581Bel": 6689,
      "eter": 6690,
      "\u2581serv": 6691,
      "a-": 6692,
      "\u2581nam": 6693,
      "\u2581hal": 6694,
      "\u2581tetapi": 6695,
      "\u2581Jep": 6696,
      "\u2581Par": 6697,
      "\u25812012": 6698,
      "\u2581call": 6699,
      "\u25812009": 6700,
      "\u2581Eng": 6701,
      "\u2581Fran": 6702,
      "\u2581Man": 6703,
      "\u2581da": 6704,
      "\u2581tent": 6705,
      "\u2581nama": 6706,
      "uku": 6707,
      "its": 6708,
      "\u2581used": 6709,
      "pril": 6710,
      "engah": 6711,
      "owever": 6712,
      "\u2581para": 6713,
      "usah": 6714,
      "kin": 6715,
      "evelop": 6716,
      "\u2581episode": 6717,
      "uary": 6718,
      "\u2581member": 6719,
      "ection": 6720,
      "\u2581American": 6721,
      "\u2581can": 6722,
      "\u2581April": 6723,
      "ute": 6724,
      "unj": 6725,
      "ier": 6726,
      "\u2581being": 6727,
      "umlah": 6728,
      "\u2581Set": 6729,
      "\u2581sed": 6730,
      "aftar": 6731,
      "\u2581World": 6732,
      "\u2581km": 6733,
      "isa": 6734,
      "na": 6735,
      "\u2581Har": 6736,
      "\u2581Ber": 6737,
      "\u2581loc": 6738,
      "other": 6739,
      "\u2581November": 6740,
      "very": 6741,
      "duk": 6742,
      "\u2581against": 6743,
      "\u2581then": 6744,
      "\u2581sang": 6745,
      "\u2581tingg": 6746,
      "\u2581After": 6747,
      "\u2581par": 6748,
      "\u2581Seb": 6749,
      "\u2581send": 6750,
      "ince": 6751,
      "\u2581Kar": 6752,
      "ird": 6753,
      "ilih": 6754,
      "\u258124": 6755,
      "\u2581She": 6756,
      "\u2581Re": 6757,
      "..": 6758,
      "\u2581Ed": 6759,
      "\u2581br": 6760,
      "\u2581Ph": 6761,
      "imal": 6762,
      "\u2581oper": 6763,
      "asanya": 6764,
      "ator": 6765,
      "\u2581For": 6766,
      "uch": 6767,
      "\u2581digunakan": 6768,
      "ica": 6769,
      "\u2581X": 6770,
      "\u2581number": 6771,
      "chool": 6772,
      "yp": 6773,
      "\u2581vers": 6774,
      "\u2581Con": 6775,
      "\u2581ed": 6776,
      "ars": 6777,
      "\u2581found": 6778,
      "led": 6779,
      "dom": 6780,
      "\u2581angg": 6781,
      "anda": 6782,
      "\u2581pas": 6783,
      "\u2581sever": 6784,
      "\u2581genus": 6785,
      "\u2581kayu": 6786,
      "\u2581York": 6787,
      "ield": 6788,
      "adap": 6789,
      "\u2581dim": 6790,
      "\".": 6791,
      "\u2581yait": 6792,
      "ij": 6793,
      "\u2581inf": 6794,
      "\u2581Rom": 6795,
      "\u2581El": 6796,
      "\u2581Ak": 6797,
      "\u2581cap": 6798,
      "\u2581including": 6799,
      "\u2581show": 6800,
      "ause": 6801,
      "ities": 6802,
      "overn": 6803,
      "\u2581both": 6804,
      "\u2581back": 6805,
      "olah": 6806,
      "\u2581well": 6807,
      "\u2581sebelum": 6808,
      "\u2581final": 6809,
      "\u2581add": 6810,
      "\u2581became": 6811,
      "\u2581dia": 6812,
      "iam": 6813,
      "\u2581series": 6814,
      "\u2581yaitu": 6815,
      "\u2581serta": 6816,
      "teroid": 6817,
      "\u2581Str": 6818,
      "\u2581memp": 6819,
      "akil": 6820,
      "\u2581Austral": 6821,
      "\u2581main": 6822,
      "\u2581umum": 6823,
      "\u2581Mal": 6824,
      "anjang": 6825,
      "ised": 6826,
      "\u2581And": 6827,
      "ui": 6828,
      "gram": 6829,
      "olong": 6830,
      "emen": 6831,
      "\u2581trans": 6832,
      "ikasi": 6833,
      "\u2581im": 6834,
      "\u2581polit": 6835,
      "\u2581keb": 6836,
      "ire": 6837,
      "ulau": 6838,
      "asih": 6839,
      "\u2581kemb": 6840,
      "\u2581famili": 6841,
      "\u2581Intern": 6842,
      "is,": 6843,
      "oot": 6844,
      "usia": 6845,
      "-s": 6846,
      "ets": 6847,
      "\u2581tan": 6848,
      "utan": 6849,
      "lin": 6850,
      "\u2581US": 6851,
      "\u2581har": 6852,
      "\u2581Selatan": 6853,
      "\u2581lead": 6854,
      "\u2581Ge": 6855,
      "\u2581akhir": 6856,
      "\u2581Indonesia.": 6857,
      "iver": 6858,
      "\u2581sen": 6859,
      "ative": 6860,
      "umah": 6861,
      "\u2581long": 6862,
      "\u2581hanya": 6863,
      "at,": 6864,
      "ures": 6865,
      "\u2581terg": 6866,
      "\u25812010": 6867,
      "\u2581May": 6868,
      "iap": 6869,
      "arang": 6870,
      "\u2581Dr": 6871,
      "\u2581Se": 6872,
      "\u2581Spesies": 6873,
      "omin": 6874,
      "\u2581conc": 6875,
      "\u2581dem": 6876,
      "\u2581terj": 6877,
      "\u2581tempat": 6878,
      "\u2581Ut": 6879,
      "\u2581Dalam": 6880,
      "\u2581desa": 6881,
      "\u2581biasanya": 6882,
      "\u2581ship": 6883,
      "\u2581selama": 6884,
      "\u2581191": 6885,
      "\u2581car": 6886,
      "\u258130": 6887,
      "\u2581kom": 6888,
      "yah": 6889,
      "\u2581suc": 6890,
      "ull": 6891,
      "my": 6892,
      "uari": 6893,
      "\u2581ordo": 6894,
      "by": 6895,
      "fer": 6896,
      "\u2581appear": 6897,
      "ral": 6898,
      "\u2581develop": 6899,
      "aling": 6900,
      "\u25812008": 6901,
      "itus": 6902,
      "arge": 6903,
      "awah": 6904,
      "ope": 6905,
      "\u2581ins": 6906,
      "\u2581may": 6907,
      "\u2581awal": 6908,
      "\u2581sekitar": 6909,
      "ject": 6910,
      "ouse": 6911,
      "uduk": 6912,
      "\u2581terk": 6913,
      "\u2581sign": 6914,
      "\u2581many": 6915,
      "\u2581$": 6916,
      "insi": 6917,
      "\u2581seh": 6918,
      "els": 6919,
      "udah": 6920,
      "\u2581sama": 6921,
      "\u2581kelas": 6922,
      "\u2581Rep": 6923,
      "eker": 6924,
      "ingdom": 6925,
      "\u2581Min": 6926,
      "\u2581berd": 6927,
      "\u2581go": 6928,
      "\u2581cr": 6929,
      "ax": 6930,
      "\u2581contin": 6931,
      "masuk": 6932,
      "\u2581bro": 6933,
      "ett": 6934,
      "\u2581menggunakan": 6935,
      "\u2581run": 6936,
      "-k": 6937,
      "\u2581cre": 6938,
      "ck": 6939,
      "ped": 6940,
      "\u2581Men": 6941,
      "\u2581orig": 6942,
      "\u2581hidup": 6943,
      "\u2581kembali": 6944,
      "fr": 6945,
      "\u2581bersama": 6946,
      "\u2581terh": 6947,
      "\u2581Kep": 6948,
      "imb": 6949,
      "\u2581Ing": 6950,
      "\u2581could": 6951,
      "ces": 6952,
      "\u2581rece": 6953,
      "though": 6954,
      "truc": 6955,
      "lam": 6956,
      "\u2581Febr": 6957,
      "\u2581anak": 6958,
      "\u2581mill": 6959,
      "ideo": 6960,
      "rov": 6961,
      "wan": 6962,
      "\u2581disebut": 6963,
      "ilis": 6964,
      "\u25812007": 6965,
      "\u2581[": 6966,
      "ross": 6967,
      "uruh": 6968,
      "\u2581Will": 6969,
      "\u2581pern": 6970,
      "letak": 6971,
      "ales": 6972,
      "\u2581organ": 6973,
      "\u2581est": 6974,
      "atakan": 6975,
      "eed": 6976,
      "ox": 6977,
      "\u2581Air": 6978,
      "\u2581class=\"": 6979,
      "akart": 6980,
      "ori": 6981,
      "ove": 6982,
      "\u2581several": 6983,
      "\u2581Sy": 6984,
      "mp": 6985,
      "\u2581Desa": 6986,
      "\u2581known": 6987,
      "\u2581maj": 6988,
      "u.": 6989,
      "\u2581diff": 6990,
      "wards": 6991,
      "\u2581pemerint": 6992,
      "\u2581fr": 6993,
      "\u2581sm": 6994,
      "ather": 6995,
      "\u2581sangat": 6996,
      "\u2581telev": 6997,
      "\u2581()": 6998,
      "impin": 6999,
      "\u2581Mer": 7000,
      "\u2581itu,": 7001,
      "\u2581Ter": 7002,
      "\u2581Kota": 7003,
      "cis": 7004,
      "usahaan": 7005,
      "oin": 7006,
      "ange": 7007,
      "\u2581membuat": 7008,
      "\u2581ses": 7009,
      "istory": 7010,
      "\u2581act": 7011,
      "\u2581terletak": 7012,
      "\u2581Gu": 7013,
      "alat": 7014,
      "alui": 7015,
      "eople": 7016,
      "\u2581sampai": 7017,
      "\u2581fil": 7018,
      "\u2581dikenal": 7019,
      "ne": 7020,
      "\u2581said": 7021,
      "ually": 7022,
      "\u2581pass": 7023,
      "\u2581anggota": 7024,
      "lor": 7025,
      "pos": 7026,
      "for": 7027,
      "ahkan": 7028,
      "cc": 7029,
      "iev": 7030,
      "eran": 7031,
      "\u2581berh": 7032,
      "\u2581resp": 7033,
      "\u2581near": 7034,
      "\u2581col": 7035,
      "ime": 7036,
      "\u2581began": 7037,
      "ains": 7038,
      "uss": 7039,
      "\u2581Gen": 7040,
      "\u2581offic": 7041,
      "\u2581any": 7042,
      "21": 7043,
      "ued": 7044,
      "\u2581design": 7045,
      "\u2581feat": 7046,
      "atal": 7047,
      "stem": 7048,
      "\u2581Dia": 7049,
      "asal": 7050,
      "\u2581peri": 7051,
      "\u2581descr": 7052,
      "\u2581early": 7053,
      "atur": 7054,
      "\u2581hari": 7055,
      "\u2581Tok": 7056,
      "\u2581berada": 7057,
      "aul": 7058,
      "ior": 7059,
      "\u2581lagu": 7060,
      "\u2581Inggr": 7061,
      "\u2581perm": 7062,
      "\u2581day": 7063,
      "\u2581diper": 7064,
      "ution": 7065,
      "\u2581Aug": 7066,
      "mi": 7067,
      "iran": 7068,
      "\u2581down": 7069,
      "\u2581return": 7070,
      "vent": 7071,
      "ask": 7072,
      "ounty": 7073,
      "ahasa": 7074,
      "\u2581sl": 7075,
      "\u2581called": 7076,
      "\u2581sk": 7077,
      "\u2581tert": 7078,
      "urut": 7079,
      "itt": 7080,
      "\u2581SM": 7081,
      "ake": 7082,
      "\u2581British": 7083,
      "unt": 7084,
      "\u2581band": 7085,
      "acter": 7086,
      "\u2581sendiri": 7087,
      "\u2581eff": 7088,
      "\u2581(1": 7089,
      "ani": 7090,
      "uang": 7091,
      "\u2581tergolong": 7092,
      "\u2581Sek": 7093,
      "ink": 7094,
      "\u2581own": 7095,
      "\u2581tentang": 7096,
      "ists": 7097,
      "ner": 7098,
      "ital": 7099,
      "\u2581Gre": 7100,
      "\u2581Pres": 7101,
      "uka": 7102,
      "usan": 7103,
      "umbang": 7104,
      "\u2581August": 7105,
      "\u2581States": 7106,
      "\u2581pes": 7107,
      "\u2581group": 7108,
      "\u2581(200": 7109,
      "\u2581berp": 7110,
      "\u2581until": 7111,
      "\u2581masa": 7112,
      "eet": 7113,
      "\u2581Ap": 7114,
      "io": 7115,
      "\u2581bat": 7116,
      "\u2581music": 7117,
      "\u2581Pers": 7118,
      "ful": 7119,
      "\u25812006": 7120,
      "enis": 7121,
      "\u2581dig": 7122,
      "ampil": 7123,
      "\u2581popul": 7124,
      "\u2581Mc": 7125,
      "iden": 7126,
      "ially": 7127,
      "esk": 7128,
      "\u2581Ke": 7129,
      "\u2581All": 7130,
      "\u2581Part": 7131,
      "\u2581released": 7132,
      "ided": 7133,
      "0s": 7134,
      "ven": 7135,
      "idae.": 7136,
      "\u2581coun": 7137,
      "\u2581disc": 7138,
      "anan": 7139,
      "\u2581melalui": 7140,
      "\u2581Cent": 7141,
      "-b": 7142,
      "\u2581Ket": 7143,
      "isasi": 7144,
      "\u2581bulan": 7145,
      "idge": 7146,
      "\u2581mulai": 7147,
      "ible": 7148,
      "ologi": 7149,
      "\u2581Daftar": 7150,
      "at.": 7151,
      "\u258121": 7152,
      "urg": 7153,
      "\u2581Bro": 7154,
      "\u2581these": 7155,
      "ebab": 7156,
      "\u2581Comm": 7157,
      "\u2581Ir": 7158,
      "uth": 7159,
      "atkan": 7160,
      "\u2581crit": 7161,
      "\u2581Timur": 7162,
      "\u2581terhadap": 7163,
      "\u2581Kom": 7164,
      "aim": 7165,
      "\u2581termasuk": 7166,
      "\u2581Mei": 7167,
      "\u2581asteroid": 7168,
      "\u2581along": 7169,
      "\u2581Rob": 7170,
      "\u2581ketika": 7171,
      "\u2581inst": 7172,
      "\u2581Christ": 7173,
      "\u2581open": 7174,
      "elf": 7175,
      "iah": 7176,
      "\u2581area": 7177,
      "\u2581baru": 7178,
      "ended": 7179,
      "uda": 7180,
      "engg": 7181,
      "\u2581kedua": 7182,
      "yarak": 7183,
      "aktu": 7184,
      "idikan": 7185,
      "-1": 7186,
      "\u2581fin": 7187,
      "pl": 7188,
      "\u2581del": 7189,
      "\u2581Setelah": 7190,
      "\u2581berm": 7191,
      "ni": 7192,
      "\u2581Ins": 7193,
      "\u2581million": 7194,
      "\u25812013": 7195,
      "\u2581berg": 7196,
      "\u2581govern": 7197,
      "\u2581North": 7198,
      "\u2581kek": 7199,
      "\u2581Cer": 7200,
      "\u2581Jepang": 7201,
      "aris": 7202,
      "\u2581keluar": 7203,
      "\u2581intern": 7204,
      "iong": 7205,
      "istem": 7206,
      "e,": 7207,
      "\u2581Nam": 7208,
      "\u2581Kec": 7209,
      "\u2581Can": 7210,
      "\u2581Sur": 7211,
      "ival": 7212,
      "\u2581plan": 7213,
      "\u2581original": 7214,
      "\u2581point": 7215,
      "\u2581utama": 7216,
      "\u2581komp": 7217,
      "\u2581trad": 7218,
      "\u2581Ok": 7219,
      "ini": 7220,
      "ementara": 7221,
      "\u2581z": 7222,
      "'s": 7223,
      "\u2581memper": 7224,
      "ced": 7225,
      "\u2581support": 7226,
      "aining": 7227,
      "ently": 7228,
      "\u2581tit": 7229,
      "\u2581start": 7230,
      "\u2581people": 7231,
      "emukan": 7232,
      "\u2581same": 7233,
      "\u2581berj": 7234,
      "try": 7235,
      "eth": 7236,
      "\u2581describ": 7237,
      "ungkin": 7238,
      "\u2581land": 7239,
      "\u2581berl": 7240,
      "\u2581Dec": 7241,
      "ired": 7242,
      "\u2581rumah": 7243,
      "\u2581Med": 7244,
      "tions": 7245,
      "rol": 7246,
      "ott": 7247,
      "ing,": 7248,
      "ally": 7249,
      "\u2581occ": 7250,
      "\u2581leg": 7251,
      ".M": 7252,
      "\u2581bawah": 7253,
      "lu": 7254,
      "\u2581vari": 7255,
      "\u2581masih": 7256,
      "urch": 7257,
      "\u2581sehingga": 7258,
      "\u2581Arth": 7259,
      "med": 7260,
      "aced": 7261,
      "egeri": 7262,
      "erbit": 7263,
      "\u2581success": 7264,
      "\u2581sejak": 7265,
      "\u258122": 7266,
      "lish": 7267,
      "\u2581world": 7268,
      "men": 7269,
      "\u2581though": 7270,
      "ga": 7271,
      "AN": 7272,
      "\u2581daerah": 7273,
      "\u2581ilm": 7274,
      "ograp": 7275,
      "\u2581character": 7276,
      "\u2581use": 7277,
      "ress": 7278,
      "ats": 7279,
      "\u2581arr": 7280,
      "\u2581Inggris": 7281,
      "\u25812014": 7282,
      "\u2581Tiong": 7283,
      "\u2581100": 7284,
      "\u2581Sw": 7285,
      "ys": 7286,
      "\u2581attack": 7287,
      "ling": 7288,
      "ives": 7289,
      "oss": 7290,
      "\u2581Oc": 7291,
      "eath": 7292,
      "round": 7293,
      "\u2581Sen": 7294,
      "\u2581berasal": 7295,
      "\u25812015": 7296,
      "oard": 7297,
      "\u2581Kel": 7298,
      "duksi": 7299,
      "\u2581batt": 7300,
      "22": 7301,
      "uara": 7302,
      "\u2581Kore": 7303,
      "ians": 7304,
      "ony": 7305,
      "\u2581around": 7306,
      "asar": 7307,
      "\u2581Nor": 7308,
      "\u2581north": 7309,
      "ission": 7310,
      "\u2581video": 7311,
      "\u2581Jawa": 7312,
      "\u2581Republ": 7313,
      "ebabkan": 7314,
      "\u2581Ital": 7315,
      "orp": 7316,
      "\u2581University": 7317,
      "\u258123": 7318,
      "\u2581gu": 7319,
      "yle": 7320,
      "eta": 7321,
      "\u2581musik": 7322,
      "\u2581single": 7323,
      "\u2581dat": 7324,
      "\u2581Comp": 7325,
      "\u2581because": 7326,
      "\u2581bagi": 7327,
      "\u2581kh": 7328,
      "\u2581div": 7329,
      "akhir": 7330,
      "ister": 7331,
      "\u2581gun": 7332,
      "\u2581mag": 7333,
      "ania": 7334,
      "ility": 7335,
      "\u2581Pemb": 7336,
      "\u2581mengg": 7337,
      "\u2581century": 7338,
      "ler": 7339,
      "\u2581took": 7340,
      "\u2581Be": 7341,
      "\u2581six": 7342,
      "\u2581mendapat": 7343,
      "\u2581Eur": 7344,
      "\u2581like": 7345,
      "\u2581top": 7346,
      "\u2581prof": 7347,
      "\u2581result": 7348,
      "\u2581Mas": 7349,
      "olv": 7350,
      "aur": 7351,
      "row": 7352,
      "\u2581%": 7353,
      "\u2581report": 7354,
      "ried": 7355,
      "\u2581Jerman": 7356,
      "\u2581Geor": 7357,
      "abat": 7358,
      "\u2581Japan": 7359,
      "\u2581Prov": 7360,
      "aving": 7361,
      "\u2581kumbang": 7362,
      "\u2581following": 7363,
      "\u2581consid": 7364,
      "\u2581turn": 7365,
      "\u2581five": 7366,
      "\u2581merek": 7367,
      "\u25812005": 7368,
      "\u2581South": 7369,
      "app": 7370,
      "upun": 7371,
      "yr": 7372,
      "\u2581...": 7373,
      "ingan": 7374,
      "\u2581De": 7375,
      "\u2581They": 7376,
      "\u2581ann": 7377,
      "ma": 7378,
      "oon": 7379,
      "yat": 7380,
      "\u2581bisa": 7381,
      "\u2581kingdom": 7382,
      "\u2581complet": 7383,
      "\u2581Pert": 7384,
      "ugg": 7385,
      "hel": 7386,
      "\u2581County": 7387,
      "\u2581Ker": 7388,
      "\u2581Char": 7389,
      "\u2581However": 7390,
      "ants": 7391,
      "\u2581William": 7392,
      "\u2581build": 7393,
      "\u2581received": 7394,
      "ote": 7395,
      "ensi": 7396,
      "\u2581Sa": 7397,
      "ilt": 7398,
      "ized": 7399,
      "\u2581bola": 7400,
      "uru": 7401,
      "\u2581June": 7402,
      "asarkan": 7403,
      "\u2581head": 7404,
      "\u2581small": 7405,
      "ements": 7406,
      "ekn": 7407,
      "\u2581red": 7408,
      "uck": 7409,
      "usat": 7410,
      "lex": 7411,
      "ubah": 7412,
      "\u2581]": 7413,
      "\u2581October": 7414,
      "\u2581program": 7415,
      "iving": 7416,
      "\u2581Mich": 7417,
      "\u2581state": 7418,
      "atif": 7419,
      "ipt": 7420,
      "\u2581prot": 7421,
      "trib": 7422,
      "\u2581melakukan": 7423,
      "\u2581Utara": 7424,
      "\u2581kon": 7425,
      "of": 7426,
      "\u2581city": 7427,
      "\u2581each": 7428,
      "\u2581life": 7429,
      "irikan": 7430,
      "\",": 7431,
      "rad": 7432,
      ".S": 7433,
      "ording": 7434,
      "\u2581em": 7435,
      "\u2581pernah": 7436,
      "\u2581stud": 7437,
      "ecies": 7438,
      "\u2581kons": 7439,
      "\u2581berbagai": 7440,
      "\u2581Ex": 7441,
      "\u2581public": 7442,
      "us,": 7443,
      "inggal": 7444,
      "eph": 7445,
      "\u2581waktu": 7446,
      "\u2581terjadi": 7447,
      "usi": 7448,
      "ford": 7449,
      "\u2581National": 7450,
      "ext": 7451,
      "eft": 7452,
      "ically": 7453,
      "angunan": 7454,
      "\u2581ph": 7455,
      "ient": 7456,
      "line": 7457,
      "\u2581Dan": 7458,
      "un,": 7459,
      "\u2581abad": 7460,
      "\u2581Sing": 7461,
      "uman": 7462,
      "\u2581coll": 7463,
      "\u2581partic": 7464,
      "\u2581ini,": 7465,
      "ague": 7466,
      "\u2581190": 7467,
      "ret": 7468,
      "\u25812004": 7469,
      "-p": 7470,
      "\u2581Cal": 7471,
      "yarakat": 7472,
      "\u2581will": 7473,
      "anjut": 7474,
      "\u2581system": 7475,
      "\u2581kecil": 7476,
      "\u2581Ro": 7477,
      "\u2581July": 7478,
      "eum": 7479,
      "\u2581tiga": 7480,
      "\u2581Animal": 7481,
      "\u2581Pend": 7482,
      "ondon": 7483,
      "\u2581musim": 7484,
      "ateg": 7485,
      "\u2581person": 7486,
      "\u2581(P": 7487,
      "\u2581March": 7488,
      "ately": 7489,
      "\u2581Sec": 7490,
      "\u2581hel": 7491,
      "-l": 7492,
      "\u2581since": 7493,
      "eal": 7494,
      "\u2581Dav": 7495,
      "oint": 7496,
      "\u2581Kh": 7497,
      "ney": 7498,
      "angkat": 7499,
      "udara": 7500,
      "\u2581bern": 7501,
      "aka": 7502,
      "\u2581(d": 7503,
      "\u2581Universitas": 7504,
      "\u2581By": 7505,
      "\u2581major": 7506,
      "angi": 7507,
      "ues": 7508,
      "\u2581Res": 7509,
      "\u2581kl": 7510,
      "ereja": 7511,
      "erbitkan": 7512,
      "\u2581mana": 7513,
      "asis": 7514,
      "aku": 7515,
      "\u2581Band": 7516,
      "unjuk": 7517,
      "\u2581paling": 7518,
      "ami": 7519,
      "\u2581la": 7520,
      "\u2581es": 7521,
      "\u2581dih": 7522,
      "\u2581Mel": 7523,
      "\u258127": 7524,
      "\u2581filum": 7525,
      "nd": 7526,
      "\u2581perusahaan": 7527,
      "\u2581Afr": 7528,
      "angsung": 7529,
      "\u2581ek": 7530,
      "\u2581(199": 7531,
      "\u2581sepak": 7532,
      "\u2581London": 7533,
      "akarta": 7534,
      "\u2581adv": 7535,
      "\u2581kap": 7536,
      "\u2581sudah": 7537,
      "tain": 7538,
      "\u2581last": 7539,
      "\u2581suatu": 7540,
      "\u2581City": 7541,
      "\u2581Animalia.": 7542,
      "\u2581din": 7543,
      "\u2581terdiri": 7544,
      "\u2581tot": 7545,
      "\u2581penduduk": 7546,
      "\u2581mar": 7547,
      "\u2581terl": 7548,
      "engk": 7549,
      "yl": 7550,
      "\u2581Sum": 7551,
      "ages": 7552,
      "\u2581book": 7553,
      "\u2581school": 7554,
      "ha": 7555,
      "erm": 7556,
      "\u2581order": 7557,
      "ides": 7558,
      "sk": 7559,
      "\u2581192": 7560,
      "\u2581ib": 7561,
      "-t": 7562,
      "\u2581left": 7563,
      "ored": 7564,
      "stit": 7565,
      "asikan": 7566,
      "\u2581line": 7567,
      "ty": 7568,
      "ihat": 7569,
      "oda,": 7570,
      "\u2581(S": 7571,
      "antan": 7572,
      "\u2581Oktober": 7573,
      "ompok": 7574,
      "\u2581Kecamatan": 7575,
      "oci": 7576,
      "rew": 7577,
      "\u2581prev": 7578,
      "oung": 7579,
      "\u2581direct": 7580,
      "\u2581terp": 7581,
      "ody": 7582,
      "er,": 7583,
      "isme": 7584,
      "awat": 7585,
      "\u2581December": 7586,
      "ambyc": 7587,
      "\u2581Cerambyc": 7588,
      "\u2581vis": 7589,
      "tera,": 7590,
      "aged": 7591,
      "\u2581baik": 7592,
      "\u2581Sal": 7593,
      "\u2581semua": 7594,
      "esi": 7595,
      "\u2581Nama": 7596,
      "ively": 7597,
      "\u2581Che": 7598,
      "\u2581Park": 7599,
      "\u2581G.,": 7600,
      "\u2581Insect": 7601,
      "\u2581gel": 7602,
      "\u2581Mon": 7603,
      ".M.,": 7604,
      "amm": 7605,
      "\u258128": 7606,
      "\u2581We": 7607,
      "ropoda,": 7608,
      "avy": 7609,
      "\u2581just": 7610,
      "ush": 7611,
      "\u2581(s": 7612,
      "\u2581Arthropoda,": 7613,
      "\u2581Insecta,": 7614,
      "\u258126": 7615,
      "\u2581resmi": 7616,
      "\u2581Prancis": 7617,
      "\u2581menyebabkan": 7618,
      "\u2581allow": 7619,
      "apai": 7620,
      "\u2581International": 7621,
      "ene": 7622,
      "aff": 7623,
      "\u2581kecamatan": 7624,
      "ti": 7625,
      "II": 7626,
      "\u2581Ros": 7627,
      "\u2581Hal": 7628,
      "\u2581Sej": 7629,
      "\u2581During": 7630,
      "ajaan": 7631,
      "\u2581large": 7632,
      "\u2581Rec": 7633,
      "ambil": 7634,
      "ingin": 7635,
      "\u2581dam": 7636,
      "\u2581Islam": 7637,
      "\u2581government": 7638,
      "\u2581terdapat": 7639,
      "ified": 7640,
      "atian": 7641,
      "ared": 7642,
      "adem": 7643,
      "\u2581keh": 7644,
      "atus": 7645,
      "\u2581third": 7646,
      "\u2581sim": 7647,
      "ured": 7648,
      "\u2581January": 7649,
      "\u2581189": 7650,
      "\u2581Dem": 7651,
      "\u2581dilakukan": 7652,
      "\u2581Tokoh": 7653,
      "\u2581south": 7654,
      "\u2581harus": 7655,
      "\u2581old": 7656,
      "\u2581West": 7657,
      "\u2581if": 7658,
      "\u2581When": 7659,
      "\u2581month": 7660,
      "\u2581eng": 7661,
      "\u2581differ": 7662,
      "\u2581Sup": 7663,
      "\u2581Kat": 7664,
      "\u2581due": 7665,
      "\u25812016": 7666,
      "\u2581played": 7667,
      "udd": 7668,
      "asiun": 7669,
      "istor": 7670,
      "eak": 7671,
      "\u2581short": 7672,
      "ar,": 7673,
      "rote": 7674,
      "angun": 7675,
      "\u2581conf": 7676,
      "\u2581based": 7677,
      "ham": 7678,
      "yn": 7679,
      "\u2581what": 7680,
      "\u2581perk": 7681,
      "\u2581kill": 7682,
      "\u2581\"S": 7683,
      "\u2581Kem": 7684,
      "ology": 7685,
      "ungg": 7686,
      "ungai": 7687,
      "\u2581bre": 7688,
      "\u2581panjang": 7689,
      "\u2581India": 7690,
      "\u2581another": 7691,
      "udaya": 7692,
      "\u2581Mad": 7693,
      "\u2581much": 7694,
      "\u2581incre": 7695,
      "\u2581ext": 7696,
      "idang": 7697,
      "\u2581dunia": 7698,
      "\u2581Ib": 7699,
      "ese": 7700,
      "\u2581Her": 7701,
      "ahir": 7702,
      "\u2581general": 7703,
      "\u2581sistem": 7704,
      "\u2581diri": 7705,
      "ches": 7706,
      "ington": 7707,
      "\u2581Bo": 7708,
      "\u2581Gl": 7709,
      "\u2581track": 7710,
      "\u2581event": 7711,
      "\u2581mark": 7712,
      "\u2581seluruh": 7713,
      "ubungan": 7714,
      "\u2581name": 7715,
      "\u2581Sep": 7716,
      "oph": 7717,
      "\u2581led": 7718,
      "ipun": 7719,
      "\u2581lainnya": 7720,
      "en,": 7721,
      "alk": 7722,
      "urs": 7723,
      "ament": 7724,
      "3)": 7725,
      "\u2581Provinsi": 7726,
      "rench": 7727,
      "etah": 7728,
      "ning": 7729,
      "\u2581requ": 7730,
      "\u2581German": 7731,
      "idd": 7732,
      "\u2581Er": 7733,
      "ole": 7734,
      "\u2581Ann": 7735,
      "\u2581included": 7736,
      "\u2581web": 7737,
      "ilar": 7738,
      "\u2581asal": 7739,
      "ilah": 7740,
      "com": 7741,
      "\u2581won": 7742,
      "\u2581death": 7743,
      "\u2581Pal": 7744,
      "ik,": 7745,
      "\u2581total": 7746,
      "\u2581larg": 7747,
      "\u25812001": 7748,
      "\u2581dek": 7749,
      "\u2581care": 7750,
      "\u2581His": 7751,
      "kok": 7752,
      "ida": 7753,
      "ukum": 7754,
      "harg": 7755,
      "\u2581wrote": 7756,
      "\u2581Te": 7757,
      "\u2581power": 7758,
      "\u2581Cr": 7759,
      "\u2581story": 7760,
      "annya": 7761,
      "\u2581described": 7762,
      "\u2581Sch": 7763,
      "\u2581Dunia": 7764,
      "ature": 7765,
      "\u2581home": 7766,
      "\u2581temp": 7767,
      "\u2581Australia": 7768,
      "\u2581Soc": 7769,
      "ura": 7770,
      "\u2581dij": 7771,
      "\u2581family": 7772,
      "akit": 7773,
      "\u2581inform": 7774,
      "\u2581review": 7775,
      "\u2581masyarakat": 7776,
      "\u2581French": 7777,
      "ery": 7778,
      "\u2581Sam": 7779,
      "\u2581place": 7780,
      "ops": 7781,
      "ball": 7782,
      "\u2581Korea": 7783,
      "\u2581meninggal": 7784,
      "hargaan": 7785,
      "ense": 7786,
      "\u2581diterbitkan": 7787,
      ".000": 7788,
      "\u2581named": 7789,
      "\u2581ten": 7790,
      "va": 7791,
      "\u258129": 7792,
      "pa": 7793,
      "eda": 7794,
      "50": 7795,
      "\u258150": 7796,
      "\u2581det": 7797,
      "anggap": 7798,
      "ences": 7799,
      "\u2581Kal": 7800,
      "\u2581UK": 7801,
      "\u2581modern": 7802,
      "IS": 7803,
      "riend": 7804,
      "eskipun": 7805,
      "ee": 7806,
      "ested": 7807,
      "\u2581sementara": 7808,
      "ius": 7809,
      "\u2581televisi": 7810,
      "\u2581jumlah": 7811,
      "\u2581seg": 7812,
      "askan": 7813,
      "lo": 7814,
      "ness": 7815,
      "\u2581James": 7816,
      "\u2581karya": 7817,
      "ief": 7818,
      "\u2581tersebut.": 7819,
      ".S.": 7820,
      "iwa": 7821,
      "\u2581previous": 7822,
      "erima": 7823,
      "irk": 7824,
      "itions": 7825,
      "\u2581Phil": 7826,
      "\u2581kal": 7827,
      "\u2581attemp": 7828,
      "\u2581pemain": 7829,
      "\u2581term": 7830,
      "\u2581bernama": 7831,
      "\u2581sent": 7832,
      "\u2581now": 7833,
      "\u2581non": 7834,
      "\u2581perc": 7835,
      "\u2581Negeri": 7836,
      "\u2581cour": 7837,
      "\u2581hand": 7838,
      "abor": 7839,
      "osp": 7840,
      "ban": 7841,
      "\u2581Div": 7842,
      "ering": 7843,
      "inta": 7844,
      "\u2581Erop": 7845,
      "\u2581So": 7846,
      "\u2581Selain": 7847,
      "\u25812003": 7848,
      "s.": 7849,
      "\u2581und": 7850,
      "\u2581Ass": 7851,
      "\u2581games": 7852,
      "\u2581make": 7853,
      "\u2581't": 7854,
      "que": 7855,
      "sh": 7856,
      "urkan": 7857,
      "empuan": 7858,
      "\u2581Met": 7859,
      "ais": 7860,
      "forman": 7861,
      "\u2581Europe": 7862,
      "\u258140": 7863,
      "\u2581F.": 7864,
      "\u2581poss": 7865,
      "\u2581emp": 7866,
      "\u2581Tiongkok": 7867,
      "\u2581stand": 7868,
      "ille": 7869,
      "\u2581perform": 7870,
      "enteri": 7871,
      "itary": 7872,
      "\u2581period": 7873,
      "on,": 7874,
      "\u2581best": 7875,
      "\u2581Robert": 7876,
      "\u2581Tel": 7877,
      "\u2581hit": 7878,
      "\u2581Ear": 7879,
      "tt": 7880,
      "\u2581version": 7881,
      "\u2581Em": 7882,
      "\u2581species": 7883,
      "\u2581iss": 7884,
      "enting": 7885,
      "ached": 7886,
      "\u2581list": 7887,
      "\u2581There": 7888,
      "ily": 7889,
      "8)": 7890,
      "urther": 7891,
      "\u2581right": 7892,
      "\u2581D.": 7893,
      "adio": 7894,
      "\u2581setiap": 7895,
      "5.": 7896,
      "abung": 7897,
      "8,": 7898,
      "\u2581Agust": 7899,
      "\u2581Tengah": 7900,
      "\u2581built": 7901,
      "aian": 7902,
      "\u2581even": 7903,
      "tra": 7904,
      "\u2581pun": 7905,
      "5)": 7906,
      "iven": 7907,
      "ah,": 7908,
      "\u2581sering": 7909,
      "\u2581sold": 7910,
      "ander": 7911,
      "\u2581rest": 7912,
      "ta": 7913,
      "adang": 7914,
      "0-": 7915,
      "itional": 7916,
      "\u2581style": 7917,
      "\u2581lay": 7918,
      "\u2581Maret": 7919,
      "\u2581pat": 7920,
      "\u2581dist": 7921,
      "\u2581kur": 7922,
      "\u2581Port": 7923,
      "\u25812002": 7924,
      "\u2581those": 7925,
      "\u2581late": 7926,
      "usus": 7927,
      "\u2581Dep": 7928,
      "\u2581tinggi": 7929,
      "\u2581prom": 7930,
      "hem": 7931,
      "ipp": 7932,
      "\u2581Sk": 7933,
      "\u2581Mil": 7934,
      "\u2581Life": 7935,
      "\u2581Krist": 7936,
      "\u2581sol": 7937,
      "arga": 7938,
      "\u2581prim": 7939,
      "\u2581Desember": 7940,
      "ekerja": 7941,
      "\u2581Januari": 7942,
      "ino": 7943,
      "\u2581storm": 7944,
      "uel": 7945,
      "ael": 7946,
      "\u2581still": 7947,
      "\u2581sw": 7948,
      "\u2581very": 7949,
      "\u258131": 7950,
      "er.": 7951,
      "gn": 7952,
      "\u2581members": 7953,
      "\u2581Co": 7954,
      "\u2581makan": 7955,
      "ectr": 7956,
      "\u2581effect": 7957,
      "\u2581Dew": 7958,
      "\u2581sit": 7959,
      "\u2581view": 7960,
      "\u2581way": 7961,
      "\u2581sebagian": 7962,
      "uatan": 7963,
      "\u2581exc": 7964,
      "\u2581ini.": 7965,
      "\u2581Fl": 7966,
      "ibat": 7967,
      "uta": 7968,
      "\u2581next": 7969,
      "\u2581studi": 7970,
      "\u2581child": 7971,
      "\u2581berhasil": 7972,
      "isan": 7973,
      "\u2581town": 7974,
      "ampions": 7975,
      "\u2581although": 7976,
      "itab": 7977,
      "\u2581memberikan": 7978,
      "\u2581Batt": 7979,
      "ument": 7980,
      "\u2581February": 7981,
      "\u2581cer": 7982,
      "\u25811999": 7983,
      "\u2581within": 7984,
      "\u2581water": 7985,
      "arm": 7986,
      "\u2581Mah": 7987,
      "aksi": 7988,
      "omet": 7989,
      "ards": 7990,
      "7,": 7991,
      "\u2581One": 7992,
      "\u2581present": 7993,
      "\u2581bentuk": 7994,
      "\u2581prob": 7995,
      "\u2581High": 7996,
      "\u2581Paul": 7997,
      "7)": 7998,
      "aupun": 7999,
      "roy": 8000,
      "\u2581pet": 8001,
      "\u2581former": 8002,
      "\u2581av": 8003,
      "\u2581English": 8004,
      "\u2581debut": 8005,
      "tif": 8006,
      "atic": 8007,
      "truction": 8008,
      "estern": 8009,
      "\u2581You": 8010,
      "\u2581Nasional": 8011,
      "ograf": 8012,
      "ady": 8013,
      "as,": 8014,
      "omen": 8015,
      "\u2581estab": 8016,
      "\u2581repl": 8017,
      "ahari": 8018,
      "olik": 8019,
      "\u2581nov": 8020,
      "\u2581San": 8021,
      "\u2581Bal": 8022,
      "\u2581England": 8023,
      "ministr": 8024,
      "\u2581188": 8025,
      "ender": 8026,
      "4)": 8027,
      "\u2581Reg": 8028,
      "\u2581sekolah": 8029,
      "\u2581Perang": 8030,
      "une": 8031,
      "\u2581init": 8032,
      "8.": 8033,
      "ience": 8034,
      "\u2581Jack": 8035,
      "edia": 8036,
      "ices": 8037,
      "\u2581industr": 8038,
      "\u2581Rich": 8039,
      "ane": 8040,
      "\u2581Kon": 8041,
      "ulu": 8042,
      "\u2581held": 8043,
      "\u2581refer": 8044,
      "ittle": 8045,
      "\u2581Art": 8046,
      "\u2581Sem": 8047,
      "\u2581came": 8048,
      "6)": 8049,
      "angsa": 8050,
      "\u2581gl": 8051,
      "\u2581Roy": 8052,
      "\u2581tumb": 8053,
      "\u2581lok": 8054,
      "\u2581berikut": 8055,
      "\u2581caus": 8056,
      "\u2581days": 8057,
      "\u2581great": 8058,
      "ape": 8059,
      "\u2581dic": 8060,
      "\u2581Da": 8061,
      "\u2581conv": 8062,
      "\u2581auth": 8063,
      "\u2581TV": 8064,
      "\u2581sesu": 8065,
      "alur": 8066,
      "\u2581Lat": 8067,
      "arat": 8068,
      "abel": 8069,
      "entukan": 8070,
      "\u2581Ol": 8071,
      "ajar": 8072,
      "in,": 8073,
      "ransp": 8074,
      "\u2581perempuan": 8075,
      "eles": 8076,
      "\u2581masuk": 8077,
      "\u2581Mor": 8078,
      "get": 8079,
      "\u2581King": 8080,
      "ve": 8081,
      "antai": 8082,
      "\u2581Agustus": 8083,
      "\u2581Sm": 8084,
      "ots": 8085,
      "\u2581level": 8086,
      "atalog": 8087,
      "\u2581Im": 8088,
      "ke": 8089,
      "al,": 8090,
      "2)": 8091,
      "\u2581Rev": 8092,
      "\u2581however": 8093,
      "\u2581mengen": 8094,
      "\u2581Arab": 8095,
      "\u2581release": 8096,
      "\u2581ilmiah": 8097,
      "\u2581planet": 8098,
      "\u2581memen": 8099,
      "\u2581Acc": 8100,
      "atch": 8101,
      "\u2581few": 8102,
      "\u2581fre": 8103,
      "\u2581David": 8104,
      "\u2581real": 8105,
      "erasi": 8106,
      "ilihan": 8107,
      "\u2581tw": 8108,
      "\u2581ide": 8109,
      "\u2581With": 8110,
      "\u2581continued": 8111,
      "ened": 8112,
      "\u2581Kes": 8113,
      "irl": 8114,
      "\u2581George": 8115,
      "inning": 8116,
      "\u2581performan": 8117,
      "\u2581Juni": 8118,
      "\u2581laut": 8119,
      "osial": 8120,
      "\u2581arm": 8121,
      "\u2581L.": 8122,
      "AR": 8123,
      "\u2581Fr": 8124,
      "\u2581side": 8125,
      "7.": 8126,
      "ropical": 8127,
      "\u2581tub": 8128,
      "anti": 8129,
      "\u2581vol": 8130,
      "\u2581Barat": 8131,
      "\u2581Nic": 8132,
      "\u2581similar": 8133,
      "utrad": 8134,
      "\u2581role": 8135,
      "thers": 8136,
      "ture": 8137,
      "uf": 8138,
      "ength": 8139,
      "\u2581La": 8140,
      "\u2581politik": 8141,
      ".)": 8142,
      "uz": 8143,
      "ests": 8144,
      "\u2581typ": 8145,
      "\u2581Lalat": 8146,
      "23": 8147,
      "\u2581Pemain": 8148,
      "lim": 8149,
      "\u2581ben": 8150,
      "\u2581Dip": 8151,
      "\u2581Raja": 8152,
      "\u2581Bat": 8153,
      "\u2581Pet": 8154,
      "\u2581history": 8155,
      "\u2581kont": 8156,
      "ukup": 8157,
      "\u2581Juli": 8158,
      "umi": 8159,
      "aruh": 8160,
      "craft": 8161,
      "\u2581Put": 8162,
      "\u2581Pel": 8163,
      "\u2581Republik": 8164,
      "\u2581penj": 8165,
      "\u2581General": 8166,
      "\u2581you": 8167,
      "\u2581equ": 8168,
      "\u2581bal": 8169,
      "\u2581dirilis": 8170,
      "\u2581lap": 8171,
      "ours": 8172,
      "\u2581pemerintahan": 8173,
      "\u2581bus": 8174,
      "\u2581wind": 8175,
      "\u2581IS": 8176,
      "eman": 8177,
      "amanya": 8178,
      "irc": 8179,
      "ektur": 8180,
      "ah.": 8181,
      "co": 8182,
      "omor": 8183,
      "\u2581Dir": 8184,
      "ulang": 8185,
      "\u2581Angk": 8186,
      "aster": 8187,
      "\u2581match": 8188,
      "\u2581expl": 8189,
      "\u2581Menteri": 8190,
      "2.": 8191,
      "is.": 8192,
      "\u2581ditemukan": 8193,
      "ivid": 8194,
      "\u2581jenis": 8195,
      "uit": 8196,
      "\u2581considered": 8197,
      "tract": 8198,
      "elit": 8199,
      "osed": 8200,
      "\u2581sal": 8201,
      "orts": 8202,
      "\u2581Lar": 8203,
      "\u2581U.S.": 8204,
      "\u2581among": 8205,
      "\u2581Hol": 8206,
      "\u2581ne": 8207,
      "\u2581exper": 8208,
      "\u2581often": 8209,
      "pite": 8210,
      "uncul": 8211,
      "5,": 8212,
      "ead": 8213,
      "ar.": 8214,
      "ison": 8215,
      "60": 8216,
      "uv": 8217,
      "\u2581cover": 8218,
      "\u2581dest": 8219,
      "oleh": 8220,
      "\u2581without": 8221,
      "ila": 8222,
      "ber": 8223,
      "ukung": 8224,
      "ira": 8225,
      "\u2581East": 8226,
      "\u2581Ba": 8227,
      "udul": 8228,
      "\u2581half": 8229,
      "\u2581Mart": 8230,
      "\u2581beh": 8231,
      "\u2581akhirnya": 8232,
      "\u2581Hen": 8233,
      "\u2581Don": 8234,
      "oto": 8235,
      "api": 8236,
      "\u2581To": 8237,
      "\u2581Asia": 8238,
      "\u2581i": 8239,
      "\u2581187": 8240,
      "\u2581Wil": 8241,
      "\u2581take": 8242,
      "\u2581win": 8243,
      "-19": 8244,
      "2,": 8245,
      "10": 8246,
      "\u2581law": 8247,
      "\u2581cukup": 8248,
      "\u2581career": 8249,
      "\u2581appro": 8250,
      "\u2581Ked": 8251,
      "urrican": 8252,
      "iman": 8253,
      "\u2581claim": 8254,
      "\u2581neg": 8255,
      "\u2581terakhir": 8256,
      "embangan": 8257,
      "abase": 8258,
      "ujuan": 8259,
      "\u2581No.": 8260,
      "hern": 8261,
      "\u2581every": 8262,
      "inggi": 8263,
      "epat": 8264,
      "elt": 8265,
      "\u2581Mag": 8266,
      "\u2581Black": 8267,
      "\u2581further": 8268,
      "\u2581School": 8269,
      "ilai": 8270,
      "press": 8271,
      "\u2581moved": 8272,
      "\u2581different": 8273,
      "antu": 8274,
      "bit": 8275,
      "ean": 8276,
      "\u2581repres": 8277,
      "\u2581bermain": 8278,
      "\u2581Tur": 8279,
      "\u2581prop": 8280,
      "\u2581proses": 8281,
      "\u2581pendidikan": 8282,
      "\u2581Dis": 8283,
      "side": 8284,
      "\u2581Album": 8285,
      "\u2581Gereja": 8286,
      "\u2581foot": 8287,
      "\u2581penggun": 8288,
      "\u2581ident": 8289,
      "\u2581sebesar": 8290,
      "\u2581My": 8291,
      "\u2581sound": 8292,
      "ny": 8293,
      "roduc": 8294,
      "\u2581Bill": 8295,
      "ground": 8296,
      "\u2581(A": 8297,
      "ulit": 8298,
      "\u2581local": 8299,
      "\u2581berdasarkan": 8300,
      "\u2581Keb": 8301,
      "30": 8302,
      "IT": 8303,
      "\u2581Maj": 8304,
      "usun": 8305,
      "FA": 8306,
      "\u2581commun": 8307,
      "\u2581mass": 8308,
      "\u2581player": 8309,
      "war": 8310,
      "\u2581Ant": 8311,
      "\u2581bur": 8312,
      "loy": 8313,
      "\u2581kata": 8314,
      "\u2581respons": 8315,
      "\u2581namun": 8316,
      "\u2581Pat": 8317,
      "\u2581believ": 8318,
      "1)": 8319,
      "ories": 8320,
      "\u2581Tahun": 8321,
      "awi": 8322,
      "\u2581week": 8323,
      "\u2581Pan": 8324,
      "outhern": 8325,
      "\u2581Hind": 8326,
      "eel": 8327,
      "\u2581published": 8328,
      "unjukkan": 8329,
      "ural": 8330,
      "ifikasi": 8331,
      "ams": 8332,
      "off": 8333,
      "\u2581Sul": 8334,
      "\u2581Although": 8335,
      "\u2581cast": 8336,
      "\u2581road": 8337,
      "\u2581influ": 8338,
      "ona": 8339,
      "\u2581(B": 8340,
      "\u2581empat": 8341,
      "\u2581Kr": 8342,
      "\u2581acara": 8343,
      "anita": 8344,
      "arr": 8345,
      "\u2581History": 8346,
      "\u2581State": 8347,
      "\u2581mendapatkan": 8348,
      "list": 8349,
      "oe": 8350,
      "ords": 8351,
      "\u2581Island": 8352,
      "\u2581post": 8353,
      "\u2581lalu": 8354,
      "ik.": 8355,
      "\u2581sugg": 8356,
      "9,": 8357,
      "\u2581Michael": 8358,
      "\u2581Februari": 8359,
      "\u2581perj": 8360,
      "idupan": 8361,
      "angka": 8362,
      "ilan": 8363,
      "amin": 8364,
      "\u2581strong": 8365,
      "\u2581River": 8366,
      "\u2581written": 8367,
      "\u2581luas": 8368,
      "oman": 8369,
      "\u2581Museum": 8370,
      "itch": 8371,
      "\u2581aff": 8372,
      "\u2581Jos": 8373,
      "\u2581pan": 8374,
      "\u2581mm": 8375,
      "ency": 8376,
      "\u2581kerus": 8377,
      "4,": 8378,
      "aknya": 8379,
      "\u2581become": 8380,
      "erd": 8381,
      "4.": 8382,
      "-h": 8383,
      "\u2581keluarga": 8384,
      "\u2581pasukan": 8385,
      "\u2581west": 8386,
      "\u2581Off": 8387,
      "\u2581Qu": 8388,
      "ments": 8389,
      "\u2581Up": 8390,
      "\u2581!": 8391,
      "\u2581having": 8392,
      "\u2581Fir": 8393,
      "\u2581say": 8394,
      "\u2581kelompok": 8395,
      "\u2581Belanda": 8396,
      "\u2581perb": 8397,
      "orr": 8398,
      "ems": 8399,
      "\u2581Jakarta": 8400,
      "utes": 8401,
      "\u2581lost": 8402,
      "\u2581Mereka": 8403,
      "intang": 8404,
      "\u2581production": 8405,
      "BC": 8406,
      "aint": 8407,
      "\u2581novel": 8408,
      "\u2581Sov": 8409,
      "\u2581lat": 8410,
      "awasan": 8411,
      "ying": 8412,
      "ailed": 8413,
      "6,": 8414,
      "uskan": 8415,
      "\u2581(198": 8416,
      "\u2581vict": 8417,
      "\u2581Bahasa": 8418,
      "hi": 8419,
      "\u2581low": 8420,
      "\u2581company": 8421,
      "\u2581Sl": 8422,
      "upa": 8423,
      "\u2581Presiden": 8424,
      "\u2581menyatakan": 8425,
      "ampung": 8426,
      "\u2581dekat": 8427,
      "\u2581muncul": 8428,
      "\u2581less": 8429,
      "\u2581tro": 8430,
      "aba": 8431,
      "\u2581involv": 8432,
      "\u2581bin": 8433,
      "\u2581lahir": 8434,
      "\u2581comb": 8435,
      "\u2581mencapai": 8436,
      "\u2581gave": 8437,
      "\u2581186": 8438,
      "\u2581(M": 8439,
      "\u2581bidang": 8440,
      "\u2581obs": 8441,
      "ric": 8442,
      "\u2581khusus": 8443,
      "\u2581nasional": 8444,
      "\u2581didirikan": 8445,
      "\u2581east": 8446,
      "\u2581kapal": 8447,
      "lear": 8448,
      "\u2581mot": 8449,
      "iness": 8450,
      "\u2581Sekolah": 8451,
      "asilkan": 8452,
      "\u2581military": 8453,
      "\u2581individ": 8454,
      "lege": 8455,
      "\u2581position": 8456,
      "\u2581pemerintah": 8457,
      "urricane": 8458,
      "\u2581bekerja": 8459,
      "ize": 8460,
      "osi": 8461,
      "\u2581Mak": 8462,
      "\u2581country": 8463,
      "\u25812012.": 8464,
      "epend": 8465,
      "work": 8466,
      "ema": 8467,
      "adian": 8468,
      "\u2581import": 8469,
      "\u2581Do": 8470,
      "\u2581maupun": 8471,
      "\u2581Bi": 8472,
      "\u2581While": 8473,
      "3,": 8474,
      "\u2581Ben": 8475,
      "arian": 8476,
      "\u2581Soviet": 8477,
      "\u2581soc": 8478,
      "andingan": 8479,
      "\u2581Vir": 8480,
      "\u2581Mac": 8481,
      "\u2581Thom": 8482,
      "\u2581join": 8483,
      "\u2581Unt": 8484,
      "\u2581Music": 8485,
      "\u2581(K": 8486,
      "olution": 8487,
      "ikuti": 8488,
      "s,": 8489,
      "\u2581press": 8490,
      "\u2581Coleop": 8491,
      "anted": 8492,
      "\u2581chang": 8493,
      "\u2581hasil": 8494,
      "\u2581dibuat": 8495,
      "uted": 8496,
      "\u2581Partai": 8497,
      "\u2581kol": 8498,
      "\u2581Miss": 8499,
      "astern": 8500,
      "\u2581control": 8501,
      "6.": 8502,
      "ransport": 8503,
      "\u2581Gro": 8504,
      "\u2581surv": 8505,
      "\u2581never": 8506,
      "\u2581Bis": 8507,
      "abak": 8508,
      "atat": 8509,
      "usk": 8510,
      "ili": 8511,
      "odes": 8512,
      "ainan": 8513,
      "aid": 8514,
      "\u2581(b": 8515,
      "am,": 8516,
      "ensive": 8517,
      "adan": 8518,
      "wood": 8519,
      "\u2581produced": 8520,
      "\u2581returned": 8521,
      "\u2581Katolik": 8522,
      "ugas": 8523,
      "\u2581went": 8524,
      "iment": 8525,
      "\u2581Alb": 8526,
      "1,": 8527,
      "\u2581need": 8528,
      "\u2581A.": 8529,
      "\u2581perd": 8530,
      "\u2581eks": 8531,
      "\u2581Mo": 8532,
      "\u2581mater": 8533,
      "nis": 8534,
      "9)": 8535,
      "\u2581Bur": 8536,
      "IN": 8537,
      "\u2581Red": 8538,
      "uanya": 8539,
      "\u2581recorded": 8540,
      "\u2581official": 8541,
      "\u2581reported": 8542,
      "\u2581camp": 8543,
      "\u2581eight": 8544,
      "\u2581kerusakan": 8545,
      "\u2581grup": 8546,
      "burg": 8547,
      "9.": 8548,
      "\u2581(T": 8549,
      "\u2581media": 8550,
      "\u2581sejarah": 8551,
      "\u2581ft": 8552,
      "\u2581Union": 8553,
      "\u2581France": 8554,
      "\u2581Mat": 8555,
      "iala": 8556,
      "ak,": 8557,
      "aranya": 8558,
      "\u2581Tan": 8559,
      "roduksi": 8560,
      "al.": 8561,
      "\u2581perg": 8562,
      "\u2581ist": 8563,
      "-orang": 8564,
      "ihan": 8565,
      "\u2581dianggap": 8566,
      "en.": 8567,
      "ume": 8568,
      "asti": 8569,
      "eck": 8570,
      "\u2581Namun,": 8571,
      "akses": 8572,
      "\u2581stated": 8573,
      "stant": 8574,
      "ivil": 8575,
      "\u2581IT": 8576,
      "\u2581penc": 8577,
      "\u2581suara": 8578,
      "\u2581announ": 8579,
      "\u2581popular": 8580,
      "ampionship": 8581,
      "\u2581According": 8582,
      "AS": 8583,
      "\u2581Alex": 8584,
      "\u2581service": 8585,
      "\u2581Grand": 8586,
      "us.": 8587,
      "\u2581particular": 8588,
      "arik": 8589,
      "\u2581friend": 8590,
      "\u2581sum": 8591,
      "\u2581author": 8592,
      "gin": 8593,
      "\u2581tekn": 8594,
      "\u2581Cap": 8595,
      "erson": 8596,
      "\u2581langsung": 8597,
      "\u25812020": 8598,
      "\u2581given": 8599,
      "rasi": 8600,
      "\u2581Pag": 8601,
      "\u2581Army": 8602,
      "\u2581find": 8603,
      "\u2581agama": 8604,
      "\u2581model": 8605,
      "\u2581Raya": 8606,
      "\u2581fact": 8607,
      "\u2581tanpa": 8608,
      "egi": 8609,
      "\u2581Sim": 8610,
      "\u2581histor": 8611,
      "\u2581S.": 8612,
      "\u2581Situs": 8613,
      "\u2581League": 8614,
      "ago": 8615,
      "ined": 8616,
      "\u2581Mark": 8617,
      "earch": 8618,
      "\u2581should": 8619,
      "\u2581good": 8620,
      "\u2581Wal": 8621,
      "\u2581common": 8622,
      "\u2581pusat": 8623,
      "\u2581tand": 8624,
      "\u2581Eropa": 8625,
      "edi": 8626,
      "aised": 8627,
      "itud": 8628,
      "\u2581mob": 8629,
      "\u2581field": 8630,
      "\u2581young": 8631,
      "ention": 8632,
      "\u2581pot": 8633,
      "\u2581include": 8634,
      "\u2581light": 8635,
      "3.": 8636,
      "\u2581forces": 8637,
      "\u2581III": 8638,
      "\u2581maka": 8639,
      "antikan": 8640,
      "\u2581terkenal": 8641,
      "\u2581mengenai": 8642,
      "\u2581songs": 8643,
      "\u2581Press": 8644,
      "ases": 8645,
      "itor": 8646,
      "\u2581M.": 8647,
      "e.": 8648,
      "alami": 8649,
      "note": 8650,
      "\u2581lagi": 8651,
      "\u2581aircraft": 8652,
      "aval": 8653,
      "\u2581matahari": 8654,
      "\u2581jalan": 8655,
      "\u2581America": 8656,
      "abase.": 8657,
      "\u2581Pas": 8658,
      "\u2581posisi": 8659,
      "iction": 8660,
      "\u2581tanah": 8661,
      "BN": 8662,
      "\u2581Species": 8663,
      "\u2581(20": 8664,
      "\u2581compet": 8665,
      "-S": 8666,
      "akin": 8667,
      "\u2581tinggal": 8668,
      "\u2581Road": 8669,
      "han": 8670,
      "alth": 8671,
      "\u2581Best": 8672,
      "\u2581using": 8673,
      "eksi": 8674,
      "\u2581Lib": 8675,
      "\u2581building": 8676,
      "\u2581destroy": 8677,
      "\u2581Awards": 8678,
      "posed": 8679,
      "itan": 8680,
      "\u2581Russ": 8681,
      "\u2581ke-1": 8682,
      "uti": 8683,
      "agon": 8684,
      "\u2581fire": 8685,
      "\u2581Play": 8686,
      "\u2581ships": 8687,
      "\u2581development": 8688,
      "\u2581lim": 8689,
      "\u2581Royal": 8690,
      "\u2581Street": 8691,
      "\u2581Menurut": 8692,
      "\u2581fac": 8693,
      "atural": 8694,
      "rael": 8695,
      "\u2581port": 8696,
      "\u2581how": 8697,
      "\u2581These": 8698,
      "anyi": 8699,
      "ider": 8700,
      "\u2581der": 8701,
      "\u2581Gun": 8702,
      "eption": 8703,
      "ourg": 8704,
      "\u2581Fil": 8705,
      "\u2581Beberapa": 8706,
      "\u2581trav": 8707,
      "adakan": 8708,
      "\u2581tok": 8709,
      "berg": 8710,
      "\u2581mungkin": 8711,
      "aring": 8712,
      "enggara": 8713,
      "\u2581Pulau": 8714,
      "uangan": 8715,
      "\u2581penting": 8716,
      "\u2581Japanese": 8717,
      "\u2581enc": 8718,
      "\u2581Del": 8719,
      "aikan": 8720,
      "unyai": 8721,
      "\u2581manusia": 8722,
      "atatan": 8723,
      "\u2581Mes": 8724,
      "\u2581menunjukkan": 8725,
      "sequ": 8726,
      "ades": 8727,
      "quad": 8728,
      "\u2581Wash": 8729,
      "note\"": 8730,
      "\u2581class=\"note\"": 8731,
      "used": 8732,
      "inj": 8733,
      "\u2581menjabat": 8734,
      "\u2581Piala": 8735,
      "\u2581tersebut,": 8736,
      "1).": 8737,
      "acy": 8738,
      "\u2581No": 8739,
      "ulkan": 8740,
      "erst": 8741,
      "as.": 8742,
      "ungsi": 8743,
      "\u2581project": 8744,
      "\u2581Award": 8745,
      "self": 8746,
      ".R": 8747,
      "thern": 8748,
      "\u2581Kirk": 8749,
      "ring": 8750,
      "itive": 8751,
      "\u2581Indian": 8752,
      "kov": 8753,
      "uri": 8754,
      "ampaign": 8755,
      "\u2581chart": 8756,
      "-r": 8757,
      "\u2581times": 8758,
      "\u2581rock": 8759,
      "iny": 8760,
      "\u2581menerima": 8761,
      "ukaan": 8762,
      "\u2581making": 8763,
      "\u2581my": 8764,
      "\u2581mempunyai": 8765,
      "onomi": 8766,
      "cast": 8767,
      "\u2581rank": 8768,
      "ows": 8769,
      "\u2581Richard": 8770,
      "\u2581administr": 8771,
      "abatan": 8772,
      "\u2581died": 8773,
      "idence": 8774,
      "\u2581national": 8775,
      "\u2581dew": 8776,
      "\u2581tur": 8777,
      "\u2581batang": 8778,
      "\u2581ec": 8779,
      "\u2581Company": 8780,
      "\u2581Um": 8781,
      "1.": 8782,
      "\u2581univers": 8783,
      "\u2581bukan": 8784,
      "\u2581Go": 8785,
      "\u2581Charles": 8786,
      "ably": 8787,
      "\u2581bo": 8788,
      "\u2581Atl": 8789,
      "\u2581Sant": 8790,
      "\u2581Kap": 8791,
      "iforn": 8792,
      "\u2581\u201c": 8793,
      "echn": 8794,
      "akter": 8795,
      "acters": 8796,
      "\u2581island": 8797,
      "\u2581himself": 8798,
      "\u2581Nicol": 8799,
      "ned": 8800,
      "\u2581tour": 8801,
      "\u2581pred": 8802,
      "\u2581club": 8803,
      "isah": 8804,
      "da": 8805,
      "\u2581militer": 8806,
      "uter": 8807,
      "-n": 8808,
      "\u2581kej": 8809,
      "\u2581Val": 8810,
      "board": 8811,
      "\u2581Ev": 8812,
      "\u2581menik": 8813,
      "\u2581provinsi": 8814,
      "\u2581critic": 8815,
      "\u2581electr": 8816,
      "reen": 8817,
      "iety": 8818,
      "\u2581command": 8819,
      "\u2581hak": 8820,
      "ora": 8821,
      "\u2581log": 8822,
      "lus": 8823,
      "\u2581father": 8824,
      "\u2581suff": 8825,
      "\u2581500": 8826,
      "\u2581terc": 8827,
      "akyat": 8828,
      "uju": 8829,
      "estival": 8830,
      "\u2581sat": 8831,
      "\u2581Lou": 8832,
      "unuh": 8833,
      "\u2581Peny": 8834,
      "ns": 8835,
      "che": 8836,
      "\u2581Pri": 8837,
      "\u2581Coleoptera,": 8838,
      "apt": 8839,
      "\u2581remained": 8840,
      "\u2581diber": 8841,
      "ft": 8842,
      "\u2581melawan": 8843,
      "ho": 8844,
      "\u2581fem": 8845,
      "\u2581gelar": 8846,
      "\u2581title": 8847,
      "utama": 8848,
      "\u2581agar": 8849,
      "\u2581get": 8850,
      "\u2581Read": 8851,
      "\u2581fav": 8852,
      "\u2581tubuh": 8853,
      "arier": 8854,
      "\u2581House": 8855,
      "\u2581Com": 8856,
      "\u2581Gold": 8857,
      "\u2581selatan": 8858,
      "\u2581Californ": 8859,
      "\u2581Pemerint": 8860,
      "\u2581Op": 8861,
      "\u2581ground": 8862,
      "\u2581rul": 8863,
      "\u2581Kan": 8864,
      "\u2581months": 8865,
      "\u2581jika": 8866,
      "\u2581Dengan": 8867,
      "lished": 8868,
      "\u2581Israel": 8869,
      "ways": 8870,
      "\u2581Angkatan": 8871,
      "\u2581et": 8872,
      "\u2581across": 8873,
      "NI": 8874,
      "\u2581star": 8875,
      "tiv": 8876,
      "rell": 8877,
      "\u2581site": 8878,
      "oice": 8879,
      "\u2581sil": 8880,
      "\u2581mult": 8881,
      "-M": 8882,
      "\u2581Ne": 8883,
      "\u258160": 8884,
      "\u2581Washington": 8885,
      "ograph": 8886,
[...]
