{
  "version": "1.0",
  "truncation": null,
  "padding": null,
  "added_tokens": [
    {
      "id": 0,
      "content": "<UNK>",
      "single_word": false,
      "lstrip": false,
      "rstrip": false,
      "normalized": false,
      "special": true
    },
    {
      "id": 1,
      "content": "<PAD>",
      "single_word": false,
      "lstrip": false,
      "rstrip": false,
      "normalized": false,
      "special": true
    },
    {
      "id": 2,
      "content": "<BOS>",
      "single_word": false,
      "lstrip": false,
      "rstrip": false,
      "normalized": false,
      "special": true
    },
    {
      "id": 3,
      "content": "<EOS>",
      "single_word": false,
      "lstrip": false,
      "rstrip": false,
      "normalized": false,
      "special": true
    }
  ],
  "normalizer": null,
  "pre_tokenizer": {
    "type": "Metaspace",
    "replacement": "▁",
    "prepend_scheme": "always",
    "split": true
  },
  "post_processor": null,
  "decoder": null,
  "model": {
    "type": "BPE",
    "dropout": null,
    "unk_token": "<UNK>",
    "continuing_subword_prefix": null,
    "end_of_word_suffix": null,
    "fuse_unk": false,
    "byte_fallback": false,
    "ignore_merges": false,
    "vocab": {
      "<UNK>": 0,
      "<PAD>": 1,
      "<BOS>": 2,
      "<EOS>": 3,
      "!": 4,
      "\"": 5,
      "#": 6,
      "$": 7,
      "%": 8,
      "&": 9,
      "'": 10,
      "(": 11,
      ")": 12,
      "*": 13,
      "+": 14,
      ",": 15,
      "-": 16,
      ".": 17,
      "/": 18,
      "0": 19,
      "1": 20,
      "2": 21,
      "3": 22,
      "4": 23,
      "5": 24,
      "6": 25,
      "7": 26,
      "8": 27,
      "9": 28,
      ":": 29,
      ";": 30,
      "<": 31,
      "=": 32,
      ">": 33,
      "?": 34,
      "@": 35,
      "A": 36,
      "B": 37,
      "C": 38,
      "D": 39,
      "E": 40,
      "F": 41,
      "G": 42,
      "H": 43,
      "I": 44,
      "J": 45,
      "K": 46,
      "L": 47,
      "M": 48,
      "N": 49,
      "O": 50,
      "P": 51,
      "Q": 52,
      "R": 53,
      "S": 54,
      "T": 55,
      "U": 56,
      "V": 57,
      "W": 58,
      "X": 59,
      "Y": 60,
      "Z": 61,
      "[": 62,
      "\\": 63,
      "]": 64,
      "^": 65,
      "_": 66,
      "`": 67,
      "a": 68,
      "b": 69,
      "c": 70,
      "d": 71,
      "e": 72,
      "f": 73,
      "g": 74,
      "h": 75,
      "i": 76,
      "j": 77,
      "k": 78,
      "l": 79,
      "m": 80,
      "n": 81,
      "o": 82,
      "p": 83,
      "q": 84,
      "r": 85,
      "s": 86,
      "t": 87,
      "u": 88,
      "v": 89,
      "w": 90,
      "x": 91,
      "y": 92,
      "z": 93,
      "{": 94,
      "}": 95,
      "~": 96,
      "": 97,
      "": 98,
      "": 99,
      "": 100,
      "": 101,
      "": 102,
      "": 103,
      "": 104,
      "": 105,
      "": 106,
      "": 107,
      "": 108,
      "": 109,
      "": 110,
      "": 111,
      "": 112,
      "": 113,
      "": 114,
      "": 115,
      "": 116,
      "": 117,
      "": 118,
      "": 119,
      "": 120,
      "": 121,
      "": 122,
      "¡": 123,
      "¢": 124,
      "£": 125,
      "¤": 126,
      "§": 127,
      "©": 128,
      "«": 129,
      "¬": 130,
      "­": 131,
      "®": 132,
      "°": 133,
      "±": 134,
      "¶": 135,
      "·": 136,
      "»": 137,
      "¿": 138,
      "À": 139,
      "Á": 140,
      "Â": 141,
      "Ã": 142,
      "Ä": 143,
      "Å": 144,
      "Æ": 145,
      "Ç": 146,
      "È": 147,
      "É": 148,
      "Ê": 149,
      "Ë": 150,
      "Ì": 151,
      "Í": 152,
      "Î": 153,
      "Ï": 154,
      "Ð": 155,
      "Ñ": 156,
      "Ò": 157,
      "Ó": 158,
      "Ô": 159,
      "Õ": 160,
      "Ö": 161,
      "×": 162,
      "Ø": 163,
      "Ú": 164,
      "Ü": 165,
      "Ý": 166,
      "Þ": 167,
      "ß": 168,
      "à": 169,
      "á": 170,
      "â": 171,
      "ã": 172,
      "ä": 173,
      "å": 174,
      "æ": 175,
      "ç": 176,
      "è": 177,
      "é": 178,
      "ê": 179,
      "ë": 180,
      "ì": 181,
      "í": 182,
      "î": 183,
      "ï": 184,
      "ð": 185,
      "ñ": 186,
      "ò": 187,
      "ó": 188,
      "ô": 189,
      "õ": 190,
      "ö": 191,
      "ø": 192,
      "ù": 193,
      "ú": 194,
      "û": 195,
      "ü": 196,
      "ý": 197,
      "ÿ": 198,
      "ā": 199,
      "Ă": 200,
      "ă": 201,
      "Ą": 202,
      "ą": 203,
      "Ć": 204,
      "ć": 205,
      "ċ": 206,
      "Č": 207,
      "č": 208,
      "Đ": 209,
      "đ": 210,
      "ė": 211,
      "Ę": 212,
      "ę": 213,
      "ě": 214,
      "ğ": 215,
      "Ġ": 216,
      "ģ": 217,
      "Ħ": 218,
      "ħ": 219,
      "ĩ": 220,
      "ī": 221,
      "İ": 222,
      "ı": 223,
      "ķ": 224,
      "ļ": 225,
      "Ł": 226,
      "ł": 227,
      "Ń": 228,
      "ń": 229,
      "ō": 230,
      "œ": 231,
      "ŗ": 232,
      "ř": 233,
      "Ś": 234,
      "ś": 235,
      "Ş": 236,
      "ş": 237,
      "Š": 238,
      "š": 239,
      "ţ": 240,
      "ũ": 241,
      "Ū": 242,
      "ū": 243,
      "ŭ": 244,
      "Ź": 245,
      "ź": 246,
      "Ż": 247,
      "ż": 248,
      "Ž": 249,
      "ž": 250,
      "ƒ": 251,
      "Ơ": 252,
      "ơ": 253,
      "Ư": 254,
      "ư": 255,
      "ș": 256,
      "ʖ": 257,
      "ʼ": 258,
      "ˈ": 259,
      "́": 260,
      "̇": 261,
      "̈": 262,
      "̧": 263,
      "Ό": 264,
      "ΐ": 265,
      "Α": 266,
      "Β": 267,
      "Ε": 268,
      "Η": 269,
      "Ι": 270,
      "Μ": 271,
      "Ν": 272,
      "Ο": 273,
      "Π": 274,
      "Ρ": 275,
      "Τ": 276,
      "Φ": 277,
      "Χ": 278,
      "ά": 279,
      "ί": 280,
      "α": 281,
      "β": 282,
      "γ": 283,
      "δ": 284,
      "ε": 285,
      "η": 286,
      "θ": 287,
      "ι": 288,
      "κ": 289,
      "λ": 290,
      "μ": 291,
      "ν": 292,
      "ο": 293,
      "π": 294,
      "ρ": 295,
      "ς": 296,
      "σ": 297,
      "τ": 298,
      "υ": 299,
      "χ": 300,
      "ψ": 301,
      "ω": 302,
      "ό": 303,
      "ώ": 304,
      "Ё": 305,
      "Ђ": 306,
      "Є": 307,
      "Ѕ": 308,
      "І": 309,
      "Ї": 310,
      "Ј": 311,
      "Ќ": 312,
      "Ў": 313,
      "А": 314,
      "Б": 315,
      "В": 316,
      "Г": 317,
      "Д": 318,
      "Е": 319,
      "Ж": 320,
      "З": 321,
      "И": 322,
      "Й": 323,
      "К": 324,
      "Л": 325,
      "М": 326,
      "Н": 327,
      "О": 328,
      "П": 329,
      "Р": 330,
      "С": 331,
      "Т": 332,
      "У": 333,
      "Ф": 334,
      "Х": 335,
      "Ц": 336,
      "Ч": 337,
      "Ш": 338,
      "Щ": 339,
      "Ъ": 340,
      "Ы": 341,
      "Ь": 342,
      "Э": 343,
      "Ю": 344,
      "Я": 345,
      "а": 346,
      "б": 347,
      "в": 348,
      "г": 349,
      "д": 350,
      "е": 351,
      "ж": 352,
      "з": 353,
      "и": 354,
      "й": 355,
      "к": 356,
      "л": 357,
      "м": 358,
      "н": 359,
      "о": 360,
      "п": 361,
      "р": 362,
      "с": 363,
      "т": 364,
      "у": 365,
      "ф": 366,
      "х": 367,
      "ц": 368,
      "ч": 369,
      "ш": 370,
      "щ": 371,
      "ъ": 372,
      "ы": 373,
      "ь": 374,
      "э": 375,
      "ю": 376,
      "я": 377,
      "ё": 378,
      "є": 379,
      "ѕ": 380,
      "і": 381,
      "ї": 382,
      "ј": 383,
      "њ": 384,
      "ћ": 385,
      "ќ": 386,
      "Ґ": 387,
      "ґ": 388,
      "Қ": 389,
      "ҳ": 390,
      "،": 391,
      "؛": 392,
      "؟": 393,
      "ء": 394,
      "آ": 395,
      "أ": 396,
      "ؤ": 397,
      "إ": 398,
      "ئ": 399,
      "ا": 400,
      "ب": 401,
      "ة": 402,
      "ت": 403,
      "ث": 404,
      "ج": 405,
      "ح": 406,
      "خ": 407,
      "د": 408,
      "ذ": 409,
      "ر": 410,
      "ز": 411,
      "س": 412,
      "ش": 413,
      "ص": 414,
      "ض": 415,
      "ط": 416,
      "ظ": 417,
      "ع": 418,
      "غ": 419,
      "ـ": 420,
      "ف": 421,
      "ق": 422,
      "ك": 423,
      "ل": 424,
      "م": 425,
      "ن": 426,
      "ه": 427,
      "و": 428,
      "ى": 429,
      "ي": 430,
      "ً": 431,
      "ٌ": 432,
      "ٍ": 433,
      "َ": 434,
      "ُ": 435,
      "ِ": 436,
      "ّ": 437,
      "ْ": 438,
      "ٔ": 439,
      "٠": 440,
      "٢": 441,
      "٤": 442,
      "٥": 443,
      "٨": 444,
      "٬": 445,
      "پ": 446,
      "چ": 447,
      "ژ": 448,
      "ک": 449,
      "گ": 450,
      "ھ": 451,
      "ۀ": 452,
      "ی": 453,
      "۰": 454,
      "۱": 455,
      "۲": 456,
      "۳": 457,
      "۴": 458,
      "۵": 459,
      "۶": 460,
      "۷": 461,
      "۸": 462,
      "۹": 463,
      "ँ": 464,
      "ं": 465,
      "ः": 466,
      "अ": 467,
      "आ": 468,
      "इ": 469,
      "ई": 470,
      "उ": 471,
      "ऊ": 472,
      "ऋ": 473,
      "ऌ": 474,
      "ऍ": 475,
      "ऎ": 476,
      "ए": 477,
      "ऐ": 478,
      "ऑ": 479,
      "ओ": 480,
      "औ": 481,
      "क": 482,
      "ख": 483,
      "ग": 484,
      "घ": 485,
      "च": 486,
      "छ": 487,
      "ज": 488,
      "झ": 489,
      "ञ": 490,
      "ट": 491,
      "ठ": 492,
      "ड": 493,
      "ढ": 494,
      "ण": 495,
      "त": 496,
      "थ": 497,
      "द": 498,
      "ध": 499,
      "न": 500,
      "ऩ": 501,
      "प": 502,
      "फ": 503,
      "ब": 504,
      "भ": 505,
      "म": 506,
      "य": 507,
      "र": 508,
      "ऱ": 509,
      "ल": 510,
      "व": 511,
      "श": 512,
      "ष": 513,
      "स": 514,
      "ह": 515,
      "़": 516,
      "ा": 517,
      "ि": 518,
      "ी": 519,
      "ु": 520,
      "ू": 521,
      "ृ": 522,
      "ॅ": 523,
      "े": 524,
      "ै": 525,
      "ॉ": 526,
      "ो": 527,
      "ौ": 528,
      "्": 529,
      "ॣ": 530,
      "।": 531,
      "॥": 532,
      "०": 533,
      "१": 534,
      "२": 535,
      "३": 536,
      "४": 537,
      "५": 538,
      "६": 539,
      "७": 540,
      "९": 541,
      "॰": 542,
      "ನ": 543,
      "ಬ": 544,
      "ಮ": 545,
      "ರ": 546,
      "ಸ": 547,
      "ು": 548,
      "ೂ": 549,
      "ೈ": 550,
      "್": 551,
      "ก": 552,
      "ข": 553,
      "ฃ": 554,
      "ค": 555,
      "ฅ": 556,
      "ฆ": 557,
      "ง": 558,
      "จ": 559,
      "ฉ": 560,
      "ช": 561,
      "ซ": 562,
      "ญ": 563,
      "ฎ": 564,
      "ฏ": 565,
      "ฐ": 566,
      "ฑ": 567,
      "ฒ": 568,
      "ณ": 569,
      "ด": 570,
      "ต": 571,
      "ถ": 572,
      "ท": 573,
      "ธ": 574,
      "น": 575,
      "บ": 576,
      "ป": 577,
      "ผ": 578,
      "ฝ": 579,
      "พ": 580,
      "ฟ": 581,
      "ภ": 582,
      "ม": 583,
      "ย": 584,
      "ร": 585,
      "ฤ": 586,
      "ล": 587,
      "ว": 588,
      "ศ": 589,
      "ษ": 590,
      "ส": 591,
      "ห": 592,
      "ฬ": 593,
      "อ": 594,
      "ฮ": 595,
      "ฯ": 596,
      "ะ": 597,
      "ั": 598,
      "า": 599,
      "ิ": 600,
      "ี": 601,
      "ึ": 602,
      "ื": 603,
      "ุ": 604,
      "ู": 605,
      "ฺ": 606,
      "เ": 607,
      "แ": 608,
      "โ": 609,
      "ใ": 610,
      "ไ": 611,
      "ๆ": 612,
      "็": 613,
      "่": 614,
      "้": 615,
      "๊": 616,
      "๋": 617,
      "์": 618,
      "ํ": 619,
      "Ⴗ": 620,
      "ᄆ": 621,
      "ᅡ": 622,
      "ᅦ": 623,
      "ᅲ": 624,
      "ᅵ": 625,
      "ạ": 626,
      "ả": 627,
      "Ấ": 628,
      "ấ": 629,
      "ầ": 630,
      "ẩ": 631,
      "ẫ": 632,
      "ậ": 633,
      "ắ": 634,
      "ằ": 635,
      "ẳ": 636,
      "ẵ": 637,
      "ặ": 638,
      "ẹ": 639,
      "ẻ": 640,
      "ẽ": 641,
      "Ế": 642,
      "ế": 643,
      "ề": 644,
      "ể": 645,
      "ễ": 646,
      "Ệ": 647,
      "ệ": 648,
      "ỉ": 649,
      "ị": 650,
      "ọ": 651,
      "ỏ": 652,
      "Ố": 653,
      "ố": 654,
      "Ồ": 655,
      "ồ": 656,
      "Ổ": 657,
      "ổ": 658,
      "ỗ": 659,
      "Ộ": 660,
      "ộ": 661,
      "ớ": 662,
      "Ờ": 663,
      "ờ": 664,
      "Ở": 665,
      "ở": 666,
      "ỡ": 667,
      "ợ": 668,
      "ụ": 669,
      "Ủ": 670,
      "ủ": 671,
      "Ứ": 672,
      "ứ": 673,
      "Ừ": 674,
      "ừ": 675,
      "ử": 676,
      "ữ": 677,
      "ự": 678,
      "ỳ": 679,
      "ỵ": 680,
      "ỷ": 681,
      "ỹ": 682,
      "Ἧ": 683,
      "​": 684,
      "‌": 685,
      "‍": 686,
      "‎": 687,
      "‏": 688,
      "‐": 689,
      "‒": 690,
      "–": 691,
      "—": 692,
      "―": 693,
      "‘": 694,
      "’": 695,
      "‚": 696,
      "“": 697,
      "”": 698,
      "„": 699,
      "†": 700,
      "•": 701,
      "‫": 702,
      "‬": 703,
      "′": 704,
      "›": 705,
      "⁄": 706,
      "€": 707,
      "₴": 708,
      "→": 709,
      "↔": 710,
      "∏": 711,
      "−": 712,
      "∗": 713,
      "√": 714,
      "≈": 715,
      "≤": 716,
      "≥": 717,
      "≪": 718,
      "─": 719,
      "│": 720,
      "┍": 721,
      "╀": 722,
      "▁": 723,
      "■": 724,
      "□": 725,
      "►": 726,
      "○": 727,
      "●": 728,
      "♪": 729,
      "♫": 730,
      "、": 731,
      "。": 732,
      "々": 733,
      "〈": 734,
      "〉": 735,
      "《": 736,
      "》": 737,
      "「": 738,
      "」": 739,
      "『": 740,
      "』": 741,
      "〔": 742,
      "〕": 743,
      "〜": 744,
      "ぁ": 745,
      "あ": 746,
      "ぃ": 747,
      "い": 748,
      "ぅ": 749,
      "う": 750,
      "ぇ": 751,
      "え": 752,
      "ぉ": 753,
      "お": 754,
      "か": 755,
      "が": 756,
      "き": 757,
      "ぎ": 758,
      "く": 759,
      "ぐ": 760,
      "け": 761,
      "げ": 762,
      "こ": 763,
      "ご": 764,
      "さ": 765,
      "ざ": 766,
      "し": 767,
      "じ": 768,
      "す": 769,
      "ず": 770,
      "せ": 771,
      "ぜ": 772,
      "そ": 773,
      "ぞ": 774,
      "た": 775,
      "だ": 776,
      "ち": 777,
      "っ": 778,
      "つ": 779,
      "づ": 780,
      "て": 781,
      "で": 782,
      "と": 783,
      "ど": 784,
      "な": 785,
      "に": 786,
      "ぬ": 787,
      "ね": 788,
      "の": 789,
      "は": 790,
      "ば": 791,
      "ぱ": 792,
      "ひ": 793,
      "び": 794,
      "ふ": 795,
      "ぶ": 796,
      "ぷ": 797,
      "へ": 798,
      "べ": 799,
      "ぺ": 800,
      "ほ": 801,
      "ぼ": 802,
      "ぽ": 803,
      "ま": 804,
      "み": 805,
      "む": 806,
      "め": 807,
      "も": 808,
      "ゃ": 809,
      "や": 810,
      "ゅ": 811,
      "ゆ": 812,
      "ょ": 813,
      "よ": 814,
      "ら": 815,
      "り": 816,
      "る": 817,
      "れ": 818,
      "ろ": 819,
      "わ": 820,
      "を": 821,
      "ん": 822,
      "ァ": 823,
      "ア": 824,
      "ィ": 825,
      "イ": 826,
      "ゥ": 827,
      "ウ": 828,
      "ェ": 829,
      "エ": 830,
      "ォ": 831,
      "オ": 832,
      "カ": 833,
      "ガ": 834,
      "キ": 835,
      "ギ": 836,
      "ク": 837,
      "グ": 838,
      "ケ": 839,
      "ゲ": 840,
      "コ": 841,
      "ゴ": 842,
      "サ": 843,
      "ザ": 844,
      "シ": 845,
      "ジ": 846,
      "ス": 847,
      "ズ": 848,
      "セ": 849,
      "ゼ": 850,
      "ソ": 851,
      "ゾ": 852,
      "タ": 853,
      "ダ": 854,
      "チ": 855,
      "ッ": 856,
      "ツ": 857,
      "テ": 858,
      "デ": 859,
      "ト": 860,
      "ド": 861,
      "ナ": 862,
      "ニ": 863,
      "ヌ": 864,
      "ネ": 865,
      "ノ": 866,
      "ハ": 867,
      "バ": 868,
      "パ": 869,
      "ヒ": 870,
      "ビ": 871,
      "ピ": 872,
      "フ": 873,
      "ブ": 874,
      "プ": 875,
      "ヘ": 876,
      "ベ": 877,
      "ペ": 878,
      "ホ": 879,
      "ボ": 880,
      "ポ": 881,
      "マ": 882,
      "ミ": 883,
      "ム": 884,
      "メ": 885,
      "モ": 886,
      "ャ": 887,
      "ヤ": 888,
      "ュ": 889,
      "ユ": 890,
      "ョ": 891,
      "ヨ": 892,
      "ラ": 893,
      "リ": 894,
      "ル": 895,
      "レ": 896,
      "ロ": 897,
      "ワ": 898,
      "ン": 899,
      "ヴ": 900,
      "ヵ": 901,
      "ヶ": 902,
      "・": 903,
      "ー": 904,
      "ㄓ": 905,
      "一": 906,
      "丁": 907,
      "七": 908,
      "万": 909,
      "丈": 910,
      "三": 911,
      "上": 912,
      "下": 913,
      "不": 914,
      "与": 915,
      "丑": 916,
      "专": 917,
      "且": 918,
      "世": 919,
      "丘": 920,
      "业": 921,
      "丛": 922,
      "东": 923,
      "丝": 924,
      "丞": 925,
      "両": 926,
      "两": 927,
      "严": 928,
      "並": 929,
      "丧": 930,
      "个": 931,
      "中": 932,
      "丰": 933,
      "串": 934,
      "临": 935,
      "丸": 936,
      "丹": 937,
      "为": 938,
      "主": 939,
      "丽": 940,
      "举": 941,
      "乃": 942,
      "久": 943,
      "么": 944,
      "义": 945,
      "之": 946,
      "乌": 947,
      "乍": 948,
      "乎": 949,
      "乏": 950,
      "乐": 951,
      "乔": 952,
      "乗": 953,
      "乘": 954,
      "乙": 955,
      "九": 956,
      "乞": 957,
      "也": 958,
      "习": 959,
      "乡": 960,
      "书": 961,
      "买": 962,
      "乱": 963,
      "乳": 964,
      "乾": 965,
      "了": 966,
      "予": 967,
      "争": 968,
      "事": 969,
      "二": 970,
      "于": 971,
      "亏": 972,
      "云": 973,
      "互": 974,
      "五": 975,
      "井": 976,
      "亚": 977,
      "些": 978,
      "亞": 979,
      "亟": 980,
      "亡": 981,
      "交": 982,
      "亦": 983,
      "产": 984,
      "享": 985,
      "京": 986,
      "亭": 987,
      "亮": 988,
      "亲": 989,
      "人": 990,
      "亿": 991,
      "什": 992,
      "仁": 993,
      "仅": 994,
      "仆": 995,
      "仇": 996,
      "今": 997,
      "介": 998,
      "仍": 999,
      "从": 1000,
      "仓": 1001,
      "仔": 1002,
      "仕": 1003,
      "他": 1004,
      "仗": 1005,
      "付": 1006,
      "仙": 1007,
      "代": 1008,
      "令": 1009,
      "以": 1010,
      "仪": 1011,
      "们": 1012,
      "仮": 1013,
      "仰": 1014,
      "仲": 1015,
      "件": 1016,
      "价": 1017,
      "任": 1018,
      "份": 1019,
      "仿": 1020,
      "企": 1021,
      "伊": 1022,
      "伍": 1023,
      "伎": 1024,
      "伏": 1025,
      "伐": 1026,
      "休": 1027,
      "众": 1028,
      "优": 1029,
      "伙": 1030,
      "会": 1031,
      "伝": 1032,
      "伟": 1033,
      "传": 1034,
      "伤": 1035,
      "伦": 1036,
      "伪": 1037,
      "伯": 1038,
      "估": 1039,
      "伴": 1040,
      "伸": 1041,
      "似": 1042,
      "伽": 1043,
      "但": 1044,
      "位": 1045,
      "低": 1046,
      "住": 1047,
      "佐": 1048,
      "佑": 1049,
      "体": 1050,
      "佔": 1051,
      "何": 1052,
      "余": 1053,
      "佛": 1054,
      "作": 1055,
      "你": 1056,
      "佣": 1057,
      "佩": 1058,
      "佳": 1059,
      "使": 1060,
      "來": 1061,
      "侈": 1062,
      "例": 1063,
      "侍": 1064,
      "供": 1065,
      "依": 1066,
      "価": 1067,
      "侣": 1068,
      "侦": 1069,
      "侧": 1070,
      "侯": 1071,
      "侵": 1072,
      "便": 1073,
      "係": 1074,
      "促": 1075,
      "俄": 1076,
      "俊": 1077,
      "俗": 1078,
      "俘": 1079,
      "保": 1080,
      "信": 1081,
      "俩": 1082,
      "修": 1083,
      "俯": 1084,
      "俱": 1085,
      "俺": 1086,
      "俾": 1087,
      "倆": 1088,
      "倉": 1089,
      "個": 1090,
      "倍": 1091,
      "們": 1092,
      "倒": 1093,
      "候": 1094,
      "借": 1095,
      "倡": 1096,
      "値": 1097,
      "倫": 1098,
      "债": 1099,
      "值": 1100,
      "倾": 1101,
      "假": 1102,
      "偉": 1103,
      "偏": 1104,
      "做": 1105,
      "停": 1106,
      "健": 1107,
      "側": 1108,
      "偶": 1109,
      "偷": 1110,
      "偽": 1111,
      "偿": 1112,
      "傅": 1113,
      "傍": 1114,
      "備": 1115,
      "傢": 1116,
      "储": 1117,
      "催": 1118,
      "傭": 1119,
      "傲": 1120,
      "傳": 1121,
      "債": 1122,
      "傷": 1123,
      "傻": 1124,
      "僅": 1125,
      "働": 1126,
      "像": 1127,
      "僕": 1128,
      "僚": 1129,
      "僵": 1130,
      "僻": 1131,
      "儀": 1132,
      "億": 1133,
      "償": 1134,
      "優": 1135,
      "儲": 1136,
      "儿": 1137,
      "允": 1138,
      "元": 1139,
      "兄": 1140,
      "充": 1141,
      "兆": 1142,
      "先": 1143,
      "光": 1144,
      "克": 1145,
      "免": 1146,
      "児": 1147,
      "兒": 1148,
      "兔": 1149,
      "党": 1150,
      "兢": 1151,
      "入": 1152,
      "內": 1153,
      "全": 1154,
      "兩": 1155,
      "八": 1156,
      "公": 1157,
      "六": 1158,
      "兰": 1159,
      "共": 1160,
      "关": 1161,
      "兴": 1162,
      "兵": 1163,
      "其": 1164,
      "具": 1165,
      "典": 1166,
      "兹": 1167,
      "养": 1168,
      "兼": 1169,
      "内": 1170,
      "円": 1171,
      "冈": 1172,
      "冊": 1173,
      "册": 1174,
      "再": 1175,
      "冒": 1176,
      "冗": 1177,
      "写": 1178,
      "军": 1179,
      "农": 1180,
      "冠": 1181,
      "冥": 1182,
      "冬": 1183,
      "冯": 1184,
      "冰": 1185,
      "冲": 1186,
      "决": 1187,
      "况": 1188,
      "冷": 1189,
      "冻": 1190,
      "净": 1191,
      "凄": 1192,
      "准": 1193,
      "凌": 1194,
      "凍": 1195,
      "减": 1196,
      "凝": 1197,
      "几": 1198,
      "凡": 1199,
      "処": 1200,
      "凯": 1201,
      "凵": 1202,
      "凶": 1203,
      "出": 1204,
      "击": 1205,
      "函": 1206,
      "刀": 1207,
      "分": 1208,
      "切": 1209,
      "刊": 1210,
      "刑": 1211,
      "划": 1212,
      "列": 1213,
      "则": 1214,
      "刚": 1215,
      "创": 1216,
      "初": 1217,
      "删": 1218,
      "判": 1219,
      "別": 1220,
      "利": 1221,
      "别": 1222,
      "刮": 1223,
      "到": 1224,
      "制": 1225,
      "刷": 1226,
      "券": 1227,
      "刺": 1228,
      "刻": 1229,
      "剁": 1230,
      "剂": 1231,
      "剃": 1232,
      "則": 1233,
      "削": 1234,
      "前": 1235,
      "剑": 1236,
      "剖": 1237,
      "剛": 1238,
      "剣": 1239,
      "剤": 1240,
      "剥": 1241,
      "剧": 1242,
      "剩": 1243,
      "剪": 1244,
      "副": 1245,
      "割": 1246,
      "創": 1247,
      "劃": 1248,
      "劇": 1249,
      "力": 1250,
      "办": 1251,
      "功": 1252,
      "加": 1253,
      "务": 1254,
      "劣": 1255,
      "动": 1256,
      "助": 1257,
      "努": 1258,
      "劫": 1259,
      "励": 1260,
      "劲": 1261,
      "劳": 1262,
      "労": 1263,
      "効": 1264,
      "势": 1265,
      "勃": 1266,
      "勇": 1267,
      "勉": 1268,
      "勒": 1269,
      "動": 1270,
      "勘": 1271,
      "務": 1272,
      "勝": 1273,
      "募": 1274,
      "勢": 1275,
      "勤": 1276,
      "勧": 1277,
      "勵": 1278,
      "勾": 1279,
      "勿": 1280,
      "匂": 1281,
      "包": 1282,
      "匈": 1283,
      "化": 1284,
      "北": 1285,
      "匙": 1286,
      "匠": 1287,
      "匪": 1288,
      "匹": 1289,
      "区": 1290,
      "医": 1291,
      "匿": 1292,
      "區": 1293,
      "十": 1294,
      "千": 1295,
      "升": 1296,
      "午": 1297,
      "半": 1298,
      "华": 1299,
      "协": 1300,
      "卑": 1301,
      "卒": 1302,
      "卓": 1303,
      "協": 1304,
      "单": 1305,
      "卖": 1306,
      "南": 1307,
      "単": 1308,
      "博": 1309,
      "卜": 1310,
      "占": 1311,
      "卡": 1312,
      "卢": 1313,
      "卫": 1314,
      "印": 1315,
      "危": 1316,
      "即": 1317,
      "却": 1318,
      "卵": 1319,
      "卷": 1320,
      "卿": 1321,
      "厂": 1322,
      "厄": 1323,
      "厅": 1324,
      "历": 1325,
      "厉": 1326,
      "压": 1327,
      "厌": 1328,
      "厕": 1329,
      "厘": 1330,
      "厚": 1331,
      "厝": 1332,
      "原": 1333,
      "厨": 1334,
      "厭": 1335,
      "厳": 1336,
      "去": 1337,
      "县": 1338,
      "参": 1339,
      "參": 1340,
      "又": 1341,
      "及": 1342,
      "友": 1343,
      "双": 1344,
      "反": 1345,
      "収": 1346,
      "发": 1347,
      "叔": 1348,
      "取": 1349,
      "受": 1350,
      "变": 1351,
      "叙": 1352,
      "叛": 1353,
      "叠": 1354,
      "口": 1355,
      "古": 1356,
      "句": 1357,
      "另": 1358,
      "叨": 1359,
      "叩": 1360,
      "只": 1361,
      "叫": 1362,
      "召": 1363,
      "可": 1364,
      "台": 1365,
      "史": 1366,
      "右": 1367,
      "叶": 1368,
      "号": 1369,
      "司": 1370,
      "吁": 1371,
      "吃": 1372,
      "各": 1373,
      "合": 1374,
      "吉": 1375,
      "吊": 1376,
      "同": 1377,
      "名": 1378,
      "后": 1379,
      "吐": 1380,
      "向": 1381,
      "吓": 1382,
      "吕": 1383,
      "吗": 1384,
      "君": 1385,
      "吝": 1386,
      "吞": 1387,
      "吠": 1388,
      "否": 1389,
      "吧": 1390,
      "吨": 1391,
      "含": 1392,
      "听": 1393,
      "吭": 1394,
      "启": 1395,
      "吵": 1396,
      "吸": 1397,
      "吹": 1398,
      "吻": 1399,
      "呀": 1400,
      "呃": 1401,
      "呆": 1402,
      "呈": 1403,
      "告": 1404,
      "呋": 1405,
      "呑": 1406,
      "员": 1407,
      "呢": 1408,
      "周": 1409,
      "呪": 1410,
      "味": 1411,
      "呵": 1412,
      "呼": 1413,
      "命": 1414,
      "咁": 1415,
      "和": 1416,
      "咎": 1417,
      "咒": 1418,
      "咖": 1419,
      "咙": 1420,
      "咨": 1421,
      "咪": 1422,
      "咬": 1423,
      "咯": 1424,
      "咱": 1425,
      "咲": 1426,
      "咸": 1427,
      "哀": 1428,
      "品": 1429,
      "哇": 1430,
      "哈": 1431,
      "响": 1432,
      "哎": 1433,
      "哔": 1434,
      "哟": 1435,
      "員": 1436,
      "哥": 1437,
      "哦": 1438,
      "哨": 1439,
      "哩": 1440,
      "哪": 1441,
      "哭": 1442,
      "哲": 1443,
      "唐": 1444,
      "唔": 1445,
      "唠": 1446,
      "唤": 1447,
      "售": 1448,
      "唯": 1449,
      "唱": 1450,
      "商": 1451,
      "啊": 1452,
      "問": 1453,
      "啓": 1454,
      "啟": 1455,
      "啡": 1456,
      "啥": 1457,
      "啦": 1458,
      "啸": 1459,
      "喀": 1460,
      "喂": 1461,
      "喃": 1462,
      "善": 1463,
      "喉": 1464,
      "喊": 1465,
      "喋": 1466,
      "喔": 1467,
      "喘": 1468,
      "喚": 1469,
      "喜": 1470,
      "喝": 1471,
      "喧": 1472,
      "喩": 1473,
      "單": 1474,
      "喵": 1475,
      "営": 1476,
      "喷": 1477,
      "嗇": 1478,
      "嗎": 1479,
      "嗣": 1480,
      "嗨": 1481,
      "嗯": 1482,
      "嗷": 1483,
      "嘆": 1484,
      "嘔": 1485,
      "嘗": 1486,
      "嘘": 1487,
      "嘛": 1488,
      "嘩": 1489,
      "嘲": 1490,
      "嘴": 1491,
      "嘶": 1492,
      "嘿": 1493,
      "噂": 1494,
      "噛": 1495,
      "噢": 1496,
      "器": 1497,
      "噸": 1498,
      "嚇": 1499,
      "囁": 1500,
      "囊": 1501,
      "囚": 1502,
      "四": 1503,
      "回": 1504,
      "因": 1505,
      "团": 1506,
      "団": 1507,
      "园": 1508,
      "困": 1509,
      "囲": 1510,
      "図": 1511,
      "围": 1512,
      "固": 1513,
      "国": 1514,
      "图": 1515,
      "圃": 1516,
      "圆": 1517,
      "圈": 1518,
      "國": 1519,
      "圏": 1520,
      "園": 1521,
      "圖": 1522,
      "土": 1523,
      "圣": 1524,
      "圧": 1525,
      "在": 1526,
      "圭": 1527,
      "地": 1528,
      "场": 1529,
      "圾": 1530,
      "址": 1531,
      "坂": 1532,
      "均": 1533,
      "坎": 1534,
      "坏": 1535,
      "坐": 1536,
      "块": 1537,
      "坚": 1538,
      "坛": 1539,
      "坡": 1540,
      "坦": 1541,
      "垂": 1542,
      "垃": 1543,
      "垄": 1544,
      "型": 1545,
      "垒": 1546,
      "垦": 1547,
      "埃": 1548,
      "埋": 1549,
      "城": 1550,
      "埔": 1551,
      "域": 1552,
      "執": 1553,
      "培": 1554,
      "基": 1555,
      "堂": 1556,
      "堅": 1557,
      "堆": 1558,
      "堕": 1559,
      "堡": 1560,
      "堪": 1561,
      "報": 1562,
      "場": 1563,
      "堵": 1564,
      "塊": 1565,
      "塑": 1566,
      "塔": 1567,
      "塗": 1568,
      "塞": 1569,
      "填": 1570,
      "境": 1571,
      "墓": 1572,
      "増": 1573,
      "墙": 1574,
      "增": 1575,
      "墨": 1576,
      "壁": 1577,
      "壊": 1578,
      "壓": 1579,
      "壞": 1580,
      "壤": 1581,
      "士": 1582,
      "壮": 1583,
      "声": 1584,
      "売": 1585,
      "壳": 1586,
      "壺": 1587,
      "处": 1588,
      "备": 1589,
      "変": 1590,
      "复": 1591,
      "夏": 1592,
      "夕": 1593,
      "外": 1594,
      "多": 1595,
      "夜": 1596,
      "够": 1597,
      "夠": 1598,
      "夢": 1599,
      "大": 1600,
      "天": 1601,
      "太": 1602,
      "夫": 1603,
      "央": 1604,
      "失": 1605,
      "头": 1606,
      "夸": 1607,
      "夹": 1608,
      "夺": 1609,
      "奇": 1610,
      "奈": 1611,
      "奉": 1612,
      "奋": 1613,
      "奎": 1614,
      "奏": 1615,
      "契": 1616,
      "奔": 1617,
      "奖": 1618,
      "套": 1619,
      "奠": 1620,
      "奢": 1621,
      "奥": 1622,
      "奧": 1623,
      "奨": 1624,
      "奪": 1625,
      "奮": 1626,
      "女": 1627,
      "奴": 1628,
      "奶": 1629,
      "奸": 1630,
      "她": 1631,
      "好": 1632,
      "如": 1633,
      "妃": 1634,
      "妄": 1635,
      "妇": 1636,
      "妈": 1637,
      "妊": 1638,
      "妒": 1639,
      "妓": 1640,
      "妖": 1641,
      "妙": 1642,
      "妞": 1643,
      "妥": 1644,
      "妨": 1645,
      "妮": 1646,
      "妳": 1647,
      "妹": 1648,
      "妻": 1649,
      "姆": 1650,
      "姉": 1651,
      "始": 1652,
      "姐": 1653,
      "姑": 1654,
      "姓": 1655,
      "委": 1656,
      "姦": 1657,
      "姨": 1658,
      "姫": 1659,
      "姬": 1660,
      "姻": 1661,
      "姿": 1662,
      "威": 1663,
      "娃": 1664,
      "娅": 1665,
      "娘": 1666,
      "娛": 1667,
      "娜": 1668,
      "娠": 1669,
      "娯": 1670,
      "娼": 1671,
      "婆": 1672,
      "婊": 1673,
      "婚": 1674,
      "婦": 1675,
      "婭": 1676,
      "婴": 1677,
      "媒": 1678,
      "媽": 1679,
      "嫁": 1680,
      "嫉": 1681,
      "嫌": 1682,
      "嫖": 1683,
      "嫩": 1684,
      "嬉": 1685,
      "嬢": 1686,
      "子": 1687,
      "孔": 1688,
      "孕": 1689,
      "字": 1690,
      "存": 1691,
      "孙": 1692,
      "孟": 1693,
      "季": 1694,
      "孤": 1695,
      "学": 1696,
      "孩": 1697,
      "孫": 1698,
      "孵": 1699,
      "宁": 1700,
      "它": 1701,
      "宅": 1702,
      "宇": 1703,
      "守": 1704,
      "安": 1705,
      "完": 1706,
      "宏": 1707,
      "宗": 1708,
      "官": 1709,
      "宙": 1710,
      "定": 1711,
      "宛": 1712,
      "宜": 1713,
      "宝": 1714,
      "实": 1715,
      "実": 1716,
      "宠": 1717,
      "审": 1718,
      "客": 1719,
      "宣": 1720,
      "室": 1721,
      "宪": 1722,
      "宫": 1723,
      "害": 1724,
      "宵": 1725,
      "家": 1726,
      "容": 1727,
      "宽": 1728,
      "宾": 1729,
      "宿": 1730,
      "寂": 1731,
      "寄": 1732,
      "密": 1733,
      "富": 1734,
      "寒": 1735,
      "寓": 1736,
      "寛": 1737,
      "寝": 1738,
      "察": 1739,
      "寡": 1740,
      "實": 1741,
      "寨": 1742,
      "審": 1743,
      "寵": 1744,
      "寶": 1745,
      "寸": 1746,
      "对": 1747,
      "寻": 1748,
      "导": 1749,
      "対": 1750,
      "寿": 1751,
      "封": 1752,
      "専": 1753,
      "射": 1754,
      "将": 1755,
      "將": 1756,
      "尉": 1757,
      "尊": 1758,
      "尋": 1759,
      "對": 1760,
      "導": 1761,
      "小": 1762,
      "少": 1763,
      "尔": 1764,
      "尖": 1765,
      "尘": 1766,
      "尚": 1767,
      "尝": 1768,
      "尤": 1769,
      "就": 1770,
      "尸": 1771,
      "尺": 1772,
      "尼": 1773,
      "尽": 1774,
      "尾": 1775,
      "尿": 1776,
      "局": 1777,
      "屁": 1778,
      "层": 1779,
      "居": 1780,
      "屈": 1781,
      "届": 1782,
      "屋": 1783,
      "屌": 1784,
      "屏": 1785,
      "展": 1786,
      "属": 1787,
      "屠": 1788,
      "屡": 1789,
      "層": 1790,
      "履": 1791,
      "山": 1792,
      "屿": 1793,
      "岁": 1794,
      "岔": 1795,
      "岗": 1796,
      "岛": 1797,
      "岩": 1798,
      "岸": 1799,
      "峡": 1800,
      "峰": 1801,
      "島": 1802,
      "峻": 1803,
      "崇": 1804,
      "崎": 1805,
      "崔": 1806,
      "崛": 1807,
      "崩": 1808,
      "嵐": 1809,
      "川": 1810,
      "州": 1811,
      "巡": 1812,
      "工": 1813,
      "左": 1814,
      "巧": 1815,
      "巨": 1816,
      "巩": 1817,
      "巫": 1818,
      "差": 1819,
      "己": 1820,
      "已": 1821,
      "巴": 1822,
      "巻": 1823,
      "巾": 1824,
      "币": 1825,
      "市": 1826,
      "布": 1827,
      "帅": 1828,
      "帆": 1829,
      "师": 1830,
      "希": 1831,
      "帐": 1832,
      "帕": 1833,
      "帖": 1834,
      "帘": 1835,
      "帜": 1836,
      "帝": 1837,
      "带": 1838,
      "師": 1839,
      "席": 1840,
      "帮": 1841,
      "帯": 1842,
      "帰": 1843,
      "帳": 1844,
      "帶": 1845,
      "常": 1846,
      "帽": 1847,
      "幅": 1848,
      "幌": 1849,
      "幕": 1850,
      "幢": 1851,
      "干": 1852,
      "平": 1853,
      "年": 1854,
      "并": 1855,
      "幸": 1856,
      "幹": 1857,
      "幻": 1858,
      "幼": 1859,
      "幽": 1860,
      "幾": 1861,
      "广": 1862,
      "広": 1863,
      "庄": 1864,
      "庆": 1865,
      "庇": 1866,
      "床": 1867,
      "序": 1868,
      "库": 1869,
      "应": 1870,
      "底": 1871,
      "店": 1872,
      "府": 1873,
      "庞": 1874,
      "废": 1875,
      "度": 1876,
      "座": 1877,
      "庫": 1878,
      "庭": 1879,
      "康": 1880,
      "庸": 1881,
      "廉": 1882,
      "廊": 1883,
      "廣": 1884,
      "延": 1885,
      "廷": 1886,
      "建": 1887,
      "开": 1888,
      "弁": 1889,
      "异": 1890,
      "弃": 1891,
      "弄": 1892,
      "弊": 1893,
      "式": 1894,
      "弓": 1895,
      "引": 1896,
      "弗": 1897,
      "弘": 1898,
      "弟": 1899,
      "张": 1900,
      "弥": 1901,
      "弦": 1902,
      "弱": 1903,
      "張": 1904,
      "強": 1905,
      "弹": 1906,
      "强": 1907,
      "弾": 1908,
      "归": 1909,
      "当": 1910,
      "录": 1911,
      "形": 1912,
      "彩": 1913,
      "彪": 1914,
      "彭": 1915,
      "影": 1916,
      "彷": 1917,
      "役": 1918,
      "彻": 1919,
      "彼": 1920,
      "彿": 1921,
      "往": 1922,
      "征": 1923,
      "径": 1924,
      "待": 1925,
      "很": 1926,
      "徊": 1927,
      "律": 1928,
      "後": 1929,
      "徒": 1930,
      "従": 1931,
      "徕": 1932,
      "得": 1933,
      "徘": 1934,
      "徙": 1935,
      "從": 1936,
      "御": 1937,
      "復": 1938,
      "循": 1939,
      "微": 1940,
      "徳": 1941,
      "徴": 1942,
      "德": 1943,
      "心": 1944,
      "必": 1945,
      "忆": 1946,
      "忌": 1947,
      "忍": 1948,
      "忏": 1949,
      "忒": 1950,
      "志": 1951,
      "忘": 1952,
      "忙": 1953,
      "応": 1954,
      "忠": 1955,
      "忧": 1956,
      "快": 1957,
      "念": 1958,
      "忽": 1959,
      "怀": 1960,
      "态": 1961,
      "怂": 1962,
      "怎": 1963,
      "怒": 1964,
      "怕": 1965,
      "怖": 1966,
      "怜": 1967,
      "思": 1968,
      "怠": 1969,
      "急": 1970,
      "性": 1971,
      "怨": 1972,
      "怪": 1973,
      "怯": 1974,
      "总": 1975,
      "恋": 1976,
      "恐": 1977,
      "恒": 1978,
      "恕": 1979,
      "恢": 1980,
      "恤": 1981,
      "恥": 1982,
      "恨": 1983,
      "恩": 1984,
      "恭": 1985,
      "息": 1986,
      "恰": 1987,
      "恵": 1988,
      "恶": 1989,
      "恼": 1990,
      "恿": 1991,
      "悉": 1992,
      "悍": 1993,
      "悔": 1994,
      "悟": 1995,
      "悠": 1996,
      "患": 1997,
      "悦": 1998,
      "您": 1999,
      "悩": 2000,
      "悪": 2001,
      "悬": 2002,
      "悲": 2003,
      "悼": 2004,
      "情": 2005,
      "惊": 2006,
      "惑": 2007,
      "惕": 2008,
      "惚": 2009,
      "惜": 2010,
      "惠": 2011,
      "惡": 2012,
      "惧": 2013,
      "惨": 2014,
      "惩": 2015,
      "惯": 2016,
      "想": 2017,
      "惹": 2018,
      "愈": 2019,
      "愉": 2020,
      "意": 2021,
      "愚": 2022,
      "愛": 2023,
      "感": 2024,
      "愤": 2025,
      "愧": 2026,
      "愿": 2027,
      "慈": 2028,
      "態": 2029,
      "慌": 2030,
      "慎": 2031,
      "慕": 2032,
      "慢": 2033,
      "慣": 2034,
      "慧": 2035,
      "慨": 2036,
      "慮": 2037,
      "慰": 2038,
      "慷": 2039,
      "憂": 2040,
      "憎": 2041,
      "憑": 2042,
      "憤": 2043,
      "憩": 2044,
      "憲": 2045,
      "憶": 2046,
      "憾": 2047,
      "懂": 2048,
      "懈": 2049,
      "應": 2050,
      "懐": 2051,
      "懑": 2052,
      "懲": 2053,
      "懷": 2054,
      "懼": 2055,
      "戈": 2056,
      "戏": 2057,
      "成": 2058,
      "我": 2059,
      "戒": 2060,
      "或": 2061,
      "战": 2062,
      "戚": 2063,
      "戦": 2064,
      "截": 2065,
      "戮": 2066,
      "戯": 2067,
      "戰": 2068,
      "戲": 2069,
      "戴": 2070,
      "戶": 2071,
      "户": 2072,
      "戻": 2073,
      "房": 2074,
      "所": 2075,
      "扁": 2076,
      "扇": 2077,
      "扉": 2078,
      "手": 2079,
      "才": 2080,
      "扎": 2081,
      "扑": 2082,
      "打": 2083,
      "扔": 2084,
      "払": 2085,
      "托": 2086,
      "扣": 2087,
      "执": 2088,
      "扩": 2089,
      "扫": 2090,
      "扬": 2091,
      "扭": 2092,
      "扮": 2093,
      "扯": 2094,
      "扰": 2095,
      "扱": 2096,
      "扶": 2097,
      "批": 2098,
      "找": 2099,
      "承": 2100,
      "技": 2101,
      "抄": 2102,
      "把": 2103,
      "抑": 2104,
      "抓": 2105,
      "投": 2106,
      "抗": 2107,
      "折": 2108,
      "抚": 2109,
      "抛": 2110,
      "抜": 2111,
      "択": 2112,
      "抢": 2113,
      "护": 2114,
      "报": 2115,
      "披": 2116,
      "抱": 2117,
      "抵": 2118,
      "押": 2119,
      "抽": 2120,
      "担": 2121,
      "拆": 2122,
      "拉": 2123,
      "拋": 2124,
      "拍": 2125,
      "拐": 2126,
      "拒": 2127,
      "拓": 2128,
      "拔": 2129,
      "拖": 2130,
      "拘": 2131,
      "拙": 2132,
      "招": 2133,
      "拜": 2134,
      "拝": 2135,
      "拟": 2136,
      "拠": 2137,
      "拡": 2138,
      "拣": 2139,
      "拥": 2140,
      "拦": 2141,
      "拨": 2142,
      "择": 2143,
      "括": 2144,
      "拭": 2145,
      "拯": 2146,
      "拳": 2147,
      "拷": 2148,
      "拼": 2149,
      "拾": 2150,
      "拿": 2151,
      "持": 2152,
      "挂": 2153,
      "指": 2154,
      "按": 2155,
      "挑": 2156,
      "挖": 2157,
      "挙": 2158,
      "挚": 2159,
      "挝": 2160,
      "挠": 2161,
      "挤": 2162,
      "挥": 2163,
      "挨": 2164,
      "挪": 2165,
      "挫": 2166,
      "振": 2167,
      "挺": 2168,
      "挽": 2169,
      "挿": 2170,
      "捉": 2171,
      "捍": 2172,
      "捏": 2173,
      "捐": 2174,
      "捕": 2175,
      "捜": 2176,
      "捞": 2177,
      "损": 2178,
      "捡": 2179,
      "换": 2180,
      "捧": 2181,
      "捨": 2182,
      "据": 2183,
      "捷": 2184,
      "掀": 2185,
      "掃": 2186,
      "授": 2187,
      "掉": 2188,
      "掌": 2189,
      "排": 2190,
      "掘": 2191,
      "掛": 2192,
      "掟": 2193,
      "掠": 2194,
      "採": 2195,
      "探": 2196,
      "接": 2197,
      "控": 2198,
      "推": 2199,
      "掩": 2200,
      "措": 2201,
      "掴": 2202,
      "掺": 2203,
      "掻": 2204,
      "揉": 2205,
      "揍": 2206,
      "描": 2207,
      "提": 2208,
      "插": 2209,
      "揚": 2210,
      "換": 2211,
      "握": 2212,
      "揭": 2213,
      "揮": 2214,
      "援": 2215,
      "揺": 2216,
      "搁": 2217,
      "搅": 2218,
      "損": 2219,
      "搏": 2220,
      "搜": 2221,
      "搞": 2222,
      "搬": 2223,
      "搭": 2224,
      "携": 2225,
      "搾": 2226,
      "摂": 2227,
      "摄": 2228,
      "摆": 2229,
      "摇": 2230,
      "摊": 2231,
      "摘": 2232,
      "摧": 2233,
      "摩": 2234,
      "摸": 2235,
      "撃": 2236,
      "撑": 2237,
      "撒": 2238,
      "撕": 2239,
      "撞": 2240,
      "撤": 2241,
      "撫": 2242,
      "播": 2243,
      "撮": 2244,
      "撰": 2245,
      "擁": 2246,
      "擅": 2247,
      "擇": 2248,
      "擊": 2249,
      "操": 2250,
      "擎": 2251,
      "擔": 2252,
      "據": 2253,
      "擦": 2254,
      "攀": 2255,
      "攣": 2256,
      "支": 2257,
      "收": 2258,
      "攸": 2259,
      "改": 2260,
      "攻": 2261,
      "放": 2262,
      "政": 2263,
      "故": 2264,
      "效": 2265,
      "敌": 2266,
      "敏": 2267,
      "救": 2268,
      "敗": 2269,
      "教": 2270,
      "敞": 2271,
      "敢": 2272,
      "散": 2273,
      "敦": 2274,
      "敬": 2275,
      "数": 2276,
      "整": 2277,
      "敵": 2278,
      "敷": 2279,
      "文": 2280,
      "斉": 2281,
      "斋": 2282,
      "斐": 2283,
      "斗": 2284,
      "料": 2285,
      "斜": 2286,
      "斡": 2287,
      "斤": 2288,
      "斥": 2289,
      "斧": 2290,
      "断": 2291,
      "斯": 2292,
      "新": 2293,
      "斷": 2294,
      "方": 2295,
      "於": 2296,
      "施": 2297,
      "旁": 2298,
      "旅": 2299,
      "旋": 2300,
      "族": 2301,
      "旗": 2302,
      "无": 2303,
      "既": 2304,
      "日": 2305,
      "旦": 2306,
      "旧": 2307,
      "旨": 2308,
      "早": 2309,
      "旬": 2310,
      "旱": 2311,
      "时": 2312,
      "旺": 2313,
      "昂": 2314,
      "昇": 2315,
      "昌": 2316,
      "明": 2317,
      "昏": 2318,
      "易": 2319,
      "昔": 2320,
      "星": 2321,
      "映": 2322,
      "春": 2323,
      "昨": 2324,
      "是": 2325,
      "昼": 2326,
      "显": 2327,
      "時": 2328,
      "晋": 2329,
      "晓": 2330,
      "晚": 2331,
      "晤": 2332,
      "晨": 2333,
      "晩": 2334,
      "普": 2335,
      "景": 2336,
      "晰": 2337,
      "晴": 2338,
      "晶": 2339,
      "智": 2340,
      "暂": 2341,
      "暇": 2342,
      "暖": 2343,
      "暗": 2344,
      "暫": 2345,
      "暮": 2346,
      "暴": 2347,
      "曇": 2348,
      "曜": 2349,
      "曝": 2350,
      "曲": 2351,
      "更": 2352,
      "書": 2353,
      "曹": 2354,
      "曼": 2355,
      "曾": 2356,
      "替": 2357,
      "最": 2358,
      "會": 2359,
      "月": 2360,
      "有": 2361,
      "朋": 2362,
      "服": 2363,
      "朕": 2364,
      "朗": 2365,
      "望": 2366,
      "朝": 2367,
      "期": 2368,
      "木": 2369,
      "未": 2370,
      "末": 2371,
      "本": 2372,
      "札": 2373,
      "术": 2374,
      "朱": 2375,
      "朴": 2376,
      "朵": 2377,
      "机": 2378,
      "杀": 2379,
      "杂": 2380,
      "权": 2381,
      "杆": 2382,
      "李": 2383,
      "材": 2384,
      "村": 2385,
      "杖": 2386,
      "杜": 2387,
      "束": 2388,
      "条": 2389,
      "来": 2390,
      "杨": 2391,
      "杯": 2392,
      "杰": 2393,
      "東": 2394,
      "松": 2395,
      "板": 2396,
      "极": 2397,
      "构": 2398,
      "析": 2399,
      "林": 2400,
      "枚": 2401,
      "果": 2402,
      "枠": 2403,
      "枪": 2404,
      "枯": 2405,
      "架": 2406,
      "柄": 2407,
      "某": 2408,
      "染": 2409,
      "柔": 2410,
      "查": 2411,
      "柬": 2412,
      "柯": 2413,
      "柱": 2414,
      "柴": 2415,
      "柵": 2416,
      "査": 2417,
      "栄": 2418,
      "标": 2419,
      "栎": 2420,
      "树": 2421,
      "栓": 2422,
      "栖": 2423,
      "校": 2424,
      "株": 2425,
      "样": 2426,
      "核": 2427,
      "根": 2428,
      "格": 2429,
      "框": 2430,
      "案": 2431,
      "桌": 2432,
      "桑": 2433,
      "档": 2434,
      "桥": 2435,
      "桩": 2436,
      "桶": 2437,
      "梅": 2438,
      "條": 2439,
      "梦": 2440,
      "梨": 2441,
      "梭": 2442,
      "梯": 2443,
      "械": 2444,
      "检": 2445,
      "棄": 2446,
      "棉": 2447,
      "棋": 2448,
      "棍": 2449,
      "棒": 2450,
      "棕": 2451,
      "棘": 2452,
      "森": 2453,
      "椅": 2454,
      "植": 2455,
      "検": 2456,
      "楚": 2457,
      "楝": 2458,
      "業": 2459,
      "極": 2460,
      "楼": 2461,
      "楽": 2462,
      "概": 2463,
      "榴": 2464,
      "構": 2465,
      "様": 2466,
      "樂": 2467,
      "樓": 2468,
      "標": 2469,
      "模": 2470,
      "樣": 2471,
      "権": 2472,
      "横": 2473,
      "樫": 2474,
      "樱": 2475,
      "樹": 2476,
      "橋": 2477,
      "機": 2478,
      "檬": 2479,
      "權": 2480,
      "欠": 2481,
      "次": 2482,
      "欢": 2483,
      "欣": 2484,
      "欧": 2485,
      "欲": 2486,
      "欺": 2487,
      "款": 2488,
      "歇": 2489,
      "歉": 2490,
      "歌": 2491,
      "歡": 2492,
      "止": 2493,
      "正": 2494,
      "此": 2495,
      "步": 2496,
      "武": 2497,
      "歧": 2498,
      "歩": 2499,
      "歪": 2500,
      "歯": 2501,
      "歲": 2502,
      "歳": 2503,
      "歴": 2504,
      "歸": 2505,
      "死": 2506,
      "殉": 2507,
      "殊": 2508,
      "残": 2509,
      "殖": 2510,
      "殴": 2511,
      "段": 2512,
      "殺": 2513,
      "殿": 2514,
      "毁": 2515,
      "母": 2516,
      "毎": 2517,
      "每": 2518,
      "毒": 2519,
      "比": 2520,
      "毕": 2521,
      "毗": 2522,
      "毙": 2523,
      "毛": 2524,
      "毫": 2525,
      "氏": 2526,
      "民": 2527,
      "气": 2528,
      "気": 2529,
      "氛": 2530,
      "氟": 2531,
      "氢": 2532,
      "氧": 2533,
      "氪": 2534,
      "氯": 2535,
      "水": 2536,
      "氷": 2537,
      "永": 2538,
      "汁": 2539,
      "求": 2540,
      "汇": 2541,
      "汉": 2542,
      "汎": 2543,
      "汗": 2544,
      "汚": 2545,
      "汞": 2546,
      "江": 2547,
      "池": 2548,
      "污": 2549,
      "汶": 2550,
      "汹": 2551,
      "決": 2552,
      "汽": 2553,
      "沃": 2554,
      "沈": 2555,
      "沉": 2556,
      "沒": 2557,
      "沖": 2558,
      "沙": 2559,
      "沛": 2560,
      "沟": 2561,
      "没": 2562,
      "沢": 2563,
      "沦": 2564,
      "沮": 2565,
      "河": 2566,
      "沸": 2567,
      "油": 2568,
      "治": 2569,
      "沼": 2570,
      "沾": 2571,
      "沿": 2572,
      "況": 2573,
      "泄": 2574,
      "泉": 2575,
      "泊": 2576,
      "法": 2577,
      "泛": 2578,
      "泡": 2579,
      "波": 2580,
      "泣": 2581,
      "泥": 2582,
      "注": 2583,
      "泰": 2584,
      "泳": 2585,
      "泽": 2586,
      "洁": 2587,
      "洋": 2588,
      "洗": 2589,
      "洛": 2590,
      "洞": 2591,
      "津": 2592,
      "洪": 2593,
      "洲": 2594,
      "活": 2595,
      "洽": 2596,
      "派": 2597,
      "流": 2598,
      "浄": 2599,
      "浅": 2600,
      "测": 2601,
      "济": 2602,
      "浑": 2603,
      "浓": 2604,
      "浦": 2605,
      "浩": 2606,
      "浪": 2607,
      "浮": 2608,
      "浴": 2609,
      "海": 2610,
      "涅": 2611,
      "消": 2612,
      "涉": 2613,
      "润": 2614,
      "涨": 2615,
      "涯": 2616,
      "液": 2617,
      "涵": 2618,
      "涼": 2619,
      "淡": 2620,
      "淫": 2621,
      "深": 2622,
      "淳": 2623,
      "混": 2624,
      "淹": 2625,
      "添": 2626,
      "清": 2627,
      "渇": 2628,
      "済": 2629,
      "渉": 2630,
      "渋": 2631,
      "渐": 2632,
      "渔": 2633,
      "減": 2634,
      "渠": 2635,
      "渡": 2636,
      "温": 2637,
      "測": 2638,
      "港": 2639,
      "游": 2640,
      "湖": 2641,
      "湾": 2642,
      "満": 2643,
      "溃": 2644,
      "溉": 2645,
      "源": 2646,
      "準": 2647,
      "溜": 2648,
      "溢": 2649,
      "溫": 2650,
      "溯": 2651,
      "溶": 2652,
      "溺": 2653,
      "滅": 2654,
      "滋": 2655,
      "滑": 2656,
      "滔": 2657,
      "滚": 2658,
      "滞": 2659,
      "满": 2660,
      "滥": 2661,
      "滩": 2662,
      "滴": 2663,
      "漂": 2664,
      "漆": 2665,
      "漏": 2666,
      "演": 2667,
      "漠": 2668,
      "漫": 2669,
      "漱": 2670,
      "潘": 2671,
      "潜": 2672,
      "潭": 2673,
      "潮": 2674,
      "潰": 2675,
      "澄": 2676,
      "澤": 2677,
      "澪": 2678,
      "澳": 2679,
      "激": 2680,
      "濟": 2681,
      "濡": 2682,
      "灌": 2683,
      "火": 2684,
      "灭": 2685,
      "灰": 2686,
      "灵": 2687,
      "灶": 2688,
      "災": 2689,
      "灾": 2690,
      "炉": 2691,
      "炎": 2692,
      "炒": 2693,
      "炬": 2694,
      "炮": 2695,
      "炸": 2696,
      "点": 2697,
      "為": 2698,
      "炼": 2699,
      "烁": 2700,
      "烂": 2701,
      "烃": 2702,
      "烈": 2703,
      "烏": 2704,
      "烘": 2705,
      "烟": 2706,
      "烤": 2707,
      "烦": 2708,
      "烧": 2709,
      "烫": 2710,
      "热": 2711,
      "烯": 2712,
      "焚": 2713,
      "無": 2714,
      "焦": 2715,
      "焰": 2716,
      "然": 2717,
      "焼": 2718,
      "煙": 2719,
      "煞": 2720,
      "照": 2721,
      "煩": 2722,
      "煮": 2723,
      "煽": 2724,
      "熊": 2725,
      "熏": 2726,
      "熔": 2727,
      "熟": 2728,
      "熱": 2729,
      "燃": 2730,
      "燒": 2731,
      "爆": 2732,
      "爪": 2733,
      "爬": 2734,
      "爭": 2735,
      "爱": 2736,
      "爵": 2737,
      "父": 2738,
      "爷": 2739,
      "爸": 2740,
      "爹": 2741,
      "爺": 2742,
      "爽": 2743,
      "爾": 2744,
      "片": 2745,
      "版": 2746,
      "牌": 2747,
      "牙": 2748,
      "牛": 2749,
      "牢": 2750,
      "牧": 2751,
      "物": 2752,
      "牲": 2753,
      "牵": 2754,
      "特": 2755,
      "犠": 2756,
      "犬": 2757,
      "犯": 2758,
      "犰": 2759,
      "状": 2760,
      "犹": 2761,
      "狀": 2762,
      "狂": 2763,
      "狗": 2764,
      "狙": 2765,
      "狡": 2766,
      "狩": 2767,
      "独": 2768,
      "狭": 2769,
      "狱": 2770,
      "狳": 2771,
      "狼": 2772,
      "猎": 2773,
      "猖": 2774,
      "猛": 2775,
      "猜": 2776,
      "猟": 2777,
      "猪": 2778,
      "猫": 2779,
      "献": 2780,
      "猴": 2781,
      "猶": 2782,
      "猾": 2783,
      "猿": 2784,
      "獄": 2785,
      "獗": 2786,
      "獣": 2787,
      "玄": 2788,
      "率": 2789,
      "玉": 2790,
      "王": 2791,
      "玛": 2792,
      "玡": 2793,
      "玩": 2794,
      "环": 2795,
      "现": 2796,
      "玻": 2797,
      "珀": 2798,
      "珍": 2799,
      "珠": 2800,
      "班": 2801,
      "現": 2802,
      "球": 2803,
      "理": 2804,
      "琌": 2805,
      "琛": 2806,
      "琪": 2807,
      "琴": 2808,
      "琼": 2809,
      "瑞": 2810,
      "瑟": 2811,
      "瑪": 2812,
      "璧": 2813,
      "璶": 2814,
      "瓁": 2815,
      "瓜": 2816,
      "瓦": 2817,
      "瓶": 2818,
      "甄": 2819,
      "甘": 2820,
      "甚": 2821,
      "甜": 2822,
      "生": 2823,
      "產": 2824,
      "産": 2825,
      "用": 2826,
      "田": 2827,
      "由": 2828,
      "甲": 2829,
      "申": 2830,
      "电": 2831,
      "男": 2832,
      "甸": 2833,
      "町": 2834,
      "画": 2835,
      "界": 2836,
      "畍": 2837,
      "畏": 2838,
      "畑": 2839,
      "留": 2840,
      "畜": 2841,
      "略": 2842,
      "番": 2843,
      "畫": 2844,
      "異": 2845,
      "畴": 2846,
      "當": 2847,
      "疆": 2848,
      "疏": 2849,
      "疑": 2850,
      "疗": 2851,
      "疤": 2852,
      "疫": 2853,
      "疯": 2854,
      "疲": 2855,
      "疼": 2856,
      "疾": 2857,
      "病": 2858,
      "症": 2859,
      "痊": 2860,
      "痒": 2861,
      "痙": 2862,
      "痛": 2863,
      "痢": 2864,
      "痴": 2865,
      "痷": 2866,
      "瘍": 2867,
      "瘤": 2868,
      "瘦": 2869,
      "瘾": 2870,
      "療": 2871,
      "癌": 2872,
      "発": 2873,
      "登": 2874,
      "發": 2875,
      "白": 2876,
      "百": 2877,
      "的": 2878,
      "皆": 2879,
      "皇": 2880,
      "皮": 2881,
      "盆": 2882,
      "盈": 2883,
      "益": 2884,
      "盐": 2885,
      "监": 2886,
      "盔": 2887,
      "盖": 2888,
      "盗": 2889,
      "盘": 2890,
      "盛": 2891,
      "盟": 2892,
      "盡": 2893,
      "監": 2894,
      "盤": 2895,
      "盧": 2896,
      "目": 2897,
      "盲": 2898,
      "直": 2899,
      "相": 2900,
      "盾": 2901,
      "省": 2902,
      "眈": 2903,
      "眉": 2904,
      "看": 2905,
      "県": 2906,
      "真": 2907,
      "眠": 2908,
      "眩": 2909,
      "眺": 2910,
      "眼": 2911,
      "眾": 2912,
      "着": 2913,
      "睛": 2914,
      "睡": 2915,
      "督": 2916,
      "睦": 2917,
      "睫": 2918,
      "睬": 2919,
      "睹": 2920,
      "瞄": 2921,
      "瞏": 2922,
      "瞒": 2923,
      "瞧": 2924,
      "瞬": 2925,
      "瞭": 2926,
      "瞰": 2927,
      "瞷": 2928,
      "矓": 2929,
      "矛": 2930,
      "知": 2931,
      "短": 2932,
      "石": 2933,
      "矿": 2934,
      "码": 2935,
      "砂": 2936,
      "砍": 2937,
      "研": 2938,
      "砲": 2939,
      "破": 2940,
      "础": 2941,
      "硂": 2942,
      "硫": 2943,
      "硬": 2944,
      "确": 2945,
      "碉": 2946,
      "碍": 2947,
      "碎": 2948,
      "碑": 2949,
      "碟": 2950,
      "碭": 2951,
      "碰": 2952,
      "碱": 2953,
      "碳": 2954,
      "確": 2955,
      "磁": 2956,
      "磋": 2957,
      "磨": 2958,
      "磺": 2959,
      "礎": 2960,
      "礙": 2961,
      "礛": 2962,
      "示": 2963,
      "礼": 2964,
      "社": 2965,
      "祈": 2966,
      "祉": 2967,
      "祐": 2968,
      "祖": 2969,
      "祜": 2970,
      "祝": 2971,
      "神": 2972,
      "票": 2973,
      "祭": 2974,
      "祷": 2975,
      "祸": 2976,
      "禁": 2977,
      "禄": 2978,
      "福": 2979,
      "离": 2980,
      "秀": 2981,
      "私": 2982,
      "秃": 2983,
      "种": 2984,
      "科": 2985,
      "秒": 2986,
      "秘": 2987,
      "租": 2988,
      "秦": 2989,
      "秩": 2990,
      "积": 2991,
      "称": 2992,
      "移": 2993,
      "秽": 2994,
      "稀": 2995,
      "程": 2996,
      "稍": 2997,
      "税": 2998,
      "稣": 2999,
      "種": 3000,
      "稱": 3001,
      "稳": 3002,
      "稼": 3003,
      "稽": 3004,
      "稿": 3005,
      "穀": 3006,
      "穆": 3007,
      "積": 3008,
      "穏": 3009,
      "穗": 3010,
      "穢": 3011,
      "穫": 3012,
      "穴": 3013,
      "究": 3014,
      "穷": 3015,
      "空": 3016,
      "穿": 3017,
      "突": 3018,
      "窃": 3019,
      "窒": 3020,
      "窓": 3021,
      "窗": 3022,
      "窟": 3023,
      "窮": 3024,
      "立": 3025,
      "竒": 3026,
      "站": 3027,
      "竜": 3028,
      "竞": 3029,
      "竟": 3030,
      "章": 3031,
      "童": 3032,
      "竭": 3033,
      "端": 3034,
      "競": 3035,
      "竹": 3036,
      "笑": 3037,
      "笔": 3038,
      "笛": 3039,
      "符": 3040,
      "笨": 3041,
      "第": 3042,
      "笵": 3043,
      "筁": 3044,
      "筈": 3045,
      "等": 3046,
      "筋": 3047,
      "筑": 3048,
      "答": 3049,
      "策": 3050,
      "筹": 3051,
      "签": 3052,
      "简": 3053,
      "算": 3054,
      "管": 3055,
      "箭": 3056,
      "箱": 3057,
      "節": 3058,
      "範": 3059,
      "篇": 3060,
      "築": 3061,
      "篑": 3062,
      "篭": 3063,
      "篮": 3064,
      "簡": 3065,
      "簿": 3066,
      "籍": 3067,
      "籠": 3068,
      "米": 3069,
      "类": 3070,
      "粄": 3071,
      "粉": 3072,
      "粒": 3073,
      "粕": 3074,
      "粗": 3075,
      "粟": 3076,
      "粥": 3077,
      "粪": 3078,
      "粮": 3079,
      "粹": 3080,
      "精": 3081,
      "糒": 3082,
      "糕": 3083,
      "糖": 3084,
      "糞": 3085,
      "糟": 3086,
      "糧": 3087,
      "系": 3088,
      "糾": 3089,
      "紀": 3090,
      "約": 3091,
      "紅": 3092,
      "紋": 3093,
      "納": 3094,
      "純": 3095,
      "紙": 3096,
      "級": 3097,
      "素": 3098,
      "索": 3099,
      "紧": 3100,
      "紫": 3101,
      "累": 3102,
      "細": 3103,
      "紹": 3104,
      "終": 3105,
      "組": 3106,
      "絆": 3107,
      "経": 3108,
      "結": 3109,
      "絕": 3110,
      "絞": 3111,
      "絡": 3112,
      "給": 3113,
      "統": 3114,
      "絵": 3115,
      "絶": 3116,
      "經": 3117,
      "継": 3118,
      "続": 3119,
      "維": 3120,
      "綱": 3121,
      "網": 3122,
      "綴": 3123,
      "綺": 3124,
      "緊": 3125,
      "総": 3126,
      "緑": 3127,
      "緒": 3128,
      "線": 3129,
      "締": 3130,
      "編": 3131,
      "緩": 3132,
      "緯": 3133,
      "練": 3134,
      "縁": 3135,
      "縄": 3136,
      "縛": 3137,
      "縞": 3138,
      "縮": 3139,
      "繁": 3140,
      "繋": 3141,
      "織": 3142,
      "繰": 3143,
      "繷": 3144,
      "纂": 3145,
      "纠": 3146,
      "红": 3147,
      "约": 3148,
      "级": 3149,
      "纪": 3150,
      "纯": 3151,
      "纱": 3152,
      "纲": 3153,
      "纳": 3154,
      "纵": 3155,
      "纷": 3156,
      "纸": 3157,
      "纽": 3158,
      "线": 3159,
      "练": 3160,
      "组": 3161,
      "细": 3162,
      "织": 3163,
      "终": 3164,
      "绊": 3165,
      "绌": 3166,
      "绍": 3167,
      "经": 3168,
      "绑": 3169,
      "结": 3170,
      "绕": 3171,
      "绘": 3172,
      "给": 3173,
      "络": 3174,
      "绝": 3175,
      "统": 3176,
      "继": 3177,
      "绩": 3178,
      "绪": 3179,
      "续": 3180,
      "绯": 3181,
      "绳": 3182,
      "维": 3183,
      "绸": 3184,
      "综": 3185,
      "绿": 3186,
      "缅": 3187,
      "缆": 3188,
      "缉": 3189,
      "缓": 3190,
      "缔": 3191,
      "缕": 3192,
      "编": 3193,
      "缘": 3194,
      "缩": 3195,
      "缮": 3196,
      "缴": 3197,
      "缶": 3198,
      "缺": 3199,
      "罂": 3200,
      "网": 3201,
      "罕": 3202,
      "罗": 3203,
      "罚": 3204,
      "罢": 3205,
      "罩": 3206,
      "罪": 3207,
      "置": 3208,
      "罰": 3209,
      "署": 3210,
      "罵": 3211,
      "羁": 3212,
      "羅": 3213,
      "羊": 3214,
      "美": 3215,
      "羞": 3216,
      "群": 3217,
      "義": 3218,
      "羽": 3219,
      "翁": 3220,
      "翅": 3221,
      "翌": 3222,
      "習": 3223,
      "翠": 3224,
      "翰": 3225,
      "翴": 3226,
      "翻": 3227,
      "翼": 3228,
      "耀": 3229,
      "老": 3230,
      "考": 3231,
      "者": 3232,
      "而": 3233,
      "耍": 3234,
      "耐": 3235,
      "耕": 3236,
      "耗": 3237,
      "耳": 3238,
      "耶": 3239,
      "耻": 3240,
      "耽": 3241,
      "聊": 3242,
      "聋": 3243,
      "职": 3244,
      "联": 3245,
      "聖": 3246,
      "聘": 3247,
      "聚": 3248,
      "聞": 3249,
      "聪": 3250,
      "聰": 3251,
      "聴": 3252,
      "職": 3253,
      "聽": 3254,
      "肃": 3255,
      "肆": 3256,
      "肇": 3257,
      "肉": 3258,
      "肋": 3259,
      "肌": 3260,
      "肚": 3261,
      "肛": 3262,
      "肝": 3263,
      "肠": 3264,
      "股": 3265,
      "肢": 3266,
      "肤": 3267,
      "肥": 3268,
      "肩": 3269,
      "肯": 3270,
      "育": 3271,
      "肺": 3272,
      "胀": 3273,
      "胁": 3274,
      "胃": 3275,
      "胆": 3276,
      "背": 3277,
      "胖": 3278,
      "胚": 3279,
      "胜": 3280,
      "胞": 3281,
      "胡": 3282,
      "胳": 3283,
      "胶": 3284,
      "胸": 3285,
      "胺": 3286,
      "能": 3287,
      "脅": 3288,
      "脆": 3289,
      "脈": 3290,
      "脉": 3291,
      "脊": 3292,
      "脏": 3293,
      "脑": 3294,
      "脖": 3295,
      "脚": 3296,
      "脯": 3297,
      "脱": 3298,
      "脳": 3299,
      "脸": 3300,
      "脹": 3301,
      "腊": 3302,
      "腐": 3303,
      "腕": 3304,
      "腥": 3305,
      "腦": 3306,
      "腫": 3307,
      "腰": 3308,
      "腱": 3309,
      "腳": 3310,
      "腸": 3311,
      "腹": 3312,
      "腺": 3313,
      "腾": 3314,
      "腿": 3315,
      "膀": 3316,
      "膊": 3317,
      "膜": 3318,
      "膝": 3319,
      "膨": 3320,
      "臂": 3321,
      "臓": 3322,
      "臥": 3323,
      "臨": 3324,
      "自": 3325,
      "臭": 3326,
      "至": 3327,
      "致": 3328,
      "舆": 3329,
      "與": 3330,
      "興": 3331,
      "舌": 3332,
      "舍": 3333,
      "舎": 3334,
      "舒": 3335,
      "舞": 3336,
      "舟": 3337,
      "舧": 3338,
      "航": 3339,
      "般": 3340,
      "舰": 3341,
      "舱": 3342,
      "舶": 3343,
      "舷": 3344,
      "船": 3345,
      "艇": 3346,
      "艘": 3347,
      "艦": 3348,
      "良": 3349,
      "艰": 3350,
      "色": 3351,
      "艺": 3352,
      "艾": 3353,
      "节": 3354,
      "芝": 3355,
      "芬": 3356,
      "芯": 3357,
      "花": 3358,
      "芸": 3359,
      "芽": 3360,
      "苏": 3361,
      "苗": 3362,
      "若": 3363,
      "苦": 3364,
      "英": 3365,
      "范": 3366,
      "茄": 3367,
      "茎": 3368,
      "茜": 3369,
      "茨": 3370,
      "茶": 3371,
      "草": 3372,
      "荐": 3373,
      "荒": 3374,
      "荡": 3375,
      "荣": 3376,
      "荧": 3377,
      "药": 3378,
      "荷": 3379,
      "莉": 3380,
      "莎": 3381,
      "莓": 3382,
      "莫": 3383,
      "莱": 3384,
      "获": 3385,
      "菌": 3386,
      "菜": 3387,
      "華": 3388,
      "菲": 3389,
      "萄": 3390,
      "萊": 3391,
      "萌": 3392,
      "萝": 3393,
      "营": 3394,
      "萨": 3395,
      "萬": 3396,
      "落": 3397,
      "葉": 3398,
      "著": 3399,
      "葡": 3400,
      "董": 3401,
      "葬": 3402,
      "蒂": 3403,
      "蒔": 3404,
      "蒙": 3405,
      "蓄": 3406,
      "蓝": 3407,
      "蓬": 3408,
      "蔑": 3409,
      "蔬": 3410,
      "蔽": 3411,
      "薄": 3412,
      "薪": 3413,
      "薬": 3414,
      "薯": 3415,
      "藉": 3416,
      "藏": 3417,
      "藝": 3418,
      "蘇": 3419,
      "蘭": 3420,
      "虎": 3421,
      "虐": 3422,
      "虑": 3423,
      "虔": 3424,
      "虚": 3425,
      "號": 3426,
      "虫": 3427,
      "虽": 3428,
      "蚁": 3429,
      "蚂": 3430,
      "蚊": 3431,
      "蛇": 3432,
      "蛋": 3433,
      "蛍": 3434,
      "蛛": 3435,
      "蛮": 3436,
      "蜂": 3437,
      "蜘": 3438,
      "蜜": 3439,
      "蜡": 3440,
      "蝎": 3441,
      "蝦": 3442,
      "融": 3443,
      "螘": 3444,
      "螠": 3445,
      "蟽": 3446,
      "蟿": 3447,
      "蠅": 3448,
      "蠢": 3449,
      "血": 3450,
      "衅": 3451,
      "衆": 3452,
      "行": 3453,
      "術": 3454,
      "衔": 3455,
      "街": 3456,
      "衛": 3457,
      "衝": 3458,
      "衡": 3459,
      "衣": 3460,
      "补": 3461,
      "表": 3462,
      "衰": 3463,
      "衷": 3464,
      "袋": 3465,
      "袒": 3466,
      "袖": 3467,
      "袜": 3468,
      "被": 3469,
      "袭": 3470,
      "裁": 3471,
      "裂": 3472,
      "装": 3473,
      "裏": 3474,
      "裔": 3475,
      "裙": 3476,
      "補": 3477,
      "裡": 3478,
      "裤": 3479,
      "裸": 3480,
      "製": 3481,
      "複": 3482,
      "褐": 3483,
      "褲": 3484,
      "襲": 3485,
      "西": 3486,
      "要": 3487,
      "覆": 3488,
      "覇": 3489,
      "見": 3490,
      "規": 3491,
      "視": 3492,
      "覚": 3493,
      "覧": 3494,
      "親": 3495,
      "観": 3496,
      "覺": 3497,
      "觀": 3498,
      "见": 3499,
      "观": 3500,
      "规": 3501,
      "视": 3502,
      "览": 3503,
      "觉": 3504,
      "觎": 3505,
      "觑": 3506,
      "角": 3507,
      "解": 3508,
      "触": 3509,
      "言": 3510,
      "計": 3511,
      "訊": 3512,
      "討": 3513,
      "託": 3514,
      "記": 3515,
      "訟": 3516,
      "訣": 3517,
      "訪": 3518,
      "設": 3519,
      "許": 3520,
      "訳": 3521,
      "訴": 3522,
      "診": 3523,
      "証": 3524,
      "評": 3525,
      "詞": 3526,
      "試": 3527,
      "詩": 3528,
      "詮": 3529,
      "詰": 3530,
      "話": 3531,
      "該": 3532,
      "詳": 3533,
      "誇": 3534,
      "誉": 3535,
      "認": 3536,
      "誒": 3537,
      "誓": 3538,
      "誕": 3539,
      "誘": 3540,
      "語": 3541,
      "誠": 3542,
      "誤": 3543,
      "誦": 3544,
      "說": 3545,
      "説": 3546,
      "読": 3547,
      "誰": 3548,
      "課": 3549,
      "調": 3550,
      "談": 3551,
      "請": 3552,
      "論": 3553,
      "諜": 3554,
      "諦": 3555,
      "諸": 3556,
      "諾": 3557,
      "謀": 3558,
      "謎": 3559,
      "謗": 3560,
      "謙": 3561,
      "謝": 3562,
      "證": 3563,
      "識": 3564,
      "警": 3565,
      "譬": 3566,
      "議": 3567,
      "譴": 3568,
      "護": 3569,
      "讀": 3570,
      "讃": 3571,
      "變": 3572,
      "讐": 3573,
      "讓": 3574,
      "计": 3575,
      "订": 3576,
      "认": 3577,
      "讨": 3578,
      "让": 3579,
      "训": 3580,
      "议": 3581,
      "讯": 3582,
      "记": 3583,
      "讲": 3584,
      "讳": 3585,
      "讶": 3586,
      "许": 3587,
      "论": 3588,
      "讼": 3589,
      "设": 3590,
      "访": 3591,
      "证": 3592,
      "评": 3593,
      "诅": 3594,
      "识": 3595,
      "诉": 3596,
      "诊": 3597,
      "词": 3598,
      "译": 3599,
      "试": 3600,
      "诗": 3601,
      "诚": 3602,
      "话": 3603,
      "诞": 3604,
      "诡": 3605,
      "询": 3606,
      "该": 3607,
      "详": 3608,
      "诫": 3609,
      "语": 3610,
      "误": 3611,
      "诱": 3612,
      "说": 3613,
      "请": 3614,
      "诸": 3615,
      "诺": 3616,
      "读": 3617,
      "诽": 3618,
      "课": 3619,
      "谁": 3620,
      "调": 3621,
      "谅": 3622,
      "谈": 3623,
      "谋": 3624,
      "谎": 3625,
      "谐": 3626,
      "谓": 3627,
      "谘": 3628,
      "谜": 3629,
      "谢": 3630,
      "谣": 3631,
      "谤": 3632,
      "谦": 3633,
      "谨": 3634,
      "谬": 3635,
      "谴": 3636,
      "谷": 3637,
      "豁": 3638,
      "豆": 3639,
      "豊": 3640,
      "豖": 3641,
      "豚": 3642,
      "象": 3643,
      "豪": 3644,
      "貝": 3645,
      "負": 3646,
      "財": 3647,
      "貧": 3648,
      "貨": 3649,
      "販": 3650,
      "貪": 3651,
      "責": 3652,
      "貰": 3653,
      "貴": 3654,
      "買": 3655,
      "貸": 3656,
      "費": 3657,
      "資": 3658,
      "賈": 3659,
      "賊": 3660,
      "賑": 3661,
      "賛": 3662,
      "賜": 3663,
      "賞": 3664,
      "賢": 3665,
      "賣": 3666,
      "質": 3667,
      "賭": 3668,
      "購": 3669,
      "贅": 3670,
      "贝": 3671,
      "贞": 3672,
      "负": 3673,
      "贡": 3674,
      "财": 3675,
      "责": 3676,
      "败": 3677,
      "账": 3678,
      "货": 3679,
      "质": 3680,
      "贩": 3681,
      "贫": 3682,
      "贬": 3683,
      "购": 3684,
      "贮": 3685,
      "贯": 3686,
      "贱": 3687,
      "贴": 3688,
      "贵": 3689,
      "贷": 3690,
      "贸": 3691,
      "费": 3692,
      "贺": 3693,
      "贾": 3694,
      "贿": 3695,
      "赂": 3696,
      "资": 3697,
      "赋": 3698,
      "赌": 3699,
      "赏": 3700,
      "赐": 3701,
      "赔": 3702,
      "赖": 3703,
      "赚": 3704,
      "赛": 3705,
      "赞": 3706,
      "赠": 3707,
      "赢": 3708,
      "赤": 3709,
      "赦": 3710,
      "赫": 3711,
      "走": 3712,
      "赵": 3713,
      "赶": 3714,
      "起": 3715,
      "趁": 3716,
      "超": 3717,
      "越": 3718,
      "趋": 3719,
      "趣": 3720,
      "足": 3721,
      "趴": 3722,
      "跌": 3723,
      "跑": 3724,
      "距": 3725,
      "跟": 3726,
      "跡": 3727,
      "跨": 3728,
      "跪": 3729,
      "路": 3730,
      "跳": 3731,
      "践": 3732,
      "踊": 3733,
      "踏": 3734,
      "踝": 3735,
      "踢": 3736,
      "踪": 3737,
      "踯": 3738,
      "蹂": 3739,
      "蹟": 3740,
      "躁": 3741,
      "躅": 3742,
      "躇": 3743,
      "躊": 3744,
      "躏": 3745,
      "身": 3746,
      "躯": 3747,
      "躲": 3748,
      "車": 3749,
      "軍": 3750,
      "転": 3751,
      "軽": 3752,
      "較": 3753,
      "載": 3754,
      "輕": 3755,
      "輝": 3756,
      "輩": 3757,
      "輪": 3758,
      "輸": 3759,
      "轉": 3760,
      "车": 3761,
      "轨": 3762,
      "转": 3763,
      "轮": 3764,
      "软": 3765,
      "轰": 3766,
      "轻": 3767,
      "载": 3768,
      "轿": 3769,
      "较": 3770,
      "辅": 3771,
      "辆": 3772,
      "辈": 3773,
      "辍": 3774,
      "辐": 3775,
      "辑": 3776,
      "输": 3777,
      "辖": 3778,
      "辛": 3779,
      "辜": 3780,
      "辞": 3781,
      "辣": 3782,
      "辨": 3783,
      "辩": 3784,
      "辭": 3785,
      "辱": 3786,
      "農": 3787,
      "边": 3788,
      "辺": 3789,
      "込": 3790,
      "辽": 3791,
      "达": 3792,
      "辿": 3793,
      "迁": 3794,
      "迄": 3795,
      "迅": 3796,
      "过": 3797,
      "迈": 3798,
      "迎": 3799,
      "运": 3800,
      "近": 3801,
      "返": 3802,
      "还": 3803,
      "这": 3804,
      "进": 3805,
      "远": 3806,
      "违": 3807,
      "连": 3808,
      "迟": 3809,
      "迪": 3810,
      "迫": 3811,
      "述": 3812,
      "迷": 3813,
      "迹": 3814,
      "追": 3815,
      "退": 3816,
      "送": 3817,
      "适": 3818,
      "逃": 3819,
      "逆": 3820,
      "选": 3821,
      "逊": 3822,
      "透": 3823,
      "逐": 3824,
      "递": 3825,
      "途": 3826,
      "逗": 3827,
      "這": 3828,
      "通": 3829,
      "逝": 3830,
      "速": 3831,
      "造": 3832,
      "連": 3833,
      "逮": 3834,
      "週": 3835,
      "進": 3836,
      "逻": 3837,
      "逼": 3838,
      "逾": 3839,
      "遂": 3840,
      "遅": 3841,
      "遇": 3842,
      "遊": 3843,
      "運": 3844,
      "遍": 3845,
      "過": 3846,
      "道": 3847,
      "達": 3848,
      "違": 3849,
      "遗": 3850,
      "遙": 3851,
      "遠": 3852,
      "遣": 3853,
      "遥": 3854,
      "適": 3855,
      "遭": 3856,
      "遮": 3857,
      "遵": 3858,
      "選": 3859,
      "遺": 3860,
      "避": 3861,
      "邀": 3862,
      "還": 3863,
      "邊": 3864,
      "那": 3865,
      "邦": 3866,
      "邪": 3867,
      "邮": 3868,
      "邱": 3869,
      "邸": 3870,
      "邻": 3871,
      "郁": 3872,
      "郊": 3873,
      "郎": 3874,
      "郑": 3875,
      "郡": 3876,
      "部": 3877,
      "郷": 3878,
      "都": 3879,
      "酋": 3880,
      "酌": 3881,
      "配": 3882,
      "酒": 3883,
      "酔": 3884,
      "酬": 3885,
      "酰": 3886,
      "酱": 3887,
      "酵": 3888,
      "酷": 3889,
      "酸": 3890,
      "醉": 3891,
      "醋": 3892,
      "醒": 3893,
      "醫": 3894,
      "采": 3895,
      "釈": 3896,
      "释": 3897,
      "里": 3898,
      "重": 3899,
      "野": 3900,
      "量": 3901,
      "金": 3902,
      "釘": 3903,
      "針": 3904,
      "釣": 3905,
      "鉄": 3906,
      "鉴": 3907,
      "銀": 3908,
      "銃": 3909,
      "銅": 3910,
      "銘": 3911,
      "鋭": 3912,
      "鋼": 3913,
      "錄": 3914,
      "錠": 3915,
      "錢": 3916,
      "錬": 3917,
      "錯": 3918,
      "録": 3919,
      "鍵": 3920,
      "鎖": 3921,
      "鏡": 3922,
      "鑰": 3923,
      "针": 3924,
      "钉": 3925,
      "钓": 3926,
      "钚": 3927,
      "钞": 3928,
      "钟": 3929,
      "钢": 3930,
      "钥": 3931,
      "钩": 3932,
      "钮": 3933,
      "钱": 3934,
      "钻": 3935,
      "铀": 3936,
      "铁": 3937,
      "铃": 3938,
      "铅": 3939,
      "铐": 3940,
      "铪": 3941,
      "铭": 3942,
      "银": 3943,
      "链": 3944,
      "销": 3945,
      "锁": 3946,
      "锌": 3947,
      "锐": 3948,
      "错": 3949,
      "锡": 3950,
      "锥": 3951,
      "锦": 3952,
      "键": 3953,
      "镇": 3954,
      "镉": 3955,
      "镑": 3956,
      "镜": 3957,
      "長": 3958,
      "长": 3959,
      "門": 3960,
      "閉": 3961,
      "開": 3962,
      "間": 3963,
      "関": 3964,
      "闇": 3965,
      "闖": 3966,
      "闘": 3967,
      "關": 3968,
      "闡": 3969,
      "门": 3970,
      "闪": 3971,
      "闭": 3972,
      "问": 3973,
      "闯": 3974,
      "闲": 3975,
      "间": 3976,
      "闹": 3977,
      "闻": 3978,
      "阀": 3979,
      "阁": 3980,
      "阅": 3981,
      "阉": 3982,
      "阎": 3983,
      "阐": 3984,
      "阔": 3985,
      "队": 3986,
      "阱": 3987,
      "防": 3988,
      "阳": 3989,
      "阴": 3990,
      "阵": 3991,
      "阶": 3992,
      "阻": 3993,
      "阿": 3994,
      "陀": 3995,
      "附": 3996,
      "际": 3997,
      "陆": 3998,
      "陈": 3999,
      "陋": 4000,
      "陌": 4001,
      "降": 4002,
      "限": 4003,
      "陛": 4004,
      "院": 4005,
      "陣": 4006,
      "除": 4007,
      "陥": 4008,
      "险": 4009,
      "陪": 4010,
      "陰": 4011,
      "陶": 4012,
      "陷": 4013,
      "陸": 4014,
      "険": 4015,
      "陽": 4016,
      "隅": 4017,
      "隆": 4018,
      "隊": 4019,
      "階": 4020,
      "随": 4021,
      "隐": 4022,
      "隔": 4023,
      "隕": 4024,
      "隘": 4025,
      "際": 4026,
      "障": 4027,
      "隠": 4028,
      "隣": 4029,
      "險": 4030,
      "隱": 4031,
      "隷": 4032,
      "隻": 4033,
      "难": 4034,
      "雄": 4035,
      "雅": 4036,
      "集": 4037,
      "雇": 4038,
      "雑": 4039,
      "雕": 4040,
      "雜": 4041,
      "離": 4042,
      "難": 4043,
      "雨": 4044,
      "雪": 4045,
      "雲": 4046,
      "零": 4047,
      "雷": 4048,
      "電": 4049,
      "雾": 4050,
      "需": 4051,
      "震": 4052,
      "霊": 4053,
      "霍": 4054,
      "霖": 4055,
      "霞": 4056,
      "霰": 4057,
      "露": 4058,
      "霸": 4059,
      "青": 4060,
      "静": 4061,
      "靜": 4062,
      "非": 4063,
      "靠": 4064,
      "面": 4065,
      "革": 4066,
      "靴": 4067,
      "靶": 4068,
      "鞋": 4069,
      "鞏": 4070,
      "鞭": 4071,
      "韓": 4072,
      "韦": 4073,
      "韩": 4074,
      "音": 4075,
      "響": 4076,
      "頂": 4077,
      "頃": 4078,
      "項": 4079,
      "順": 4080,
      "須": 4081,
      "頌": 4082,
      "預": 4083,
      "頑": 4084,
      "頓": 4085,
      "領": 4086,
      "頭": 4087,
      "頻": 4088,
      "頼": 4089,
      "題": 4090,
      "額": 4091,
      "顔": 4092,
      "顕": 4093,
      "願": 4094,
      "類": 4095,
      "页": 4096,
      "顶": 4097,
      "顷": 4098,
      "项": 4099,
      "顺": 4100,
      "须": 4101,
      "顽": 4102,
      "顾": 4103,
      "顿": 4104,
      "颁": 4105,
      "预": 4106,
      "领": 4107,
      "颇": 4108,
      "颈": 4109,
      "颐": 4110,
      "颗": 4111,
      "题": 4112,
      "颜": 4113,
      "额": 4114,
      "颠": 4115,
      "風": 4116,
      "风": 4117,
      "飘": 4118,
      "飛": 4119,
      "飞": 4120,
      "食": 4121,
      "飢": 4122,
      "飯": 4123,
      "飲": 4124,
      "飴": 4125,
      "飼": 4126,
      "飽": 4127,
      "飾": 4128,
      "養": 4129,
      "餐": 4130,
      "館": 4131,
      "饥": 4132,
      "饭": 4133,
      "饮": 4134,
      "饱": 4135,
      "饶": 4136,
      "饿": 4137,
      "馆": 4138,
      "馈": 4139,
      "首": 4140,
      "香": 4141,
      "馨": 4142,
      "馬": 4143,
      "駄": 4144,
      "駅": 4145,
      "駆": 4146,
      "駐": 4147,
      "騒": 4148,
      "験": 4149,
      "騙": 4150,
      "驕": 4151,
      "驚": 4152,
      "马": 4153,
      "驰": 4154,
      "驱": 4155,
      "驳": 4156,
      "驶": 4157,
      "驻": 4158,
      "驾": 4159,
      "骂": 4160,
      "骄": 4161,
      "验": 4162,
      "骑": 4163,
      "骗": 4164,
      "骚": 4165,
      "骤": 4166,
      "骨": 4167,
      "骸": 4168,
      "體": 4169,
      "高": 4170,
      "髪": 4171,
      "髮": 4172,
      "鬼": 4173,
      "魁": 4174,
      "魂": 4175,
      "魅": 4176,
      "魏": 4177,
      "魔": 4178,
      "魚": 4179,
      "鮮": 4180,
      "鱼": 4181,
      "鲁": 4182,
      "鲍": 4183,
      "鲜": 4184,
      "鳍": 4185,
      "鳥": 4186,
      "鳴": 4187,
      "鷲": 4188,
      "鸟": 4189,
      "鸡": 4190,
      "鸦": 4191,
      "鸭": 4192,
      "鸽": 4193,
      "鹰": 4194,
      "鹿": 4195,
      "麗": 4196,
      "麥": 4197,
      "麦": 4198,
      "麵": 4199,
      "麻": 4200,
      "麼": 4201,
      "麽": 4202,
      "黃": 4203,
      "黄": 4204,
      "黎": 4205,
      "黏": 4206,
      "黑": 4207,
      "黒": 4208,
      "默": 4209,
      "黙": 4210,
      "黛": 4211,
      "點": 4212,
      "黨": 4213,
      "鼓": 4214,
      "鼠": 4215,
      "鼻": 4216,
      "齐": 4217,
      "齿": 4218,
      "龄": 4219,
      "龍": 4220,
      "龙": 4221,
      "龟": 4222,
      "가": 4223,
      "각": 4224,
      "간": 4225,
      "갇": 4226,
      "갈": 4227,
      "감": 4228,
      "갑": 4229,
      "값": 4230,
      "갓": 4231,
      "갔": 4232,
      "강": 4233,
      "갖": 4234,
      "같": 4235,
      "갚": 4236,
      "개": 4237,
      "객": 4238,
      "갤": 4239,
      "갱": 4240,
      "걔": 4241,
      "걘": 4242,
      "걜": 4243,
      "거": 4244,
      "걱": 4245,
      "건": 4246,
      "걷": 4247,
      "걸": 4248,
      "검": 4249,
      "겁": 4250,
      "것": 4251,
      "게": 4252,
      "겐": 4253,
      "겟": 4254,
      "겠": 4255,
      "겨": 4256,
      "격": 4257,
      "겪": 4258,
      "견": 4259,
      "결": 4260,
      "겸": 4261,
      "겼": 4262,
      "경": 4263,
      "곁": 4264,
      "계": 4265,
      "고": 4266,
      "곡": 4267,
      "곤": 4268,
      "곧": 4269,
      "골": 4270,
      "곱": 4271,
      "곳": 4272,
      "공": 4273,
      "과": 4274,
      "관": 4275,
      "광": 4276,
      "괜": 4277,
      "괴": 4278,
      "굉": 4279,
      "교": 4280,
      "구": 4281,
      "국": 4282,
      "군": 4283,
      "굳": 4284,
      "굴": 4285,
      "굶": 4286,
      "굽": 4287,
      "궁": 4288,
      "궂": 4289,
      "권": 4290,
      "궜": 4291,
      "궤": 4292,
      "귀": 4293,
      "귈": 4294,
      "규": 4295,
      "균": 4296,
      "그": 4297,
      "극": 4298,
      "근": 4299,
      "글": 4300,
      "긁": 4301,
      "금": 4302,
      "급": 4303,
      "긍": 4304,
      "기": 4305,
      "긴": 4306,
      "길": 4307,
      "김": 4308,
      "깁": 4309,
      "깃": 4310,
      "깄": 4311,
      "깊": 4312,
      "까": 4313,
      "깍": 4314,
      "깎": 4315,
      "깐": 4316,
      "깔": 4317,
      "깜": 4318,
      "깨": 4319,
      "깼": 4320,
      "꺼": 4321,
      "껄": 4322,
      "껍": 4323,
      "껏": 4324,
      "께": 4325,
      "껴": 4326,
      "꼈": 4327,
      "꼬": 4328,
      "꼭": 4329,
      "꼴": 4330,
      "꼼": 4331,
      "꼽": 4332,
      "꽃": 4333,
      "꽝": 4334,
      "꽤": 4335,
      "꾸": 4336,
      "꾼": 4337,
      "꿀": 4338,
      "꿇": 4339,
      "꿈": 4340,
      "꿍": 4341,
      "꿔": 4342,
      "꿰": 4343,
      "뀌": 4344,
      "뀐": 4345,
      "끄": 4346,
      "끈": 4347,
      "끊": 4348,
      "끌": 4349,
      "끓": 4350,
      "끔": 4351,
      "끕": 4352,
      "끗": 4353,
      "끝": 4354,
      "끼": 4355,
      "낄": 4356,
      "낌": 4357,
      "나": 4358,
      "낙": 4359,
      "난": 4360,
      "날": 4361,
      "낡": 4362,
      "남": 4363,
      "납": 4364,
      "낫": 4365,
      "났": 4366,
      "낭": 4367,
      "낮": 4368,
      "낱": 4369,
      "낳": 4370,
      "내": 4371,
      "낸": 4372,
      "낼": 4373,
      "냄": 4374,
      "냅": 4375,
      "냈": 4376,
      "냐": 4377,
      "냥": 4378,
      "너": 4379,
      "넌": 4380,
      "널": 4381,
      "넘": 4382,
      "넣": 4383,
      "네": 4384,
      "넥": 4385,
      "넨": 4386,
      "넬": 4387,
      "넷": 4388,
      "녀": 4389,
      "녁": 4390,
      "년": 4391,
      "념": 4392,
      "녔": 4393,
      "녕": 4394,
      "녜": 4395,
      "노": 4396,
      "녹": 4397,
      "논": 4398,
      "놀": 4399,
      "놈": 4400,
      "높": 4401,
      "놓": 4402,
      "놔": 4403,
      "놨": 4404,
      "뇌": 4405,
      "뇨": 4406,
      "누": 4407,
      "눅": 4408,
      "눈": 4409,
      "눕": 4410,
      "눠": 4411,
      "눴": 4412,
      "뉴": 4413,
      "느": 4414,
      "늑": 4415,
      "는": 4416,
      "늘": 4417,
      "늙": 4418,
      "능": 4419,
      "늦": 4420,
      "니": 4421,
      "닉": 4422,
      "닌": 4423,
      "닐": 4424,
      "님": 4425,
      "닙": 4426,
      "닝": 4427,
      "다": 4428,
      "닥": 4429,
      "닦": 4430,
      "단": 4431,
      "닫": 4432,
      "달": 4433,
      "닭": 4434,
      "닮": 4435,
      "닳": 4436,
      "담": 4437,
      "답": 4438,
      "당": 4439,
      "대": 4440,
      "댁": 4441,
      "댄": 4442,
      "댈": 4443,
      "댔": 4444,
      "댕": 4445,
      "더": 4446,
      "덕": 4447,
      "던": 4448,
      "덜": 4449,
      "덤": 4450,
      "덥": 4451,
      "덧": 4452,
      "덩": 4453,
      "덮": 4454,
      "데": 4455,
      "덴": 4456,
      "델": 4457,
      "뎌": 4458,
      "도": 4459,
      "독": 4460,
      "돈": 4461,
      "돋": 4462,
      "돌": 4463,
      "돔": 4464,
      "돕": 4465,
      "동": 4466,
      "돼": 4467,
      "됐": 4468,
      "되": 4469,
      "된": 4470,
      "될": 4471,
      "됨": 4472,
      "됩": 4473,
      "됬": 4474,
      "두": 4475,
      "둔": 4476,
      "둘": 4477,
      "둡": 4478,
      "둥": 4479,
      "둬": 4480,
      "뒀": 4481,
      "뒤": 4482,
      "뒷": 4483,
      "듀": 4484,
      "드": 4485,
      "득": 4486,
      "든": 4487,
      "듣": 4488,
      "들": 4489,
      "듬": 4490,
      "듭": 4491,
      "듯": 4492,
      "등": 4493,
      "디": 4494,
      "딘": 4495,
      "딜": 4496,
      "딨": 4497,
      "딩": 4498,
      "딪": 4499,
      "따": 4500,
      "딱": 4501,
      "딴": 4502,
      "딸": 4503,
      "땅": 4504,
      "때": 4505,
      "땐": 4506,
      "땠": 4507,
      "땡": 4508,
      "떠": 4509,
      "떤": 4510,
      "떨": 4511,
      "떻": 4512,
      "떼": 4513,
      "또": 4514,
      "똑": 4515,
      "똥": 4516,
      "뚝": 4517,
      "뚫": 4518,
      "뚱": 4519,
      "뛰": 4520,
      "뛴": 4521,
      "뜨": 4522,
      "뜬": 4523,
      "뜻": 4524,
      "라": 4525,
      "락": 4526,
      "란": 4527,
      "랄": 4528,
      "람": 4529,
      "랍": 4530,
      "랐": 4531,
      "랑": 4532,
      "래": 4533,
      "랙": 4534,
      "랜": 4535,
      "랠": 4536,
      "램": 4537,
      "랩": 4538,
      "랫": 4539,
      "랬": 4540,
      "랭": 4541,
      "랴": 4542,
      "략": 4543,
      "량": 4544,
      "러": 4545,
      "럭": 4546,
      "런": 4547,
      "럴": 4548,
      "럼": 4549,
      "럽": 4550,
      "럿": 4551,
      "렀": 4552,
      "렁": 4553,
      "렇": 4554,
      "레": 4555,
      "렉": 4556,
      "렌": 4557,
      "렐": 4558,
      "렘": 4559,
      "렙": 4560,
      "려": 4561,
      "력": 4562,
      "련": 4563,
      "렬": 4564,
      "렴": 4565,
      "렵": 4566,
      "렸": 4567,
      "령": 4568,
      "례": 4569,
      "로": 4570,
      "록": 4571,
      "론": 4572,
      "롤": 4573,
      "롭": 4574,
      "롯": 4575,
      "롱": 4576,
      "뢰": 4577,
      "료": 4578,
      "룡": 4579,
      "루": 4580,
      "룩": 4581,
      "룬": 4582,
      "룰": 4583,
      "룹": 4584,
      "룻": 4585,
      "뤄": 4586,
      "뤘": 4587,
      "류": 4588,
      "륙": 4589,
      "륜": 4590,
      "률": 4591,
      "륭": 4592,
      "르": 4593,
      "륵": 4594,
      "른": 4595,
      "를": 4596,
      "름": 4597,
      "릅": 4598,
      "릇": 4599,
      "릉": 4600,
      "릎": 4601,
      "리": 4602,
      "릭": 4603,
      "린": 4604,
      "릴": 4605,
      "림": 4606,
      "립": 4607,
      "릿": 4608,
      "링": 4609,
      "마": 4610,
      "막": 4611,
      "만": 4612,
      "많": 4613,
      "맏": 4614,
      "말": 4615,
      "맑": 4616,
      "맘": 4617,
      "맙": 4618,
      "맛": 4619,
      "망": 4620,
      "맞": 4621,
      "맡": 4622,
      "매": 4623,
      "맥": 4624,
      "맨": 4625,
      "맴": 4626,
      "맷": 4627,
      "맸": 4628,
      "맹": 4629,
      "맺": 4630,
      "머": 4631,
      "먹": 4632,
      "먼": 4633,
      "멀": 4634,
      "멈": 4635,
      "멋": 4636,
      "멍": 4637,
      "메": 4638,
      "멘": 4639,
      "멜": 4640,
      "멧": 4641,
      "며": 4642,
      "면": 4643,
      "멸": 4644,
      "명": 4645,
      "몇": 4646,
      "모": 4647,
      "목": 4648,
      "몫": 4649,
      "몬": 4650,
      "몰": 4651,
      "몸": 4652,
      "못": 4653,
      "몽": 4654,
      "뫼": 4655,
      "무": 4656,
      "묶": 4657,
      "문": 4658,
      "묻": 4659,
      "물": 4660,
      "뭉": 4661,
      "뭐": 4662,
      "뭔": 4663,
      "뭘": 4664,
      "뭣": 4665,
      "뭥": 4666,
      "뮤": 4667,
      "므": 4668,
      "미": 4669,
      "민": 4670,
      "믿": 4671,
      "밀": 4672,
      "밋": 4673,
      "밌": 4674,
      "밍": 4675,
      "및": 4676,
      "밑": 4677,
      "바": 4678,
      "박": 4679,
      "밖": 4680,
      "반": 4681,
      "받": 4682,
      "발": 4683,
      "밝": 4684,
      "밟": 4685,
      "밤": 4686,
      "밥": 4687,
      "방": 4688,
      "밭": 4689,
      "배": 4690,
      "백": 4691,
      "밸": 4692,
      "뱅": 4693,
      "버": 4694,
      "벅": 4695,
      "번": 4696,
      "벌": 4697,
      "범": 4698,
      "법": 4699,
      "벗": 4700,
      "벙": 4701,
      "베": 4702,
      "벤": 4703,
      "벨": 4704,
      "벳": 4705,
      "벼": 4706,
      "벽": 4707,
      "변": 4708,
      "별": 4709,
      "병": 4710,
      "보": 4711,
      "복": 4712,
      "본": 4713,
      "볼": 4714,
      "봄": 4715,
      "봅": 4716,
      "봇": 4717,
      "봉": 4718,
      "봐": 4719,
      "봤": 4720,
      "뵌": 4721,
      "부": 4722,
      "북": 4723,
      "분": 4724,
      "불": 4725,
      "붐": 4726,
      "붓": 4727,
      "붕": 4728,
      "붙": 4729,
      "뷔": 4730,
      "뷰": 4731,
      "브": 4732,
      "븐": 4733,
      "블": 4734,
      "비": 4735,
      "빅": 4736,
      "빈": 4737,
      "빌": 4738,
      "빗": 4739,
      "빙": 4740,
      "빚": 4741,
      "빛": 4742,
      "빠": 4743,
      "빡": 4744,
      "빤": 4745,
      "빨": 4746,
      "빴": 4747,
      "빵": 4748,
      "빼": 4749,
      "뺏": 4750,
      "뺨": 4751,
      "뻐": 4752,
      "뻔": 4753,
      "뻤": 4754,
      "뼈": 4755,
      "뼛": 4756,
      "뽑": 4757,
      "뽕": 4758,
      "뿐": 4759,
      "쁘": 4760,
      "쁜": 4761,
      "쁠": 4762,
      "쁨": 4763,
      "쁩": 4764,
      "삐": 4765,
      "사": 4766,
      "삭": 4767,
      "산": 4768,
      "살": 4769,
      "삶": 4770,
      "삼": 4771,
      "삽": 4772,
      "샀": 4773,
      "상": 4774,
      "샅": 4775,
      "새": 4776,
      "색": 4777,
      "샌": 4778,
      "샐": 4779,
      "샘": 4780,
      "생": 4781,
      "샤": 4782,
      "샬": 4783,
      "서": 4784,
      "석": 4785,
      "섞": 4786,
      "선": 4787,
      "설": 4788,
      "섬": 4789,
      "섭": 4790,
      "섯": 4791,
      "성": 4792,
      "세": 4793,
      "섹": 4794,
      "센": 4795,
      "셀": 4796,
      "셉": 4797,
      "셋": 4798,
      "셔": 4799,
      "션": 4800,
      "셜": 4801,
      "셨": 4802,
      "셰": 4803,
      "소": 4804,
      "속": 4805,
      "손": 4806,
      "솔": 4807,
      "솟": 4808,
      "송": 4809,
      "솥": 4810,
      "쇄": 4811,
      "쇠": 4812,
      "쇼": 4813,
      "숀": 4814,
      "수": 4815,
      "숙": 4816,
      "순": 4817,
      "술": 4818,
      "숨": 4819,
      "숫": 4820,
      "숭": 4821,
      "숲": 4822,
      "숴": 4823,
      "쉐": 4824,
      "쉬": 4825,
      "쉴": 4826,
      "쉽": 4827,
      "슈": 4828,
      "스": 4829,
      "슨": 4830,
      "슬": 4831,
      "슴": 4832,
      "습": 4833,
      "슷": 4834,
      "승": 4835,
      "시": 4836,
      "식": 4837,
      "신": 4838,
      "실": 4839,
      "싫": 4840,
      "심": 4841,
      "십": 4842,
      "싱": 4843,
      "싶": 4844,
      "싸": 4845,
      "싹": 4846,
      "쌀": 4847,
      "쌍": 4848,
      "쌓": 4849,
      "쌔": 4850,
      "써": 4851,
      "썩": 4852,
      "썬": 4853,
      "썼": 4854,
      "쎄": 4855,
      "쎼": 4856,
      "쏘": 4857,
      "쏙": 4858,
      "쏠": 4859,
      "쏩": 4860,
      "쏴": 4861,
      "쑤": 4862,
      "쑥": 4863,
      "쓰": 4864,
      "쓴": 4865,
      "쓸": 4866,
      "씀": 4867,
      "씁": 4868,
      "씨": 4869,
      "씩": 4870,
      "씬": 4871,
      "씻": 4872,
      "아": 4873,
      "악": 4874,
      "안": 4875,
      "앉": 4876,
      "않": 4877,
      "알": 4878,
      "암": 4879,
      "압": 4880,
      "앗": 4881,
      "았": 4882,
      "앙": 4883,
      "앞": 4884,
      "애": 4885,
      "액": 4886,
      "앤": 4887,
      "앨": 4888,
      "앰": 4889,
      "야": 4890,
      "약": 4891,
      "얀": 4892,
      "얌": 4893,
      "양": 4894,
      "얘": 4895,
      "얜": 4896,
      "얭": 4897,
      "어": 4898,
      "억": 4899,
      "언": 4900,
      "얹": 4901,
      "얻": 4902,
      "얼": 4903,
      "엄": 4904,
      "업": 4905,
      "없": 4906,
      "엇": 4907,
      "었": 4908,
      "엉": 4909,
      "엌": 4910,
      "엎": 4911,
      "에": 4912,
      "엑": 4913,
      "엔": 4914,
      "엘": 4915,
      "엠": 4916,
      "여": 4917,
      "역": 4918,
      "연": 4919,
      "열": 4920,
      "염": 4921,
      "엽": 4922,
      "엿": 4923,
      "였": 4924,
      "영": 4925,
      "옆": 4926,
      "예": 4927,
      "옌": 4928,
      "옙": 4929,
      "옛": 4930,
      "오": 4931,
      "옥": 4932,
      "온": 4933,
      "올": 4934,
      "옮": 4935,
      "옳": 4936,
      "옵": 4937,
      "옷": 4938,
      "옹": 4939,
      "와": 4940,
      "완": 4941,
      "왑": 4942,
      "왓": 4943,
      "왔": 4944,
      "왕": 4945,
      "왜": 4946,
      "왠": 4947,
      "외": 4948,
      "왼": 4949,
      "요": 4950,
      "욕": 4951,
      "욘": 4952,
      "용": 4953,
      "우": 4954,
      "욱": 4955,
      "운": 4956,
      "울": 4957,
      "움": 4958,
      "웁": 4959,
      "웃": 4960,
      "웅": 4961,
      "워": 4962,
      "원": 4963,
      "월": 4964,
      "웠": 4965,
      "웨": 4966,
      "웬": 4967,
      "웰": 4968,
      "웹": 4969,
      "위": 4970,
      "윈": 4971,
      "윌": 4972,
      "윗": 4973,
      "유": 4974,
      "육": 4975,
      "율": 4976,
      "으": 4977,
      "은": 4978,
      "을": 4979,
      "음": 4980,
      "응": 4981,
      "의": 4982,
      "이": 4983,
      "익": 4984,
      "인": 4985,
      "일": 4986,
      "읽": 4987,
      "잃": 4988,
      "임": 4989,
      "입": 4990,
      "있": 4991,
      "잉": 4992,
      "잊": 4993,
      "자": 4994,
      "작": 4995,
      "잔": 4996,
      "잖": 4997,
      "잘": 4998,
      "잠": 4999,
      "잡": 5000,
      "잤": 5001,
      "장": 5002,
      "재": 5003,
      "잭": 5004,
      "잼": 5005,
      "잽": 5006,
      "쟁": 5007,
      "쟤": 5008,
      "저": 5009,
      "적": 5010,
      "전": 5011,
      "절": 5012,
      "젊": 5013,
      "점": 5014,
      "접": 5015,
      "정": 5016,
      "젖": 5017,
      "제": 5018,
      "젠": 5019,
      "젯": 5020,
      "져": 5021,
      "졌": 5022,
      "조": 5023,
      "족": 5024,
      "존": 5025,
      "졸": 5026,
      "좀": 5027,
      "종": 5028,
      "좆": 5029,
      "좋": 5030,
      "좌": 5031,
      "죄": 5032,
      "죠": 5033,
      "주": 5034,
      "죽": 5035,
      "준": 5036,
      "줄": 5037,
      "줌": 5038,
      "줍": 5039,
      "중": 5040,
      "줘": 5041,
      "줬": 5042,
      "쥐": 5043,
      "쥬": 5044,
      "즈": 5045,
      "즉": 5046,
      "즐": 5047,
      "즘": 5048,
      "증": 5049,
      "지": 5050,
      "직": 5051,
      "진": 5052,
      "질": 5053,
      "짊": 5054,
      "짐": 5055,
      "집": 5056,
      "짓": 5057,
      "징": 5058,
      "짚": 5059,
      "짜": 5060,
      "짝": 5061,
      "짠": 5062,
      "짤": 5063,
      "짧": 5064,
      "짱": 5065,
      "째": 5066,
      "쨈": 5067,
      "쨌": 5068,
      "쩌": 5069,
      "쩍": 5070,
      "쩡": 5071,
      "쪽": 5072,
      "쫒": 5073,
      "쫓": 5074,
      "쭤": 5075,
      "쯤": 5076,
      "찌": 5077,
      "찍": 5078,
      "찔": 5079,
      "찢": 5080,
      "차": 5081,
      "착": 5082,
      "찬": 5083,
      "찮": 5084,
      "찰": 5085,
      "참": 5086,
      "창": 5087,
      "찾": 5088,
      "채": 5089,
      "책": 5090,
      "챔": 5091,
      "챙": 5092,
      "처": 5093,
      "척": 5094,
      "천": 5095,
      "철": 5096,
      "첨": 5097,
      "첩": 5098,
      "첫": 5099,
      "청": 5100,
      "체": 5101,
      "첼": 5102,
      "쳐": 5103,
      "쳤": 5104,
      "초": 5105,
      "촉": 5106,
      "촌": 5107,
      "촛": 5108,
      "총": 5109,
      "최": 5110,
      "쵸": 5111,
      "추": 5112,
      "축": 5113,
      "춘": 5114,
      "출": 5115,
      "춤": 5116,
      "충": 5117,
      "춰": 5118,
      "췌": 5119,
      "취": 5120,
      "츠": 5121,
      "측": 5122,
      "층": 5123,
      "치": 5124,
      "칙": 5125,
      "친": 5126,
      "칠": 5127,
      "침": 5128,
      "칩": 5129,
      "칫": 5130,
      "칭": 5131,
      "카": 5132,
      "칸": 5133,
      "칼": 5134,
      "캄": 5135,
      "캇": 5136,
      "캐": 5137,
      "캔": 5138,
      "캘": 5139,
      "캠": 5140,
      "캡": 5141,
      "캣": 5142,
      "커": 5143,
      "컥": 5144,
      "컨": 5145,
      "컬": 5146,
      "컴": 5147,
      "컵": 5148,
      "컷": 5149,
      "케": 5150,
      "켄": 5151,
      "켈": 5152,
      "켓": 5153,
      "켜": 5154,
      "켰": 5155,
      "코": 5156,
      "콘": 5157,
      "콜": 5158,
      "콤": 5159,
      "콥": 5160,
      "콰": 5161,
      "쾌": 5162,
      "쿄": 5163,
      "쿠": 5164,
      "쿨": 5165,
      "쿵": 5166,
      "쿼": 5167,
      "퀴": 5168,
      "퀸": 5169,
      "퀼": 5170,
      "큐": 5171,
      "크": 5172,
      "큰": 5173,
      "클": 5174,
      "큼": 5175,
      "키": 5176,
      "킨": 5177,
      "킬": 5178,
      "킴": 5179,
      "킷": 5180,
      "킹": 5181,
      "타": 5182,
      "탁": 5183,
      "탄": 5184,
      "탈": 5185,
      "탉": 5186,
      "탐": 5187,
      "탓": 5188,
      "탔": 5189,
      "탕": 5190,
      "태": 5191,
      "택": 5192,
      "탠": 5193,
      "탬": 5194,
      "탭": 5195,
      "탯": 5196,
      "터": 5197,
      "턱": 5198,
      "턴": 5199,
      "털": 5200,
      "텅": 5201,
      "테": 5202,
      "텍": 5203,
      "텐": 5204,
      "텔": 5205,
      "템": 5206,
      "텨": 5207,
      "토": 5208,
      "톤": 5209,
      "톰": 5210,
      "톱": 5211,
      "통": 5212,
      "퇴": 5213,
      "투": 5214,
      "툭": 5215,
      "퉁": 5216,
      "튀": 5217,
      "튜": 5218,
      "튬": 5219,
      "트": 5220,
      "특": 5221,
      "튼": 5222,
      "틀": 5223,
      "틈": 5224,
      "티": 5225,
      "틴": 5226,
      "틸": 5227,
      "팀": 5228,
      "팅": 5229,
      "파": 5230,
      "팍": 5231,
      "판": 5232,
      "팔": 5233,
      "팝": 5234,
      "팠": 5235,
      "패": 5236,
      "팬": 5237,
      "팽": 5238,
      "퍼": 5239,
      "펌": 5240,
      "펑": 5241,
      "페": 5242,
      "펜": 5243,
      "펨": 5244,
      "펫": 5245,
      "펴": 5246,
      "편": 5247,
      "펼": 5248,
      "평": 5249,
      "폐": 5250,
      "포": 5251,
      "폭": 5252,
      "폰": 5253,
      "폴": 5254,
      "폼": 5255,
      "퐁": 5256,
      "표": 5257,
      "푸": 5258,
      "풀": 5259,
      "품": 5260,
      "풍": 5261,
      "퓨": 5262,
      "퓰": 5263,
      "프": 5264,
      "픈": 5265,
      "플": 5266,
      "픔": 5267,
      "피": 5268,
      "픽": 5269,
      "핀": 5270,
      "필": 5271,
      "핑": 5272,
      "하": 5273,
      "학": 5274,
      "한": 5275,
      "할": 5276,
      "함": 5277,
      "합": 5278,
      "핫": 5279,
      "항": 5280,
      "해": 5281,
      "핵": 5282,
      "핸": 5283,
      "햄": 5284,
      "햇": 5285,
      "했": 5286,
      "행": 5287,
      "향": 5288,
      "헀": 5289,
      "허": 5290,
      "헌": 5291,
      "헐": 5292,
      "험": 5293,
      "헛": 5294,
      "헝": 5295,
      "헤": 5296,
      "헨": 5297,
      "헬": 5298,
      "혀": 5299,
      "현": 5300,
      "혈": 5301,
      "혐": 5302,
      "협": 5303,
      "혔": 5304,
      "형": 5305,
      "혜": 5306,
      "호": 5307,
      "혹": 5308,
      "혼": 5309,
      "홀": 5310,
      "홈": 5311,
      "홍": 5312,
      "화": 5313,
      "확": 5314,
      "환": 5315,
      "활": 5316,
      "황": 5317,
      "회": 5318,
      "획": 5319,
      "횝": 5320,
      "효": 5321,
      "후": 5322,
      "훈": 5323,
      "훌": 5324,
      "훑": 5325,
      "훔": 5326,
      "훨": 5327,
      "훼": 5328,
      "휘": 5329,
      "휠": 5330,
      "휴": 5331,
      "흉": 5332,
      "흐": 5333,
      "흑": 5334,
      "흔": 5335,
      "흘": 5336,
      "흙": 5337,
      "흠": 5338,
      "흡": 5339,
      "흥": 5340,
      "흩": 5341,
      "희": 5342,
      "흰": 5343,
      "히": 5344,
      "힉": 5345,
      "힌": 5346,
      "힐": 5347,
      "힘": 5348,
      "": 5349,
      "": 5350,
      "": 5351,
      "": 5352,
      "": 5353,
      "": 5354,
      "": 5355,
      "": 5356,
      "": 5357,
      "": 5358,
      "": 5359,
      "": 5360,
      "": 5361,
      "": 5362,
      "": 5363,
      "": 5364,
      "": 5365,
      "": 5366,
      "": 5367,
      "": 5368,
      "": 5369,
      "": 5370,
      "": 5371,
      "": 5372,
      "": 5373,
      "": 5374,
      "": 5375,
      "": 5376,
      "": 5377,
      "": 5378,
      "": 5379,
      "": 5380,
      "": 5381,
      "": 5382,
      "": 5383,
      "": 5384,
      "": 5385,
      "": 5386,
      "": 5387,
      "": 5388,
      "": 5389,
      "": 5390,
      "": 5391,
      "": 5392,
      "": 5393,
      "": 5394,
      "": 5395,
      "": 5396,
      "": 5397,
      "": 5398,
      "": 5399,
      "": 5400,
      "": 5401,
      "": 5402,
      "": 5403,
      "": 5404,
      "": 5405,
      "": 5406,
      "": 5407,
      "": 5408,
      "": 5409,
      "": 5410,
      "": 5411,
      "": 5412,
      "": 5413,
      "": 5414,
      "": 5415,
      "": 5416,
      "﻿": 5417,
      "�": 5418,
      "▁t": 5419,
      "▁a": 5420,
      "he": 5421,
      "in": 5422,
      "re": 5423,
      "on": 5424,
      "en": 5425,
      "er": 5426,
      "▁d": 5427,
      "▁s": 5428,
      "ou": 5429,
      "an": 5430,
      "at": 5431,
      "▁the": 5432,
      "▁c": 5433,
      "▁w": 5434,
      "es": 5435,
      "▁p": 5436,
      "▁m": 5437,
      "or": 5438,
      "is": 5439,
      "it": 5440,
      "▁b": 5441,
      "ar": 5442,
      "▁o": 5443,
      "▁l": 5444,
      "al": 5445,
      "▁f": 5446,
      "▁I": 5447,
      "▁n": 5448,
      "nd": 5449,
      "ing": 5450,
      "ed": 5451,
      "▁to": 5452,
      "▁h": 5453,
      "▁y": 5454,
      "el": 5455,
      "ion": 5456,
      "as": 5457,
      "▁in": 5458,
      "om": 5459,
      "ic": 5460,
      "▁g": 5461,
      "▁of": 5462,
      "▁th": 5463,
      "▁you": 5464,
      "et": 5465,
      "ent": 5466,
      "..": 5467,
      "il": 5468,
      "▁-": 5469,
      "▁T": 5470,
      "▁A": 5471,
      "▁S": 5472,
      "▁and": 5473,
      "ro": 5474,
      "▁de": 5475,
      "st": 5476,
      "▁e": 5477,
      "le": 5478,
      "▁u": 5479,
      "ve": 5480,
      "▁re": 5481,
      "▁C": 5482,
      "id": 5483,
      "ad": 5484,
      "ot": 5485,
      "am": 5486,
      "im": 5487,
      "▁W": 5488,
      "▁k": 5489,
      "ac": 5490,
      "▁ا": 5491,
      "▁v": 5492,
      "os": 5493,
      "ow": 5494,
      "ie": 5495,
      "▁M": 5496,
      "ig": 5497,
      "▁he": 5498,
      "ay": 5499,
      "qu": 5500,
      "▁H": 5501,
      "ut": 5502,
      "▁be": 5503,
      "▁is": 5504,
      "ation": 5505,
      "ol": 5506,
      "em": 5507,
      "ir": 5508,
      "▁D": 5509,
      "'s": 5510,
      "ur": 5511,
      "▁on": 5512,
      "▁(": 5513,
      "ec": 5514,
      "e.": 5515,
      "▁it": 5516,
      "▁B": 5517,
      "▁N": 5518,
      "▁P": 5519,
      "▁क": 5520,
      "▁for": 5521,
      "...": 5522,
      "ch": 5523,
      "un": 5524,
      "▁E": 5525,
      "ll": 5526,
      "▁that": 5527,
      "ak": 5528,
      "▁r": 5529,
      "est": 5530,
      "▁Y": 5531,
      "ver": 5532,
      "▁L": 5533,
      "▁ال": 5534,
      "ht": 5535,
      "▁con": 5536,
      "us": 5537,
      "▁O": 5538,
      "▁wh": 5539,
      "▁1": 5540,
      "ly": 5541,
      "▁qu": 5542,
      "▁st": 5543,
      "▁G": 5544,
      "ra": 5545,
      "▁م": 5546,
      "▁ب": 5547,
      "od": 5548,
      "▁an": 5549,
      "▁The": 5550,
      "▁ha": 5551,
      "▁do": 5552,
      "ant": 5553,
      "▁j": 5554,
      "▁2": 5555,
      "▁we": 5556,
      "s.": 5557,
      "▁pro": 5558,
      "ter": 5559,
      "▁me": 5560,
      "ul": 5561,
      "if": 5562,
      "▁п": 5563,
      "'t": 5564,
      "ce": 5565,
      "ill": 5566,
      "ith": 5567,
      "▁com": 5568,
      "▁R": 5569,
      "out": 5570,
      "ri": 5571,
      "▁ह": 5572,
      "ld": 5573,
      "and": 5574,
      "▁la": 5575,
      "00": 5576,
      "res": 5577,
      "ell": 5578,
      "▁with": 5579,
      "▁en": 5580,
      "▁not": 5581,
      "ab": 5582,
      "op": 5583,
      "ag": 5584,
      "▁F": 5585,
      "um": 5586,
      "▁se": 5587,
      "▁as": 5588,
      "e,": 5589,
      "▁You": 5590,
      "▁в": 5591,
      "▁un": 5592,
      "▁su": 5593,
      "ah": 5594,
      "ik": 5595,
      "ст": 5596,
      "art": 5597,
      "ct": 5598,
      "ight": 5599,
      "ist": 5600,
      "her": 5601,
      "ust": 5602,
      "▁J": 5603,
      "ort": 5604,
      "pp": 5605,
      "ia": 5606,
      "se": 5607,
      "our": 5608,
      "▁le": 5609,
      "▁I'": 5610,
      "ment": 5611,
      "▁was": 5612,
      "▁н": 5613,
      "▁z": 5614,
      "o.": 5615,
      "▁are": 5616,
      "▁ch": 5617,
      "▁al": 5618,
      "▁ne": 5619,
      "▁this": 5620,
      "▁have": 5621,
      "ess": 5622,
      "ang": 5623,
      "▁و": 5624,
      "ng": 5625,
      "iv": 5626,
      "▁с": 5627,
      "y.": 5628,
      "▁K": 5629,
      "s,": 5630,
      "end": 5631,
      "ен": 5632,
      "hat": 5633,
      "ect": 5634,
      "▁go": 5635,
      "ould": 5636,
      "▁\"": 5637,
      "то": 5638,
      "▁or": 5639,
      "▁sh": 5640,
      "▁your": 5641,
      "oc": 5642,
      "a.": 5643,
      "ap": 5644,
      "o,": 5645,
      "▁U": 5646,
      "ies": 5647,
      "ore": 5648,
      "▁at": 5649,
      "ain": 5650,
      "ers": 5651,
      "▁ex": 5652,
      "nt": 5653,
      "ра": 5654,
      "all": 5655,
      "▁tr": 5656,
      "▁स": 5657,
      "rom": 5658,
      "▁He": 5659,
      "▁kn": 5660,
      "te": 5661,
      "но": 5662,
      "ive": 5663,
      "ok": 5664,
      "ate": 5665,
      "▁di": 5666,
      "▁que": 5667,
      "ard": 5668,
      "ро": 5669,
      "▁all": 5670,
      "ich": 5671,
      "▁It": 5672,
      "ان": 5673,
      "▁can": 5674,
      "ud": 5675,
      "▁We": 5676,
      "▁know": 5677,
      "▁म": 5678,
      "▁ab": 5679,
      "are": 5680,
      "▁V": 5681,
      "▁my": 5682,
      "▁ت": 5683,
      "▁о": 5684,
      "y,": 5685,
      "▁त": 5686,
      "ind": 5687,
      "ber": 5688,
      "ome": 5689,
      "hen": 5690,
      "iz": 5691,
      "▁I'm": 5692,
      "ord": 5693,
      "▁by": 5694,
      "▁đ": 5695,
      "'re": 5696,
      "▁will": 5697,
      "ure": 5698,
      "▁أ": 5699,
      "ep": 5700,
      "▁ज": 5701,
      "▁And": 5702,
      "▁des": 5703,
      "▁है": 5704,
      "on't": 5705,
      "▁प": 5706,
      "ко": 5707,
      "ff": 5708,
      "▁и": 5709,
      "th": 5710,
      "го": 5711,
      "▁lo": 5712,
      "▁ل": 5713,
      "ere": 5714,
      "▁from": 5715,
      "ار": 5716,
      "▁no": 5717,
      "▁д": 5718,
      "▁they": 5719,
      "▁د": 5720,
      "ें": 5721,
      "▁Th": 5722,
      "▁по": 5723,
      "a,": 5724,
      "▁м": 5725,
      "ial": 5726,
      "▁so": 5727,
      "ре": 5728,
      "▁per": 5729,
      "iss": 5730,
      "▁out": 5731,
      "▁pr": 5732,
      "▁ه": 5733,
      "▁ک": 5734,
      "▁pl": 5735,
      "▁sa": 5736,
      "i.": 5737,
      "▁im": 5738,
      "▁what": 5739,
      "ity": 5740,
      "ال": 5741,
      "ip": 5742,
      "▁ad": 5743,
      "ون": 5744,
      "▁up": 5745,
      "ast": 5746,
      "те": 5747,
      "▁sp": 5748,
      "ans": 5749,
      "omm": 5750,
      "ij": 5751,
      "▁न": 5752,
      "▁In": 5753,
      "ake": 5754,
      "ни": 5755,
      "▁St": 5756,
      "eg": 5757,
      "uc": 5758,
      "ong": 5759,
      "▁उ": 5760,
      "ack": 5761,
      "ous": 5762,
      "▁el": 5763,
      "▁ن": 5764,
      "ire": 5765,
      "▁und": 5766,
      "▁ब": 5767,
      "ли": 5768,
      "au": 5769,
      "▁est": 5770,
      "pl": 5771,
      "ست": 5772,
      "را": 5773,
      "en.": 5774,
      "और": 5775,
      "▁з": 5776,
      "▁What": 5777,
      "ost": 5778,
      "▁200": 5779,
      "to": 5780,
      "▁just": 5781,
      "▁par": 5782,
      "▁et": 5783,
      "▁ag": 5784,
      "▁them": 5785,
      "h,": 5786,
      "▁there": 5787,
      "▁wor": 5788,
      "▁और": 5789,
      "ing.": 5790,
      "▁right": 5791,
      "ine": 5792,
      "es,": 5793,
      "og": 5794,
      "▁ar": 5795,
      "या": 5796,
      "▁3": 5797,
      "▁him": 5798,
      "n't": 5799,
      "▁ف": 5800,
      "▁man": 5801,
      "ib": 5802,
      "ри": 5803,
      "▁lik": 5804,
      "ين": 5805,
      "ва": 5806,
      "▁cont": 5807,
      "orm": 5808,
      "ens": 5809,
      "es.": 5810,
      "oug": 5811,
      "na": 5812,
      "▁res": 5813,
      "▁ल": 5814,
      "▁who": 5815,
      "ink": 5816,
      "ung": 5817,
      "one": 5818,
      "▁अ": 5819,
      "▁ver": 5820,
      "▁part": 5821,
      "▁here": 5822,
      "▁don't": 5823,
      "▁get": 5824,
      "ти": 5825,
      "ations": 5826,
      "av": 5827,
      "ла": 5828,
      "ek": 5829,
      "▁на": 5830,
      "▁ac": 5831,
      "на": 5832,
      "per": 5833,
      "ка": 5834,
      "ose": 5835,
      "▁am": 5836,
      "ль": 5837,
      "▁about": 5838,
      "ть": 5839,
      "▁but": 5840,
      "▁द": 5841,
      "ther": 5842,
      "port": 5843,
      "▁व": 5844,
      "act": 5845,
      "▁her": 5846,
      "ार": 5847,
      "▁Ch": 5848,
      "▁б": 5849,
      "ally": 5850,
      "ement": 5851,
      "ond": 5852,
      "ier": 5853,
      "ัน": 5854,
      "▁like": 5855,
      "▁us": 5856,
      "▁pre": 5857,
      "▁не": 5858,
      "▁has": 5859,
      "lic": 5860,
      "▁did": 5861,
      "▁dis": 5862,
      "az": 5863,
      "ne": 5864,
      "ने": 5865,
      "ame": 5866,
      "▁any": 5867,
      "▁want": 5868,
      "▁All": 5869,
      "ru": 5870,
      "▁ي": 5871,
      "ub": 5872,
      "▁i": 5873,
      "▁es": 5874,
      "ions": 5875,
      "rop": 5876,
      "ass": 5877,
      "ob": 5878,
      "▁à": 5879,
      "ien": 5880,
      "ven": 5881,
      "▁die": 5882,
      "vel": 5883,
      "▁कर": 5884,
      "here": 5885,
      "▁ع": 5886,
      "ão": 5887,
      "▁من": 5888,
      "ance": 5889,
      "pt": 5890,
      "▁l'": 5891,
      "та": 5892,
      "во": 5893,
      "▁خ": 5894,
      "▁their": 5895,
      "ue": 5896,
      "▁It's": 5897,
      "ide": 5898,
      "▁Un": 5899,
      "ont": 5900,
      "▁one": 5901,
      "ed.": 5902,
      "▁pe": 5903,
      "li": 5904,
      "ear": 5905,
      "▁app": 5906,
      "ice": 5907,
      "▁र": 5908,
      "▁were": 5909,
      "ี่": 5910,
      "▁if": 5911,
      "่า": 5912,
      "▁tim": 5913,
      "▁got": 5914,
      "able": 5915,
      "▁ч": 5916,
      "anc": 5917,
      "ult": 5918,
      "ry": 5919,
      "▁Comm": 5920,
      "ों": 5921,
      "er.": 5922,
      "▁would": 5923,
      "▁his": 5924,
      "ما": 5925,
      "▁é": 5926,
      "▁ser": 5927,
      "ound": 5928,
      "ank": 5929,
      "▁del": 5930,
      "▁been": 5931,
      "i,": 5932,
      "ет": 5933,
      "ны": 5934,
      "▁co": 5935,
      "▁That": 5936,
      "aus": 5937,
      "ount": 5938,
      "▁19": 5939,
      "ها": 5940,
      "reat": 5941,
      "ach": 5942,
      "▁gu": 5943,
      "ge": 5944,
      "رو": 5945,
      "ер": 5946,
      "▁Wh": 5947,
      "▁had": 5948,
      "▁der": 5949,
      "▁you.": 5950,
      "▁у": 5951,
      "▁les": 5952,
      "01": 5953,
      "cl": 5954,
      "itt": 5955,
      "▁الم": 5956,
      "▁which": 5957,
      "en,": 5958,
      "да": 5959,
      "▁te": 5960,
      "▁4": 5961,
      "form": 5962,
      "อง": 5963,
      "gr": 5964,
      "ational": 5965,
      "▁au": 5966,
      "▁say": 5967,
      "▁.": 5968,
      "▁ش": 5969,
      "ся": 5970,
      "▁need": 5971,
      "▁comp": 5972,
      "▁س": 5973,
      "uk": 5974,
      "▁के": 5975,
      "ло": 5976,
      "tern": 5977,
      "▁think": 5978,
      "▁em": 5979,
      "▁कि": 5980,
      "▁now": 5981,
      "me": 5982,
      "▁rec": 5983,
      "n.": 5984,
      "ени": 5985,
      "▁some": 5986,
      "▁ro": 5987,
      "ुम": 5988,
      "▁This": 5989,
      "▁5": 5990,
      "ft": 5991,
      "▁act": 5992,
      "▁เ": 5993,
      "▁[": 5994,
      "ign": 5995,
      "▁che": 5996,
      "▁off": 5997,
      "▁du": 5998,
      "▁si": 5999,
      "che": 6000,
      "io": 6001,
      "age": 6002,
      "▁it.": 6003,
      "▁But": 6004,
      "يد": 6005,
      "ية": 6006,
      "▁work": 6007,
      "ary": 6008,
      "emb": 6009,
      "int": 6010,
      "so": 6011,
      "▁ك": 6012,
      "ert": 6013,
      "▁reg": 6014,
      "ace": 6015,
      "▁그": 6016,
      "very": 6017,
      "▁men": 6018,
      "▁ma": 6019,
      "نا": 6020,
      "ay.": 6021,
      "▁she": 6022,
      "ian": 6023,
      "▁when": 6024,
      "▁gr": 6025,
      "▁آ": 6026,
      "ió": 6027,
      "ament": 6028,
      "ade": 6029,
      "▁ter": 6030,
      "▁cl": 6031,
      "▁No": 6032,
      "hing": 6033,
      "▁comm": 6034,
      "ew": 6035,
      "▁its": 6036,
      "▁over": 6037,
      "▁cons": 6038,
      "ress": 6039,
      "ons": 6040,
      "▁mu": 6041,
      "▁da": 6042,
      "▁van": 6043,
      "▁mo": 6044,
      "▁acc": 6045,
      "iet": 6046,
      "▁our": 6047,
      "▁तुम": 6048,
      "ем": 6049,
      "du": 6050,
      "▁Z": 6051,
      "zy": 6052,
      "ated": 6053,
      "de": 6054,
      "ait": 6055,
      "▁back": 6056,
      "200": 6057,
      "ku": 6058,
      "ough": 6059,
      "oll": 6060,
      "▁other": 6061,
      "eah": 6062,
      "ase": 6063,
      "ny": 6064,
      "ient": 6065,
      "gan": 6066,
      "urop": 6067,
      "ند": 6068,
      "ick": 6069,
      "▁को": 6070,
      "▁bet": 6071,
      "eb": 6072,
      "▁за": 6073,
      "ات": 6074,
      "▁good": 6075,
      "्र": 6076,
      "ام": 6077,
      "▁should": 6078,
      "ही": 6079,
      "رد": 6080,
      "ви": 6081,
      "ission": 6082,
      "▁في": 6083,
      "we": 6084,
      "ell,": 6085,
      "▁er": 6086,
      "▁um": 6087,
      "ite": 6088,
      "▁به": 6089,
      "ки": 6090,
      "▁ent": 6091,
      "▁bel": 6092,
      "▁से": 6093,
      "nc": 6094,
      "▁आ": 6095,
      "ान": 6096,
      "▁d'": 6097,
      "ember": 6098,
      "ión": 6099,
      "▁Oh,": 6100,
      "alk": 6101,
      "ile": 6102,
      "▁see": 6103,
      "▁ко": 6104,
      "▁gon": 6105,
      "▁उन": 6106,
      "▁में": 6107,
      "wo": 6108,
      "és": 6109,
      "own": 6110,
      "ition": 6111,
      "),": 6112,
      "▁me.": 6113,
      "ม่": 6114,
      "▁kh": 6115,
      "ug": 6116,
      "▁je": 6117,
      "▁П": 6118,
      "ople": 6119,
      "▁fin": 6120,
      "ied": 6121,
      "ที่": 6122,
      "▁ob": 6123,
      "▁it's": 6124,
      "ause": 6125,
      "▁pol": 6126,
      "▁op": 6127,
      "ild": 6128,
      "▁ح": 6129,
      "▁Ar": 6130,
      "ông": 6131,
      "▁They": 6132,
      "oy": 6133,
      "ren": 6134,
      "ave": 6135,
      "▁dat": 6136,
      "▁tra": 6137,
      "ле": 6138,
      "▁could": 6139,
      "r.": 6140,
      "้า": 6141,
      "ark": 6142,
      "▁imp": 6143,
      "▁ass": 6144,
      "ail": 6145,
      "ada": 6146,
      "old": 6147,
      "اد": 6148,
      "▁gonna": 6149,
      "▁more": 6150,
      "ци": 6151,
      "▁В": 6152,
      "ми": 6153,
      "ता": 6154,
      "ener": 6155,
      "ific": 6156,
      "▁ph": 6157,
      "▁pos": 6158,
      "▁come": 6159,
      "uck": 6160,
      "be": 6161,
      "▁So": 6162,
      "und": 6163,
      "ood": 6164,
      "red": 6165,
      "▁про": 6166,
      "fore": 6167,
      "vent": 6168,
      "ical": 6169,
      "ish": 6170,
      "ai": 6171,
      "▁As": 6172,
      "ди": 6173,
      "▁با": 6174,
      "ay,": 6175,
      "▁those": 6176,
      "▁She": 6177,
      "▁Н": 6178,
      "▁po": 6179,
      ").": 6180,
      "▁إ": 6181,
      "▁il": 6182,
      "▁look": 6183,
      "ते": 6184,
      "▁het": 6185,
      "▁उस": 6186,
      "▁я": 6187,
      "ला": 6188,
      "▁की": 6189,
      "▁ج": 6190,
      "▁under": 6191,
      "ing,": 6192,
      "▁bl": 6193,
      "▁rel": 6194,
      "▁तो": 6195,
      "▁An": 6196,
      "ors": 6197,
      "ود": 6198,
      "ident": 6199,
      "▁people": 6200,
      "▁پ": 6201,
      "▁Yeah": 6202,
      "ull": 6203,
      "▁sc": 6204,
      "▁'": 6205,
      "▁every": 6206,
      "omet": 6207,
      "▁sec": 6208,
      "▁How": 6209,
      "ze": 6210,
      "que": 6211,
      "▁af": 6212,
      "▁ke": 6213,
      "'ll": 6214,
      "▁tak": 6215,
      "ํา": 6216,
      "▁said": 6217,
      "▁ख": 6218,
      "ric": 6219,
      "▁you're": 6220,
      "ไม่": 6221,
      "▁take": 6222,
      "ook": 6223,
      "▁6": 6224,
      "▁Do": 6225,
      "ern": 6226,
      "▁how": 6227,
      "ann": 6228,
      "▁going": 6229,
      "▁den": 6230,
      "▁Well,": 6231,
      "▁Con": 6232,
      "▁Europ": 6233,
      "▁prov": 6234,
      "▁Q": 6235,
      "▁...": 6236,
      "ari": 6237,
      "hn": 6238,
      "ля": 6239,
      "ities": 6240,
      "sel": 6241,
      "▁only": 6242,
      "ett": 6243,
      "▁э": 6244,
      "▁य": 6245,
      "▁los": 6246,
      "▁مي": 6247,
      "▁De": 6248,
      "tic": 6249,
      "▁до": 6250,
      "▁Allah": 6251,
      "▁Al": 6252,
      "ोग": 6253,
      "▁که": 6254,
      "ution": 6255,
      "ble": 6256,
      "ول": 6257,
      "▁bec": 6258,
      "де": 6259,
      "enc": 6260,
      "velop": 6261,
      "▁min": 6262,
      "ction": 6263,
      "er,": 6264,
      "ado": 6265,
      "▁br": 6266,
      "ings": 6267,
      "an.": 6268,
      "ру": 6269,
      "▁may": 6270,
      "▁7": 6271,
      "m.": 6272,
      "อย": 6273,
      "ма": 6274,
      "ôi": 6275,
      "▁ق": 6276,
      "▁sur": 6277,
      "▁If": 6278,
      "▁again": 6279,
      "▁sub": 6280,
      "▁call": 6281,
      "▁أن": 6282,
      "wn": 6283,
      "ري": 6284,
      "ited": 6285,
      "▁year": 6286,
      "▁ind": 6287,
      "h.": 6288,
      "▁make": 6289,
      "แล": 6290,
      "▁time": 6291,
      "ual": 6292,
      "▁na": 6293,
      "▁para": 6294,
      "der": 6295,
      "icht": 6296,
      "▁There": 6297,
      "▁च": 6298,
      "▁pers": 6299,
      "▁что": 6300,
      "ise": 6301,
      "la": 6302,
      "tt": 6303,
      "▁т": 6304,
      "ject": 6305,
      "▁God": 6306,
      "▁resp": 6307,
      "t.": 6308,
      "way": 6309,
      "ฉัน": 6310,
      "▁nh": 6311,
      "ด้": 6312,
      "urn": 6313,
      "▁ра": 6314,
      "▁Ok": 6315,
      "up": 6316,
      "an,": 6317,
      "▁I'll": 6318,
      "▁mat": 6319,
      "▁That's": 6320,
      "ed,": 6321,
      "▁со": 6322,
      "▁Is": 6323,
      "ста": 6324,
      "▁into": 6325,
      "u.": 6326,
      "▁là": 6327,
      "ar.": 6328,
      "▁फ": 6329,
      "▁pour": 6330,
      "iel": 6331,
      "▁por": 6332,
      "▁С": 6333,
      "▁इ": 6334,
      "vers": 6335,
      "pos": 6336,
      "▁where": 6337,
      "▁vo": 6338,
      "ज़": 6339,
      "จะ": 6340,
      "لي": 6341,
      "gram": 6342,
      "les": 6343,
      "▁new": 6344,
      "▁No,": 6345,
      "▁cr": 6346,
      "pport": 6347,
      "▁ein": 6348,
      "мо": 6349,
      "▁also": 6350,
      "▁you,": 6351,
      "▁can't": 6352,
      "ale": 6353,
      "19": 6354,
      "▁count": 6355,
      "▁shall": 6356,
      "ree": 6357,
      "▁somet": 6358,
      "ates": 6359,
      "्ह": 6360,
      "▁ve": 6361,
      "▁let": 6362,
      "▁tell": 6363,
      "▁bir": 6364,
      "▁Pro": 6365,
      "же": 6366,
      "दा": 6367,
      "▁ap": 6368,
      "▁non": 6369,
      "aj": 6370,
      "ten": 6371,
      "▁fe": 6372,
      "▁inform": 6373,
      "▁hel": 6374,
      "हीं": 6375,
      "▁rem": 6376,
      "▁از": 6377,
      "amp": 6378,
      "▁aut": 6379,
      "▁then": 6380,
      "के": 6381,
      "▁You're": 6382,
      "▁رو": 6383,
      "a?": 6384,
      "ना": 6385,
      "ence": 6386,
      "resent": 6387,
      "▁पर": 6388,
      "▁Se": 6389,
      "get": 6390,
      "▁چ": 6391,
      "iff": 6392,
      "▁Т": 6393,
      "▁10": 6394,
      "▁down": 6395,
      "▁met": 6396,
      "▁201": 6397,
      "▁son": 6398,
      "irst": 6399,
      "▁Le": 6400,
      "ph": 6401,
      "▁0": 6402,
      "ought": 6403,
      "▁к": 6404,
      "kan": 6405,
      "▁हम": 6406,
      "min": 6407,
      "وا": 6408,
      "لى": 6409,
      "erd": 6410,
      "ür": 6411,
      "other": 6412,
      "за": 6413,
      "มา": 6414,
      "▁Я": 6415,
      "▁ng": 6416,
      "aw": 6417,
      "▁Д": 6418,
      "▁dec": 6419,
      "ве": 6420,
      "lement": 6421,
      "▁О": 6422,
      "▁را": 6423,
      "▁का": 6424,
      "не": 6425,
      "▁М": 6426,
      "yst": 6427,
      "ional": 6428,
      "rat": 6429,
      "▁dem": 6430,
      "ta": 6431,
      "▁car": 6432,
      "rib": 6433,
      "▁een": 6434,
      "▁una": 6435,
      "คุ": 6436,
      "vern": 6437,
      "ci": 6438,
      "▁भ": 6439,
      "ذا": 6440,
      "▁than": 6441,
      "uss": 6442,
      "▁help": 6443,
      "▁trans": 6444,
      "▁talk": 6445,
      "▁мо": 6446,
      "arm": 6447,
      "ाल": 6448,
      "сти": 6449,
      "ternational": 6450,
      "▁belie": 6451,
      "▁way": 6452,
      "▁before": 6453,
      "ड़": 6454,
      "pr": 6455,
      "▁does": 6456,
      "▁9": 6457,
      "▁ग": 6458,
      "ير": 6459,
      "▁proc": 6460,
      "▁happ": 6461,
      "▁नहीं": 6462,
      "▁two": 6463,
      "▁الأ": 6464,
      "▁об": 6465,
      "ın": 6466,
      "▁eff": 6467,
      "ับ": 6468,
      "▁?": 6469,
      "▁these": 6470,
      "▁при": 6471,
      "mer": 6472,
      "▁Sh": 6473,
      "▁here.": 6474,
      "**": 6475,
      "่อ": 6476,
      "▁bu": 6477,
      "ock": 6478,
      "▁то": 6479,
      "по": 6480,
      "▁К": 6481,
      "▁att": 6482,
      "▁ge": 6483,
      "iy": 6484,
      "'ve": 6485,
      "хо": 6486,
      "▁8": 6487,
      "▁ist": 6488,
      "▁didn't": 6489,
      "▁е": 6490,
      "▁My": 6491,
      "o?": 6492,
      "iew": 6493,
      "ня": 6494,
      "oup": 6495,
      "▁Commission": 6496,
      "ais": 6497,
      "لا": 6498,
      "ely": 6499,
      "ret": 6500,
      "▁Yeah,": 6501,
      "до": 6502,
      "▁ben": 6503,
      "cc": 6504,
      "ور": 6505,
      "▁really": 6506,
      "thing": 6507,
      "▁Europe": 6508,
      "ys": 6509,
      "▁,": 6510,
      "uman": 6511,
      "ว่า": 6512,
      "▁“": 6513,
      "ision": 6514,
      "▁must": 6515,
      "▁inv": 6516,
      "▁không": 6517,
      "िर": 6518,
      "▁Can": 6519,
      "คุณ": 6520,
      "clud": 6521,
      "con": 6522,
      "دا": 6523,
      "้น": 6524,
      "eneral": 6525,
      "▁av": 6526,
      "inc": 6527,
      "xt": 6528,
      "็น": 6529,
      "▁हो": 6530,
      "▁never": 6531,
      "▁yang": 6532,
      "ได้": 6533,
      "▁Sp": 6534,
      "ду": 6535,
      "erc": 6536,
      "▁تو": 6537,
      "▁cas": 6538,
      "▁very": 6539,
      "▁made": 6540,
      "▁conc": 6541,
      "ittle": 6542,
      "▁dé": 6543,
      "on.": 6544,
      "сто": 6545,
      "ublic": 6546,
      "▁partic": 6547,
      "▁tu": 6548,
      "▁quest": 6549,
      "ather": 6550,
      "▁inc": 6551,
      "▁En": 6552,
      "бо": 6553,
      "сь": 6554,
      "eng": 6555,
      "▁inst": 6556,
      "▁develop": 6557,
      "▁even": 6558,
      "्त": 6559,
      "▁requ": 6560,
      "▁!": 6561,
      "▁те": 6562,
      "▁ما": 6563,
      "▁import": 6564,
      "чи": 6565,
      "เธ": 6566,
      "ory": 6567,
      "▁int": 6568,
      "man": 6569,
      "orn": 6570,
      "▁serv": 6571,
      "ck": 6572,
      "row": 6573,
      "▁nie": 6574,
      "d.": 6575,
      "or.": 6576,
      "▁lif": 6577,
      "sp": 6578,
      "▁find": 6579,
      "▁inter": 6580,
      "▁On": 6581,
      "▁जो": 6582,
      "▁Com": 6583,
      "▁Come": 6584,
      "га": 6585,
      "ल्": 6586,
      "हा": 6587,
      "▁लोग": 6588,
      "ione": 6589,
      "▁pas": 6590,
      "ument": 6591,
      "▁¿": 6592,
      "▁ok": 6593,
      "▁conf": 6594,
      "▁199": 6595,
      "ible": 6596,
      "ov": 6597,
      "ation.": 6598,
      "▁ref": 6599,
      "▁real": 6600,
      "ie.": 6601,
      "مي": 6602,
      "تي": 6603,
      "▁report": 6604,
      "urs": 6605,
      "y?": 6606,
      "▁а": 6607,
      "▁La": 6608,
      "ني": 6609,
      "รา": 6610,
      "▁Go": 6611,
      "--": 6612,
      "че": 6613,
      "▁در": 6614,
      "ma": 6615,
      "▁dans": 6616,
      "▁To": 6617,
      "▁kill": 6618,
      "olog": 6619,
      "▁♪": 6620,
      "▁tem": 6621,
      "▁little": 6622,
      "▁exp": 6623,
      "ful": 6624,
      "ato": 6625,
      "▁United": 6626,
      "▁program": 6627,
      "▁có": 6628,
      "▁first": 6629,
      "▁mar": 6630,
      "ros": 6631,
      "เป": 6632,
      "▁아": 6633,
      "▁wr": 6634,
      "▁Re": 6635,
      "▁लि": 6636,
      "aç": 6637,
      "ку": 6638,
      "▁от": 6639,
      "ча": 6640,
      "ork": 6641,
      "its": 6642,
      "▁во": 6643,
      "▁हैं": 6644,
      "▁mi": 6645,
      "▁%": 6646,
      "▁бы": 6647,
      "cept": 6648,
      "arl": 6649,
      "▁ta": 6650,
      "▁day": 6651,
      "▁Let": 6652,
      "▁organ": 6653,
      "air": 6654,
      "ures": 6655,
      "▁because": 6656,
      "▁cap": 6657,
      "▁niet": 6658,
      "▁Qu": 6659,
      "▁after": 6660,
      "се": 6661,
      "▁sch": 6662,
      "ัง": 6663,
      "▁much": 6664,
      "าย": 6665,
      "erv": 6666,
      "▁thr": 6667,
      "▁گ": 6668,
      "าร": 6669,
      "riend": 6670,
      "▁such": 6671,
      "ke": 6672,
      "ath": 6673,
      "▁las": 6674,
      "▁person": 6675,
      "▁ر": 6676,
      "ounc": 6677,
      "ystem": 6678,
      "▁dire": 6679,
      "▁이": 6680,
      "▁Not": 6681,
      "any": 6682,
      "lar": 6683,
      "▁num": 6684,
      "▁hand": 6685,
      "▁tod": 6686,
      "▁می": 6687,
      "land": 6688,
      "nh": 6689,
      "▁wat": 6690,
      "ita": 6691,
      "▁Je": 6692,
      "▁rep": 6693,
      "▁Est": 6694,
      "▁ou": 6695,
      "って": 6696,
      "ection": 6697,
      "▁我": 6698,
      "▁sign": 6699,
      "से": 6700,
      "ious": 6701,
      "▁mon": 6702,
      "abil": 6703,
      "▁та": 6704,
      "▁produ": 6705,
      "▁это": 6706,
      "เข": 6707,
      "ない": 6708,
      "bre": 6709,
      "▁something": 6710,
      "▁sin": 6711,
      "self": 6712,
      "ving": 6713,
      "▁long": 6714,
      "▁I've": 6715,
      "र्": 6716,
      "▁ए": 6717,
      "▁diff": 6718,
      "▁अप": 6719,
      "ollow": 6720,
      "orr": 6721,
      "ación": 6722,
      "==": 6723,
      "▁12": 6724,
      "ér": 6725,
      "itu": 6726,
      "ecial": 6727,
      "▁str": 6728,
      "▁जा": 6729,
      "▁gi": 6730,
      "си": 6731,
      "ین": 6732,
      "ments": 6733,
      "▁poss": 6734,
      "▁through": 6735,
      "ww": 6736,
      "▁ка": 6737,
      "▁Ik": 6738,
      "▁Be": 6739,
      "▁15": 6740,
      "▁leg": 6741,
      "isc": 6742,
      "ular": 6743,
      "ну": 6744,
      "▁А": 6745,
      "▁하": 6746,
      "▁you?": 6747,
      "amil": 6748,
      "▁اين": 6749,
      "ation,": 6750,
      "▁Why": 6751,
      "ux": 6752,
      "▁Ad": 6753,
      "ไป": 6754,
      "gu": 6755,
      ".1": 6756,
      "▁disc": 6757,
      "▁się": 6758,
      "ative": 6759,
      "▁includ": 6760,
      "▁For": 6761,
      "ia,": 6762,
      "▁prom": 6763,
      "▁memb": 6764,
      "abl": 6765,
      "▁une": 6766,
      "ения": 6767,
      "▁bo": 6768,
      "▁meet": 6769,
      "ism": 6770,
      "▁fl": 6771,
      "▁cour": 6772,
      "▁ask": 6773,
      "िन": 6774,
      "in.": 6775,
      "▁him.": 6776,
      "ever": 6777,
      "ym": 6778,
      "▁/": 6779,
      "ijn": 6780,
      "▁Don't": 6781,
      "лю": 6782,
      "amb": 6783,
      "▁sure": 6784,
      "ей": 6785,
      "▁Lord": 6786,
      "▁Who": 6787,
      "hed": 6788,
      "ict": 6789,
      "▁Or": 6790,
      "▁го": 6791,
      "irl": 6792,
      "▁Reg": 6793,
      "hor": 6794,
      "ité": 6795,
      "▁ev": 6796,
      "▁that's": 6797,
      "att": 6798,
      "ных": 6799,
      "▁das": 6800,
      "ad.": 6801,
      "ady": 6802,
      "ating": 6803,
      "▁well": 6804,
      "ody": 6805,
      "▁zu": 6806,
      "ให": 6807,
      "▁Now": 6808,
      "▁inte": 6809,
      "▁#": 6810,
      "▁ré": 6811,
      "ando": 6812,
      "ia.": 6813,
      "▁وال": 6814,
      "ider": 6815,
      "▁Rep": 6816,
      "▁give": 6817,
      "▁dur": 6818,
      "▁20": 6819,
      "ticle": 6820,
      "лу": 6821,
      "▁wom": 6822,
      "▁است": 6823,
      "▁هم": 6824,
      "าก": 6825,
      "▁ins": 6826,
      "ward": 6827,
      "▁qui": 6828,
      "▁det": 6829,
      "▁put": 6830,
      "ved": 6831,
      "لك": 6832,
      "ins": 6833,
      "▁great": 6834,
      "▁rest": 6835,
      "ouncil": 6836,
      "му": 6837,
      "วก": 6838,
      "▁night": 6839,
      "ion.": 6840,
      "▁Gr": 6841,
      "жи": 6842,
      "▁ed": 6843,
      "igh": 6844,
      "▁ple": 6845,
      "▁international": 6846,
      "▁El": 6847,
      "▁Just": 6848,
      "นั": 6849,
      "▁ç": 6850,
      "▁Tr": 6851,
      "▁Fr": 6852,
      "▁unt": 6853,
      "▁He's": 6854,
      "▁Mar": 6855,
      "อก": 6856,
      "ู้": 6857,
      "▁있": 6858,
      "▁fr": 6859,
      "▁add": 6860,
      "com": 6861,
      "فت": 6862,
      "▁use": 6863,
      "▁Ver": 6864,
      "▁dan": 6865,
      "▁वह": 6866,
      "hr": 6867,
      "ying": 6868,
      "った": 6869,
      "▁sm": 6870,
      "▁pri": 6871,
      "्य": 6872,
      "▁Sec": 6873,
      "▁von": 6874,
      "za": 6875,
      "▁last": 6876,
      "ime": 6877,
      "▁Ex": 6878,
      "льно": 6879,
      "ka": 6880,
      "itte": 6881,
      "▁thing": 6882,
      "▁form": 6883,
      "▁11": 6884,
      "เป็น": 6885,
      "▁that.": 6886,
      "▁know,": 6887,
      "▁follow": 6888,
      "ered": 6889,
      "्या": 6890,
      "▁Hey,": 6891,
      "ween": 6892,
      "'d": 6893,
      "ner": 6894,
      "▁mod": 6895,
      "as.": 6896,
      "▁def": 6897,
      "idak": 6898,
      "▁still": 6899,
      "ella": 6900,
      "▁दे": 6901,
      "vo": 6902,
      "ของ": 6903,
      "ana": 6904,
      "oth": 6905,
      "▁ان": 6906,
      "▁col": 6907,
      "▁believe": 6908,
      "ex": 6909,
      "يم": 6910,
      "echn": 6911,
      "▁Par": 6912,
      "▁world": 6913,
      "conom": 6914,
      "▁love": 6915,
      "▁sol": 6916,
      "▁soc": 6917,
      "al.": 6918,
      "▁Mr.": 6919,
      "щи": 6920,
      "▁human": 6921,
      "▁proble": 6922,
      "िस": 6923,
      "ผม": 6924,
      "▁best": 6925,
      "का": 6926,
      "▁ż": 6927,
      "▁pow": 6928,
      "▁ret": 6929,
      "eren": 6930,
      "▁activ": 6931,
      "้ว": 6932,
      "▁ز": 6933,
      "▁May": 6934,
      "ces": 6935,
      "▁Council": 6936,
      "▁word": 6937,
      "ante": 6938,
      "़ु": 6939,
      "af": 6940,
      "iqu": 6941,
      "▁แ": 6942,
      "enn": 6943,
      "et.": 6944,
      "มัน": 6945,
      "▁most": 6946,
      "▁Where": 6947,
      "/2": 6948,
      "▁вы": 6949,
      "resident": 6950,
      "▁لا": 6951,
      "ทํา": 6952,
      "▁ik": 6953,
      "ید": 6954,
      "▁Pr": 6955,
      "aar": 6956,
      "▁mak": 6957,
      "idad": 6958,
      "ty": 6959,
      "▁bas": 6960,
      "▁old": 6961,
      "▁being": 6962,
      "ives": 6963,
      "▁voor": 6964,
      "▁gl": 6965,
      "▁between": 6966,
      "aut": 6967,
      "يا": 6968,
      "▁bro": 6969,
      "▁prot": 6970,
      "▁तुम्ह": 6971,
      "▁थ": 6972,
      "▁Are": 6973,
      "قد": 6974,
      "▁«": 6975,
      "▁ฉัน": 6976,
      "▁list": 6977,
      "rag": 6978,
      "▁–": 6979,
      "als": 6980,
      "uh": 6981,
      "▁ре": 6982,
      "▁Ab": 6983,
      "stand": 6984,
      "▁chang": 6985,
      "ove": 6986,
      "▁tôi": 6987,
      "os.": 6988,
      "▁بر": 6989,
      "▁feel": 6990,
      "▁start": 6991,
      "AR": 6992,
      "ię": 6993,
      "▁When": 6994,
      "▁child": 6995,
      "ือ": 6996,
      "้อง": 6997,
      "▁ol": 6998,
      "▁(1": 6999,
      "ере": 7000,
      "ี้": 7001,
      "on,": 7002,
      "▁Aku": 7003,
      "▁प्र": 7004,
      "▁लिए": 7005,
      "रा": 7006,
      "่ง": 7007,
      "▁bi": 7008,
      "▁famil": 7009,
      "▁commun": 7010,
      "▁end": 7011,
      "▁support": 7012,
      "▁آن": 7013,
      "/1": 7014,
      "ef": 7015,
      "sh": 7016,
      "imin": 7017,
      "▁Look": 7018,
      "▁Af": 7019,
      "su": 7020,
      "▁cent": 7021,
      "▁European": 7022,
      "▁اون": 7023,
      "ie,": 7024,
      "▁Nations": 7025,
      "ให้": 7026,
      "rest": 7027,
      "▁it?": 7028,
      "سا": 7029,
      "าม": 7030,
      "rent": 7031,
      "▁compl": 7032,
      "แล้ว": 7033,
      "▁cle": 7034,
      "▁thought": 7035,
      "le.": 7036,
      "▁system": 7037,
      "▁own": 7038,
      "▁ви": 7039,
      "▁fac": 7040,
      "▁vi": 7041,
      "iem": 7042,
      "▁against": 7043,
      "par": 7044,
      "w.": 7045,
      "▁ц": 7046,
      "ON": 7047,
      "app": 7048,
      "▁med": 7049,
      "ir.": 7050,
      "ries": 7051,
      "▁Jo": 7052,
      "uy": 7053,
      "ices": 7054,
      "iam": 7055,
      "▁No.": 7056,
      "go": 7057,
      "▁ber": 7058,
      "▁ext": 7059,
      "▁Thank": 7060,
      "ır": 7061,
      "▁18": 7062,
      "▁doing": 7063,
      "▁me,": 7064,
      "ird": 7065,
      "ulation": 7066,
      "▁States": 7067,
      "den": 7068,
      "ме": 7069,
      "ाह": 7070,
      "▁care": 7071,
      "ств": 7072,
      "ER": 7073,
      "▁lat": 7074,
      "▁why": 7075,
      "▁now.": 7076,
      "s?": 7077,
      "па": 7078,
      "ры": 7079,
      "▁inf": 7080,
      "▁he's": 7081,
      "▁war": 7082,
      "▁pass": 7083,
      "▁não": 7084,
      "▁fil": 7085,
      "opt": 7086,
      "ix": 7087,
      "▁_": 7088,
      "vernment": 7089,
      "ool": 7090,
      "▁nicht": 7091,
      "▁girl": 7092,
      "▁الت": 7093,
      "▁على": 7094,
      "▁better": 7095,
      "شت": 7096,
      "▁mit": 7097,
      "ey": 7098,
      "со": 7099,
      "▁cor": 7100,
      "rit": 7101,
      "▁pod": 7102,
      "▁name": 7103,
      "▁пре": 7104,
      "\".": 7105,
      "▁भी": 7106,
      "ler": 7107,
      "of": 7108,
      "▁friend": 7109,
      "▁एक": 7110,
      "▁show": 7111,
      "عل": 7112,
      "▁ce": 7113,
      "▁cert": 7114,
      "▁nà": 7115,
      "▁keep": 7116,
      "▁इस": 7117,
      "ts": 7118,
      "▁dist": 7119,
      "▁бу": 7120,
      "มี": 7121,
      "ister": 7122,
      "ados": 7123,
      "▁on.": 7124,
      "▁ही": 7125,
      "yp": 7126,
      "ще": 7127,
      "▁ho": 7128,
      "ly,": 7129,
      "▁ने": 7130,
      "▁happen": 7131,
      "ши": 7132,
      "พวก": 7133,
      "úng": 7134,
      "raph": 7135,
      "▁x": 7136,
      "▁aw": 7137,
      "ural": 7138,
      "une": 7139,
      "t,": 7140,
      "िया": 7141,
      "▁sent": 7142,
      "▁По": 7143,
      "ée": 7144,
      "▁loc": 7145,
      "▁it,": 7146,
      "raw": 7147,
      "▁used": 7148,
      "ique": 7149,
      "rol": 7150,
      "сть": 7151,
      "▁ét": 7152,
      "nie": 7153,
      "หน": 7154,
      "▁Б": 7155,
      "▁cho": 7156,
      "▁We're": 7157,
      "▁dr": 7158,
      "ên": 7159,
      "▁fuck": 7160,
      ".2": 7161,
      "dz": 7162,
      "▁kau": 7163,
      "▁کن": 7164,
      "▁plan": 7165,
      "▁contin": 7166,
      "i?": 7167,
      "led": 7168,
      "▁الع": 7169,
      "▁لل": 7170,
      "erg": 7171,
      "▁wait": 7172,
      "▁present": 7173,
      "▁kind": 7174,
      "▁30": 7175,
      "▁cur": 7176,
      "ho": 7177,
      "ده": 7178,
      "▁national": 7179,
      "cz": 7180,
      "urity": 7181,
      "▁point": 7182,
      "وم": 7183,
      "▁nó": 7184,
      "olution": 7185,
      "▁right.": 7186,
      "ido": 7187,
      "▁Er": 7188,
      "▁don": 7189,
      "▁Committe": 7190,
      "ał": 7191,
      "e?": 7192,
      "جا": 7193,
      "गे": 7194,
      "▁os": 7195,
      "▁fun": 7196,
      "▁&": 7197,
      "▁—": 7198,
      "inn": 7199,
      "▁found": 7200,
      "▁play": 7201,
      "én": 7202,
      "ู่": 7203,
      "▁де": 7204,
      "ิด": 7205,
      "▁Sie": 7206,
      "im.": 7207,
      "iven": 7208,
      "ego": 7209,
      "oi": 7210,
      "ina": 7211,
      "▁set": 7212,
      "▁16": 7213,
      "ize": 7214,
      "ारे": 7215,
      "▁Đ": 7216,
      "▁،": 7217,
      "▁cu": 7218,
      "ía": 7219,
      "ủa": 7220,
      "▁श": 7221,
      "▁Then": 7222,
      "ibil": 7223,
      "▁ва": 7224,
      "би": 7225,
      "ги": 7226,
      "ết": 7227,
      "▁told": 7228,
      "ion,": 7229,
      "▁Ne": 7230,
      "ного": 7231,
      "▁spe": 7232,
      "ben": 7233,
      "ım": 7234,
      "อะ": 7235,
      "▁public": 7236,
      "ica": 7237,
      "▁Mr": 7238,
      "unt": 7239,
      "▁मु": 7240,
      "▁hom": 7241,
      "▁stat": 7242,
      "ways": 7243,
      "са": 7244,
      "▁vol": 7245,
      "เล": 7246,
      "ระ": 7247,
      "▁turn": 7248,
      "▁sel": 7249,
      "▁कु": 7250,
      "//": 7251,
      "ту": 7252,
      "การ": 7253,
      "▁è": 7254,
      "▁Am": 7255,
      "ay?": 7256,
      "ute": 7257,
      "▁रह": 7258,
      "▁auf": 7259,
      "/200": 7260,
      "://": 7261,
      "lo": 7262,
      "ün": 7263,
      "що": 7264,
      "เห": 7265,
      "▁Il": 7266,
      "els": 7267,
      "iment": 7268,
      "▁Dec": 7269,
      "และ": 7270,
      "▁second": 7271,
      "▁information": 7272,
      "ha": 7273,
      "िक": 7274,
      "▁của": 7275,
      "ito": 7276,
      "▁fact": 7277,
      "ีย": 7278,
      "▁ф": 7279,
      "▁rev": 7280,
      "▁concern": 7281,
      "су": 7282,
      "▁г": 7283,
      "▁bus": 7284,
      "▁Ind": 7285,
      "▁stand": 7286,
      "▁بال": 7287,
      "▁this.": 7288,
      "EC": 7289,
      "ually": 7290,
      "▁place": 7291,
      "▁number": 7292,
      "sch": 7293,
      "دي": 7294,
      "▁ide": 7295,
      "▁Sch": 7296,
      "▁dev": 7297,
      "▁val": 7298,
      "▁cond": 7299,
      "▁qual": 7300,
      "▁What's": 7301,
      "AN": 7302,
      "IN": 7303,
      "▁too": 7304,
      "▁14": 7305,
      "هم": 7306,
      "นี้": 7307,
      "▁sen": 7308,
      "▁pat": 7309,
      "▁für": 7310,
      "▁Article": 7311,
      "men": 7312,
      "жа": 7313,
      "▁techn": 7314,
      "▁mom": 7315,
      "le,": 7316,
      "▁many": 7317,
      "เขา": 7318,
      "して": 7319,
      "it.": 7320,
      "oper": 7321,
      "▁them.": 7322,
      "न्": 7323,
      "▁؟": 7324,
      "国家": 7325,
      "▁His": 7326,
      "▁we're": 7327,
      "▁mean": 7328,
      "▁ख़ु": 7329,
      "▁years": 7330,
      "गा": 7331,
      "▁supp": 7332,
      "▁up.": 7333,
      "▁important": 7334,
      "gg": 7335,
      "่น": 7336,
      "acht": 7337,
      "000": 7338,
      "ruct": 7339,
      "éc": 7340,
      "بر": 7341,
      "ines": 7342,
      "ars": 7343,
      "▁nec": 7344,
      "▁Good": 7345,
      "▁implement": 7346,
      "ness": 7347,
      "คร": 7348,
      "▁:": 7349,
      "▁bre": 7350,
      "▁vis": 7351,
      "▁Ma": 7352,
      "▁Your": 7353,
      "▁मै": 7354,
      "ột": 7355,
      "alt": 7356,
      "▁ra": 7357,
      "▁बा": 7358,
      "▁around": 7359,
      "ции": 7360,
      "ới": 7361,
      "▁aku": 7362,
      "▁sl": 7363,
      "▁on,": 7364,
      "▁Per": 7365,
      "▁President": 7366,
      "▁financ": 7367,
      "▁direct": 7368,
      "ไร": 7369,
      "▁out.": 7370,
      "▁problem": 7371,
      "▁Right": 7372,
      "▁law": 7373,
      "ря": 7374,
      "ले": 7375,
      "वा": 7376,
      "▁tidak": 7377,
      "▁pu": 7378,
      "▁Yes,": 7379,
      "▁anh": 7380,
      "▁ann": 7381,
      "ies.": 7382,
      "▁सा": 7383,
      "▁мен": 7384,
      "kt": 7385,
      "зо": 7386,
      "की": 7387,
      "ต้อง": 7388,
      "▁mas": 7389,
      "▁tot": 7390,
      "ice.": 7391,
      "▁Get": 7392,
      "AT": 7393,
      "p://": 7394,
      "▁Tôi": 7395,
      "ided": 7396,
      "ief": 7397,
      "▁Em": 7398,
      "▁jest": 7399,
      "▁als": 7400,
      "▁there.": 7401,
      "▁Ass": 7402,
      "▁understand": 7403,
      "▁mil": 7404,
      "▁oper": 7405,
      "▁دار": 7406,
      "▁development": 7407,
      "/6": 7408,
      "▁dest": 7409,
      "▁và": 7410,
      "▁organiz": 7411,
      "▁main": 7412,
      "▁17": 7413,
      "▁ص": 7414,
      "▁go.": 7415,
      "aire": 7416,
      "اب": 7417,
      "क़": 7418,
      "▁cre": 7419,
      "▁pay": 7420,
      "as,": 7421,
      "ants": 7422,
      "▁life": 7423,
      "تر": 7424,
      "▁mill": 7425,
      "ity.": 7426,
      "ets": 7427,
      "▁ever": 7428,
      "▁accord": 7429,
      "ting": 7430,
      "arg": 7431,
      "▁nat": 7432,
      "▁kid": 7433,
      "irm": 7434,
      "▁Nie": 7435,
      "u,": 7436,
      "ves": 7437,
      "ıy": 7438,
      "▁З": 7439,
      "▁same": 7440,
      "▁Co": 7441,
      "▁always": 7442,
      "шь": 7443,
      "org": 7444,
      "amos": 7445,
      "▁Did": 7446,
      "199": 7447,
      "▁effect": 7448,
      "▁Committee": 7449,
      "je": 7450,
      "▁ş": 7451,
      "▁sim": 7452,
      "▁sem": 7453,
      "▁uma": 7454,
      "y!": 7455,
      "ượ": 7456,
      "▁aff": 7457,
      "▁bis": 7458,
      "▁stop": 7459,
      "▁ме": 7460,
      "▁right?": 7461,
      "'est": 7462,
      "мен": 7463,
      "▁might": 7464,
      "ara": 7465,
      "oss": 7466,
      "▁ris": 7467,
      "▁Г": 7468,
      "▁htt": 7469,
      "▁equ": 7470,
      "▁plus": 7471,
      "z.": 7472,
      "ère": 7473,
      "▁At": 7474,
      "▁dep": 7475,
      "am.": 7476,
      "นะ": 7477,
      "▁そ": 7478,
      "▁situ": 7479,
      "▁head": 7480,
      "ivers": 7481,
      "ów": 7482,
      "▁mark": 7483,
      "▁Me": 7484,
      "ly.": 7485,
      "um.": 7486,
      "▁There's": 7487,
      "▁że": 7488,
      "uch": 7489,
      "ско": 7490,
      "ित": 7491,
      "▁ich": 7492,
      "▁зна": 7493,
      "▁वे": 7494,
      "كن": 7495,
      "▁me?": 7496,
      "ной": 7497,
      "▁está": 7498,
      "▁अपने": 7499,
      "duc": 7500,
      "ken": 7501,
      "مان": 7502,
      "▁sk": 7503,
      "▁without": 7504,
      "ение": 7505,
      "ल्ला": 7506,
      "ườ": 7507,
      "عد": 7508,
      "at.": 7509,
      "▁mess": 7510,
      "iron": 7511,
      "amento": 7512,
      "lich": 7513,
      "▁И": 7514,
      "in,": 7515,
      "▁came": 7516,
      "▁heb": 7517,
      "▁another": 7518,
      "бе": 7519,
      "شه": 7520,
      "▁13": 7521,
      "▁como": 7522,
      "▁appro": 7523,
      "▁Э": 7524,
      "▁mus": 7525,
      "▁li": 7526,
      "▁guy": 7527,
      "vention": 7528,
      "▁Okay,": 7529,
      "вер": 7530,
      "रे": 7531,
      "▁enc": 7532,
      "▁ख़ुदा": 7533,
      "-t": 7534,
      "10": 7535,
      "من": 7536,
      "ouse": 7537,
      "▁liv": 7538,
      "ente": 7539,
      "▁New": 7540,
      "▁đi": 7541,
      "▁$": 7542,
      "▁ten": 7543,
      "lect": 7544,
      "▁Non": 7545,
      "▁run": 7546,
      "▁doc": 7547,
      "ried": 7548,
      "▁ze": 7549,
      "▁UN": 7550,
      "пи": 7551,
      "คน": 7552,
      "ื่อ": 7553,
      "or,": 7554,
      "arn": 7555,
      "▁Ag": 7556,
      "▁beh": 7557,
      "▁left": 7558,
      "▁art": 7559,
      "▁wrong": 7560,
      "ор": 7561,
      "ก็": 7562,
      "▁sal": 7563,
      "▁mem": 7564,
      "▁nam": 7565,
      "▁برا": 7566,
      "▁exper": 7567,
      "▁đâ": 7568,
      "▁pun": 7569,
      "ished": 7570,
      "▁Let's": 7571,
      "a!": 7572,
      "oot": 7573,
      "tre": 7574,
      "▁polic": 7575,
      "อยู่": 7576,
      "ev": 7577,
      "лен": 7578,
      "اي": 7579,
      "วย": 7580,
      "iones": 7581,
      "▁Es": 7582,
      "▁adopt": 7583,
      "aug": 7584,
      "▁her.": 7585,
      "-m": 7586,
      "ét": 7587,
      "ід": 7588,
      "▁lot": 7589,
      "▁full": 7590,
      "▁25": 7591,
      "ijk": 7592,
      "ше": 7593,
      "رف": 7594,
      "قت": 7595,
      "▁ö": 7596,
      "ico": 7597,
      "....": 7598,
      "▁Br": 7599,
      "▁prop": 7600,
      "▁time.": 7601,
      "▁meng": 7602,
      "ES": 7603,
      "ats": 7604,
      "iter": 7605,
      "alth": 7606,
      "▁Die": 7607,
      "▁مع": 7608,
      "iał": 7609,
      "▁expl": 7610,
      "▁polit": 7611,
      "▁хо": 7612,
      "ini": 7613,
      "▁both": 7614,
      "▁econom": 7615,
      "▁General": 7616,
      "▁alle": 7617,
      "▁đã": 7618,
      "▁Stat": 7619,
      "▁consider": 7620,
      "▁respect": 7621,
      "ल्लाह": 7622,
      "EN": 7623,
      "▁sẽ": 7624,
      "ata": 7625,
      "▁pa": 7626,
      "▁applic": 7627,
      "อะไร": 7628,
      "▁मैं": 7629,
      "▁om": 7630,
      "▁Ple": 7631,
      "▁사": 7632,
      "▁each": 7633,
      "▁beg": 7634,
      "▁stre": 7635,
      "▁propos": 7636,
      "2)": 7637,
      "▁ti": 7638,
      "▁gì": 7639,
      "▁const": 7640,
      "erent": 7641,
      "-b": 7642,
      "▁ड": 7643,
      "▁things": 7644,
      "▁Ben": 7645,
      "อน": 7646,
      "▁раз": 7647,
      "اً": 7648,
      "حد": 7649,
      "▁vers": 7650,
      "▁leave": 7651,
      "ateg": 7652,
      "▁minut": 7653,
      "6,": 7654,
      "▁env": 7655,
      "ные": 7656,
      "▁process": 7657,
      "▁거": 7658,
      "ane": 7659,
      "▁hear": 7660,
      "▁arm": 7661,
      "▁group": 7662,
      "amente": 7663,
      "▁На": 7664,
      "▁फिर": 7665,
      "/5": 7666,
      "ใน": 7667,
      "is.": 7668,
      "▁three": 7669,
      "ott": 7670,
      "▁alre": 7671,
      "▁ave": 7672,
      "▁sorr": 7673,
      "▁из": 7674,
      "oint": 7675,
      "को": 7676,
      "▁या": 7677,
      "▁establ": 7678,
      "incip": 7679,
      "uf": 7680,
      "ải": 7681,
      "した": 7682,
      "▁gel": 7683,
      "ste": 7684,
      "oci": 7685,
      "▁document": 7686,
      "بي": 7687,
      "کن": 7688,
      "▁내": 7689,
      "ital": 7690,
      "▁но": 7691,
      "▁order": 7692,
      "ски": 7693,
      "เร": 7694,
      "▁É": 7695,
      "igen": 7696,
      "▁that?": 7697,
      "▁countries": 7698,
      "▁certain": 7699,
      "hip": 7700,
      "zi": 7701,
      "ні": 7702,
      "rem": 7703,
      "▁cal": 7704,
      "▁mel": 7705,
      "▁một": 7706,
      "▁stud": 7707,
      "▁24": 7708,
      "ure.": 7709,
      "▁anything": 7710,
      "▁particular": 7711,
      "not": 7712,
      "▁vot": 7713,
      "▁zijn": 7714,
      "ться": 7715,
      "▁aux": 7716,
      "▁किया": 7717,
      "ror": 7718,
      "คว": 7719,
      "ất": 7720,
      "▁ی": 7721,
      "▁가": 7722,
      "▁akan": 7723,
      "ator": 7724,
      "▁пра": 7725,
      "▁right,": 7726,
      "▁esp": 7727,
      "▁regard": 7728,
      "▁ты": 7729,
      "▁http://": 7730,
      "ger": 7731,
      "ron": 7732,
      "ช่": 7733,
      "▁Р": 7734,
      "ention": 7735,
      "▁Min": 7736,
      "▁Pl": 7737,
      "▁week": 7738,
      "▁अल्लाह": 7739,
      "▁including": 7740,
      "yl": 7741,
      "ör": 7742,
      "سي": 7743,
      "会议": 7744,
      "ity,": 7745,
      "▁bes": 7746,
      "adi": 7747,
      "▁đó": 7748,
      "body": 7749,
      "work": 7750,
      "ık": 7751,
      "▁dies": 7752,
      "▁sw": 7753,
      "▁werd": 7754,
      "▁mone": 7755,
      "▁l’": 7756,
      "elle": 7757,
      "et,": 7758,
      "▁هذا": 7759,
      "▁respons": 7760,
      "▁require": 7761,
      "20": 7762,
      "मान": 7763,
      "ấy": 7764,
      "▁ст": 7765,
      "▁cá": 7766,
      "▁Ph": 7767,
      "▁neg": 7768,
      "▁know.": 7769,
      "▁product": 7770,
      "fer": 7771,
      "国际": 7772,
      "▁away": 7773,
      "mes": 7774,
      "قي": 7775,
      "ดี": 7776,
      "▁ü": 7777,
      "▁말": 7778,
      "iti": 7779,
      "▁gen": 7780,
      "os,": 7781,
      "▁prof": 7782,
      "▁level": 7783,
      "ared": 7784,
      "في": 7785,
      "▁della": 7786,
      "▁hard": 7787,
      "▁Bu": 7788,
      "▁21": 7789,
      "▁все": 7790,
      "▁spec": 7791,
      "▁among": 7792,
      "▁خدا": 7793,
      "▁कुछ": 7794,
      "co": 7795,
      "اه": 7796,
      "कर": 7797,
      "▁Her": 7798,
      "▁так": 7799,
      "aff": 7800,
      "bel": 7801,
      "пе": 7802,
      "▁fav": 7803,
      "▁Member": 7804,
      "30": 7805,
      "▁no,": 7806,
      "ession": 7807,
      "ação": 7808,
      "ja": 7809,
      "▁father": 7810,
      "▁issu": 7811,
      "▁بود": 7812,
      "тель": 7813,
      "2,": 7814,
      "м,": 7815,
      "el.": 7816,
      "▁для": 7817,
      "▁result": 7818,
      "/C": 7819,
      "委员": 7820,
      "▁你": 7821,
      "hes": 7822,
      "▁post": 7823,
      "▁lang": 7824,
      "▁Sc": 7825,
      "▁Dan": 7826,
      "▁हु": 7827,
      "▁matter": 7828,
      "▁author": 7829,
      "क्": 7830,
      "’s": 7831,
      "reg": 7832,
      "▁pop": 7833,
      "arent": 7834,
      "▁کرد": 7835,
      "ract": 7836,
      "ास": 7837,
      "▁lead": 7838,
      "▁2004": 7839,
      "ements": 7840,
      "▁إلى": 7841,
      "ược": 7842,
      "委员会": 7843,
      "o!": 7844,
      "й,": 7845,
      "ine.": 7846,
      "▁Ich": 7847,
      "▁invest": 7848,
      "नी": 7849,
      "▁pot": 7850,
      "▁thank": 7851,
      "▁She's": 7852,
      "ih": 7853,
      "pa": 7854,
      "ti": 7855,
      "िय": 7856,
      "itions": 7857,
      "▁heart": 7858,
      "▁do.": 7859,
      "▁Here": 7860,
      "▁pleas": 7861,
      "री": 7862,
      "ิน": 7863,
      "▁У": 7864,
      "▁ми": 7865,
      "gether": 7866,
      "2.": 7867,
      "tain": 7868,
      "รู้": 7869,
      "▁big": 7870,
      "ing?": 7871,
      "raft": 7872,
      "ike": 7873,
      "▁contrib": 7874,
      "▁кото": 7875,
      "ui": 7876,
      "°C": 7877,
      "ás": 7878,
      "ذلك": 7879,
      "าน": 7880,
      "▁test": 7881,
      "▁aan": 7882,
      "▁mother": 7883,
      "▁क्या": 7884,
      "ages": 7885,
      "▁मे": 7886,
      "▁जब": 7887,
      "▁mais": 7888,
      "IS": 7889,
      "rist": 7890,
      "گه": 7891,
      "▁คุณ": 7892,
      "▁що": 7893,
      "ar,": 7894,
      "▁الس": 7895,
      "▁се": 7896,
      "मा": 7897,
      "▁ba": 7898,
      "al,": 7899,
      "▁I'd": 7900,
      "▁ма": 7901,
      "▁Commun": 7902,
      "▁room": 7903,
      "the": 7904,
      "▁So,": 7905,
      "▁us.": 7906,
      "▁read": 7907,
      "▁(C": 7908,
      "▁Part": 7909,
      "use": 7910,
      "▁يه": 7911,
      "hing.": 7912,
      "mi": 7913,
      "ız": 7914,
      "联合": 7915,
      "▁Amer": 7916,
      "ées": 7917,
      "ativ": 7918,
      "▁eine": 7919,
      "▁view": 7920,
      "▁stay": 7921,
      "▁meas": 7922,
      "ारी": 7923,
      "▁Okay.": 7924,
      "minist": 7925,
      "نت": 7926,
      "ه‌": 7927,
      "ั้": 7928,
      "ại": 7929,
      "▁ผม": 7930,
      "▁won't": 7931,
      "▁Im": 7932,
      "cht": 7933,
      "ept": 7934,
      "nya": 7935,
      "m,": 7936,
      "▁และ": 7937,
      "▁sect": 7938,
      "▁while": 7939,
      "▁ज़": 7940,
      "▁saf": 7941,
      "irect": 7942,
      "▁incre": 7943,
      "▁लोगों": 7944,
      "يز": 7945,
      "िल": 7946,
      "▁X": 7947,
      "▁fore": 7948,
      "▁parag": 7949,
      "1,": 7950,
      "ذه": 7951,
      "▁pres": 7952,
      "▁together": 7953,
      "▁high": 7954,
      "นั้น": 7955,
      "▁already": 7956,
      "นี่": 7957,
      "▁나": 7958,
      "▁dos": 7959,
      "▁mes": 7960,
      "▁mind": 7961,
      "ete": 7962,
      "ch.": 7963,
      "▁EU": 7964,
      "azione": 7965,
      "่าง": 7966,
      "▁creat": 7967,
      "▁wy": 7968,
      "▁that,": 7969,
      "▁nothing": 7970,
      "▁everything": 7971,
      "▁bring": 7972,
      "▁می‌": 7973,
      "by": 7974,
      "gen": 7975,
      "no": 7976,
      "िश": 7977,
      "ora": 7978,
      "▁fre": 7979,
      "▁Bl": 7980,
      "▁Pol": 7981,
      "rap": 7982,
      "▁project": 7983,
      "▁agre": 7984,
      "▁open": 7985,
      "▁particip": 7986,
      "aim": 7987,
      "iod": 7988,
      "ิง": 7989,
      "问题": 7990,
      "▁TH": 7991,
      "▁Oh": 7992,
      "▁there's": 7993,
      "▁خو": 7994,
      "▁यह": 7995,
      "▁temp": 7996,
      "▁lim": 7997,
      "ech": 7998,
      "▁да": 7999,
      "ния": 8000,
      "▁doesn't": 8001,
      "▁social": 8002,
      "ca": 8003,
      "▁і": 8004,
      "▁tw": 8005,
      "iness": 8006,
      "▁1.": 8007,
      "▁بد": 8008,
      "▁mean,": 8009,
      "▁ни": 8010,
      "▁करें": 8011,
      "ukan": 8012,
      "▁ये": 8013,
      "▁since": 8014,
      "gi": 8015,
      "зи": 8016,
      "▁tel": 8017,
      "ers.": 8018,
      "▁pi": 8019,
      "▁boy": 8020,
      "▁four": 8021,
      "▁hop": 8022,
      "ige": 8023,
      "▁है,": 8024,
      "ffic": 8025,
      "pre": 8026,
      "सा": 8027,
      "หร": 8028,
      "▁あ": 8029,
      "▁این": 8030,
      "▁الإ": 8031,
      "▁जिस": 8032,
      "▁आप": 8033,
      "3,": 8034,
      "عم": 8035,
      "니다": 8036,
      "ected": 8037,
      "▁cooper": 8038,
      "cul": 8039,
      "ni": 8040,
      "rz": 8041,
      "wa": 8042,
      "फ़": 8043,
      "one.": 8044,
      "▁sich": 8045,
      "▁fund": 8046,
      "▁ont": 8047,
      "ies,": 8048,
      "▁princip": 8049,
      "▁move": 8050,
      "▁उनके": 8051,
      "erence": 8052,
      "ral": 8053,
      "ты": 8054,
      "ering": 8055,
      "▁sie": 8056,
      "▁cos": 8057,
      "▁الح": 8058,
      "▁Ger": 8059,
      "raz": 8060,
      "▁ens": 8061,
      "▁okay?": 8062,
      "-c": 8063,
      "ões": 8064,
      "й.": 8065,
      "м.": 8066,
      "▁sat": 8067,
      "▁hell": 8068,
      "▁Every": 8069,
      "▁prob": 8070,
      "▁enough": 8071,
      "▁под": 8072,
      "▁month": 8073,
      "ua": 8074,
      "вы": 8075,
      "جل": 8076,
      "فر": 8077,
      "ती": 8078,
      "เรา": 8079,
      "ano": 8080,
      "ither": 8081,
      "aux": 8082,
      "▁them,": 8083,
      "▁ले": 8084,
      "▁це": 8085,
      "3.": 8086,
      "ба": 8087,
      "edi": 8088,
      "lev": 8089,
      "▁कह": 8090,
      "ange": 8091,
      "ischen": 8092,
      "่ะ": 8093,
      "▁ро": 8094,
      "▁land": 8095,
      "ura": 8096,
      "▁sobre": 8097,
      "▁rights": 8098,
      "www.": 8099,
      "▁moment": 8100,
      "ак": 8101,
      "सी": 8102,
      "发展": 8103,
      "▁bit": 8104,
      "ama": 8105,
      "ami": 8106,
      "amm": 8107,
      "каза": 8108,
      "▁offic": 8109,
      "▁remember": 8110,
      "▁children": 8111,
      "ві": 8112,
      "ша": 8113,
      "is,": 8114,
      "▁fight": 8115,
      "▁norm": 8116,
      "▁heard": 8117,
      "▁upon": 8118,
      "▁control": 8119,
      "ption": 8120,
      "عت": 8121,
      "یم": 8122,
      "▁job": 8123,
      "ified": 8124,
      "▁prim": 8125,
      "▁2005": 8126,
      "▁resolution": 8127,
      "▁interest": 8128,
      "val": 8129,
      "▁sus": 8130,
      "▁qu'": 8131,
      "pro": 8132,
      "ya": 8133,
      "▁ط": 8134,
      "▁mis": 8135,
      "urd": 8136,
      "▁hab": 8137,
      "-d": 8138,
      "から": 8139,
      "eder": 8140,
      "▁Cl": 8141,
      "▁within": 8142,
      "▁شما": 8143,
      "▁women": 8144,
      "-s": 8145,
      "жно": 8146,
      "ัว": 8147,
      "▁plac": 8148,
      "▁account": 8149,
      "▁entre": 8150,
      "OR": 8151,
      "uj": 8152,
      "ış": 8153,
      "اق": 8154,
      "▁자": 8155,
      "erk": 8156,
      "▁wel": 8157,
      "▁rece": 8158,
      "ida": 8159,
      "▁mere": 8160,
      "▁adv": 8161,
      "▁wanted": 8162,
      "▁Secret": 8163,
      "aught": 8164,
      "رة": 8165,
      "กับ": 8166,
      "อา": 8167,
      "เจ": 8168,
      "▁(A": 8169,
      "▁Bec": 8170,
      "▁seen": 8171,
      "▁عن": 8172,
      "▁untuk": 8173,
      "▁current": 8174,
      "zen": 8175,
      "ต่": 8176,
      "▁tut": 8177,
      "▁send": 8178,
      "▁mal": 8179,
      "▁har": 8180,
      "urt": 8181,
      "▁By": 8182,
      "▁exist": 8183,
      "ized": 8184,
      "ommend": 8185,
      "▁phải": 8186,
      "▁как": 8187,
      "กล": 8188,
      "oud": 8189,
      "▁bab": 8190,
      "ily": 8191,
      "▁Fin": 8192,
      "▁State": 8193,
      "▁question": 8194,
      "▁necess": 8195,
      "bo": 8196,
      "гра": 8197,
      "گر": 8198,
      "▁Е": 8199,
      "ides": 8200,
      "utions": 8201,
      "▁special": 8202,
      "ungen": 8203,
      "▁represent": 8204,
      "бы": 8205,
      "لة": 8206,
      "▁port": 8207,
      "ili": 8208,
      "▁Will": 8209,
      "ploy": 8210,
      ".\"": 8211,
      "zie": 8212,
      "éd": 8213,
      "▁Ч": 8214,
      "工作": 8215,
      "▁dro": 8216,
      "urther": 8217,
      "▁One": 8218,
      "▁Res": 8219,
      "ende": 8220,
      "▁दो": 8221,
      "obal": 8222,
      "▁clear": 8223,
      "-1": 8224,
      "lin": 8225,
      "าง": 8226,
      "itar": 8227,
      "▁bad": 8228,
      "ette": 8229,
      "▁With": 8230,
      "outh": 8231,
      "▁man.": 8232,
      "▁here?": 8233,
      "▁бо": 8234,
      "ный": 8235,
      "****": 8236,
      "-f": 8237,
      "c.": 8238,
      "less": 8239,
      "رت": 8240,
      "▁dom": 8241,
      "▁od": 8242,
      "▁eu": 8243,
      "▁different": 8244,
      "▁possible": 8245,
      "va": 8246,
      "ych": 8247,
      "▁어": 8248,
      "ater": 8249,
      "▁Su": 8250,
      "▁Sen": 8251,
      "▁isn't": 8252,
      "▁Our": 8253,
      "ump": 8254,
      "▁сво": 8255,
      "▁Kau": 8256,
      "▁है।": 8257,
      "▁period": 8258,
      "50": 8259,
      "6.": 8260,
      "में": 8261,
      "ร์": 8262,
      "▁彼": 8263,
      "▁given": 8264,
      "▁Pre": 8265,
      "ably": 8266,
      "ется": 8267,
      "clus": 8268,
      "ield": 8269,
      "/0": 8270,
      "ry.": 8271,
      "▁dow": 8272,
      "▁sou": 8273,
      "▁fa": 8274,
      "str": 8275,
      "▁Les": 8276,
      "▁الق": 8277,
      "▁Of": 8278,
      "▁perm": 8279,
      "ความ": 8280,
      "▁ไม่": 8281,
      "▁dir": 8282,
      "ici": 8283,
      "▁deb": 8284,
      "▁reas": 8285,
      "▁الب": 8286,
      "rab": 8287,
      "▁school": 8288,
      "▁until": 8289,
      "chen": 8290,
      "ks": 8291,
      "ют": 8292,
      "कि": 8293,
      "▁bed": 8294,
      "▁home": 8295,
      "▁ut": 8296,
      "am,": 8297,
      "▁Pe": 8298,
      "▁क़": 8299,
      "7,": 8300,
      "sk": 8301,
      "он": 8302,
      "▁done": 8303,
      "▁miss": 8304,
      "ische": 8305,
      "eth": 8306,
      "▁eas": 8307,
      "▁او": 8308,
      "▁Man": 8309,
      "▁Não": 8310,
      "▁here,": 8311,
      "▁उन्ह": 8312,
      "iyor": 8313,
      "เธอ": 8314,
      "▁जाए": 8315,
      "▁activities": 8316,
      "联合国": 8317,
      "▁¡": 8318,
      "报告": 8319,
      "arch": 8320,
      "▁hour": 8321,
      "▁được": 8322,
      "▁working": 8323,
      "ção": 8324,
      "ेश": 8325,
      "▁غ": 8326,
      "▁wan": 8327,
      "itor": 8328,
      "▁trying": 8329,
      "▁back.": 8330,
      "▁ses": 8331,
      "▁went": 8332,
      "▁Ge": 8333,
      "▁grand": 8334,
      "▁looking": 8335,
      "▁talking": 8336,
      "▁speak": 8337,
      "ès": 8338,
      "んだ": 8339,
      "어요": 8340,
      "▁sind": 8341,
      "▁ci": 8342,
      "▁ey": 8343,
      "▁पह": 8344,
      "▁cours": 8345,
      "ю,": 8346,
      "با": 8347,
      "ूल": 8348,
      "▁것": 8349,
      "▁ing": 8350,
      "▁wir": 8351,
      "▁pur": 8352,
      "aya": 8353,
      "▁Bo": 8354,
      "▁کار": 8355,
      "▁viol": 8356,
      "8,": 8357,
      "mo": 8358,
      "nen": 8359,
      "жен": 8360,
      "▁안": 8361,
      "akt": 8362,
      "▁rồ": 8363,
      "▁coming": 8364,
      "ordin": 8365,
      "▁फ़": 8366,
      "▁request": 8367,
      "ross": 8368,
      "-G": 8369,
      "ues": 8370,
      "▁ton": 8371,
      "▁ach": 8372,
      "atic": 8373,
      "▁fire": 8374,
      "▁nu": 8375,
      "acc": 8376,
      "▁Het": 8377,
      "▁is.": 8378,
      "▁الد": 8379,
      "▁пере": 8380,
      "▁Ro": 8381,
      "कार": 8382,
      "▁Car": 8383,
      "▁Direct": 8384,
      "▁(P": 8385,
      "▁itu": 8386,
      "▁Gu": 8387,
      "▁means": 8388,
      "ife": 8389,
      "▁па": 8390,
      "▁avec": 8391,
      "aat": 8392,
      "hre": 8393,
      "أن": 8394,
      "्ट": 8395,
      "ess.": 8396,
      "alf": 8397,
      "idd": 8398,
      "▁kal": 8399,
      "osed": 8400,
      "▁manag": 8401,
      "تون": 8402,
      "สิ": 8403,
      "▁»": 8404,
      "ati": 8405,
      "▁cost": 8406,
      "arge": 8407,
      "▁nos": 8408,
      "▁yap": 8409,
      "▁Des": 8410,
      "▁exc": 8411,
      "nex": 8412,
      "▁object": 8413,
      "▁country": 8414,
      "▁priv": 8415,
      "uel": 8416,
      "сно": 8417,
      "する": 8418,
      "▁case": 8419,
      "▁(S": 8420,
      "us.": 8421,
      "ment.": 8422,
      "▁esc": 8423,
      "1.": 8424,
      "24": 8425,
      "pect": 8426,
      "مر": 8427,
      "▁โ": 8428,
      "▁mag": 8429,
      "▁vous": 8430,
      "ство": 8431,
      "ources": 8432,
      "▁المت": 8433,
      "▁कोई": 8434,
      "▁assist": 8435,
      "▁said,": 8436,
      "):": 8437,
      "ого": 8438,
      "▁air": 8439,
      "▁bil": 8440,
      "▁Have": 8441,
      "ations,": 8442,
      "ode": 8443,
      "▁good.": 8444,
      "0,": 8445,
      "lig": 8446,
      "yn": 8447,
      "ön": 8448,
      "гда": 8449,
      "ів": 8450,
      "وي": 8451,
      "दि": 8452,
      "หล": 8453,
      "▁cô": 8454,
      "▁cop": 8455,
      "elf": 8456,
      "ents": 8457,
      "▁eart": 8458,
      "▁ste": 8459,
      "▁whole": 8460,
      "▁그들": 8461,
      "▁local": 8462,
      "ười": 8463,
      "ес": 8464,
      "ined": 8465,
      "▁pap": 8466,
      "▁light": 8467,
      "▁tom": 8468,
      "rog": 8469,
      "leep": 8470,
      "▁Che": 8471,
      "▁Anh": 8472,
      "ko": 8473,
      "ras": 8474,
      "ıl": 8475,
      "ائ": 8476,
      "▁aqu": 8477,
      "▁bud": 8478,
      "leg": 8479,
      "▁सं": 8480,
      "▁सम": 8481,
      "▁لم": 8482,
      "▁again.": 8483,
      "OM": 8484,
      "lt": 8485,
      "yle": 8486,
      "про": 8487,
      "ющи": 8488,
      "▁d’": 8489,
      "▁proced": 8490,
      "zo": 8491,
      "гу": 8492,
      "об": 8493,
      "it,": 8494,
      "▁bar": 8495,
      "▁took": 8496,
      "▁thể": 8497,
      "▁Rec": 8498,
      "▁succ": 8499,
      "▁Kh": 8500,
      "▁है.": 8501,
      "▁return": 8502,
      "▁environ": 8503,
      "▁보": 8504,
      "▁..": 8505,
      "▁dal": 8506,
      "▁Si": 8507,
      "▁Col": 8508,
      "▁having": 8509,
      "ства": 8510,
      "▁they're": 8511,
      "▁دو": 8512,
      "▁करते": 8513,
      "▁taken": 8514,
      "ax": 8515,
      "now": 8516,
      "uff": 8517,
      "หม": 8518,
      "in'": 8519,
      "ieve": 8520,
      "▁door": 8521,
      "▁called": 8522,
      "▁Afric": 8523,
      "ื่": 8524,
      "▁छ": 8525,
      "▁こ": 8526,
      "▁너": 8527,
      "▁우": 8528,
      "ining": 8529,
      "ised": 8530,
      "▁hat": 8531,
      "▁seem": 8532,
      "▁security": 8533,
      "▁instit": 8534,
      "7.": 8535,
      "กัน": 8536,
      "▁ти": 8537,
      "なた": 8538,
      "▁tah": 8539,
      "ità": 8540,
      "▁Some": 8541,
      "▁Ho": 8542,
      "akan": 8543,
      "▁International": 8544,
      "▁power": 8545,
      "▁brother": 8546,
      "3)": 8547,
      "IT": 8548,
      "ION": 8549,
      "ez": 8550,
      "my": 8551,
      "▁다": 8552,
      "▁없": 8553,
      "ero": 8554,
      "ate.": 8555,
      "▁Act": 8556,
      "ide.": 8557,
      "▁Was": 8558,
      "▁wasn't": 8559,
      "▁next": 8560,
      "▁knew": 8561,
      "▁desc": 8562,
      "▁करने": 8563,
      "▁They're": 8564,
      "▁Не": 8565,
      "▁아니": 8566,
      "пра": 8567,
      "▁sont": 8568,
      "▁bur": 8569,
      "▁fig": 8570,
      "▁--": 8571,
      "▁chúng": 8572,
      "▁198": 8573,
      "▁taking": 8574,
      "▁Conf": 8575,
      "▁during": 8576,
      "/201": 8577,
      "▁пред": 8578,
      "▁break": 8579,
      "▁Assemb": 8580,
      "▁sorry.": 8581,
      "\",": 8582,
      "▁ऐ": 8583,
      "▁sett": 8584,
      "▁occ": 8585,
      "▁Hell": 8586,
      "ika": 8587,
      "▁recommend": 8588,
      "er?": 8589,
      "ous.": 8590,
      "▁wind": 8591,
      "▁way.": 8592,
      "▁gave": 8593,
      "▁List": 8594,
      "▁trut": 8595,
      "▁allow": 8596,
      "▁What?": 8597,
      "-l": 8598,
      "sw": 8599,
      "ég": 8600,
      "ện": 8601,
      "▁수": 8602,
      "▁treat": 8603,
      "▁dia": 8604,
      "alah": 8605,
      "▁too.": 8606,
      "▁kita": 8607,
      "osp": 8608,
      "▁pract": 8609,
      "▁चाह": 8610,
      "▁sono": 8611,
      "▁था": 8612,
      "vious": 8613,
      "ه،": 8614,
      "ใจ": 8615,
      "ến": 8616,
      "▁no.": 8617,
      "▁hot": 8618,
      "▁Te": 8619,
      "▁this?": 8620,
      "▁yourself": 8621,
      "ure,": 8622,
      "▁Art": 8623,
      "▁following": 8624,
      "▁http://www.": 8625,
      "AC": 8626,
      "▁알": 8627,
      "▁aus": 8628,
      "en?": 8629,
      "▁far": 8630,
      "vem": 8631,
      "unu": 8632,
      "▁2.": 8633,
      "orth": 8634,
      "▁си": 8635,
      "▁cannot": 8636,
      "▁else": 8637,
      "▁Christ": 8638,
      "▁guys": 8639,
      "▁كان": 8640,
      "▁term": 8641,
      "▁moet": 8642,
      "▁Да": 8643,
      "▁promot": 8644,
      "เลย": 8645,
      "8.": 8646,
      "IC": 8647,
      "▁dit": 8648,
      "▁sor": 8649,
      "▁few": 8650,
      "ore.": 8651,
      "▁तर": 8652,
      "▁someone": 8653,
      "▁Ze": 8654,
      "▁decision": 8655,
      "▁Republic": 8656,
      ":1": 8657,
      "ki": 8658,
      "ınd": 8659,
      "ım.": 8660,
      "ัก": 8661,
      "一个": 8662,
      "▁hold": 8663,
      "▁Cont": 8664,
      "orts": 8665,
      "▁able": 8666,
      "▁هنا": 8667,
      "iamo": 8668,
      "▁Because": 8669,
      "5,": 8670,
      "jor": 8671,
      "▁morn": 8672,
      "isions": 8673,
      "▁bag": 8674,
      "ver.": 8675,
      "ization": 8676,
      "ification": 8677,
      "▁làm": 8678,
      "ID": 8679,
      "être": 8680,
      "ć.": 8681,
      "از": 8682,
      "رب": 8683,
      "سم": 8684,
      "ino": 8685,
      "era": 8686,
      "▁Ed": 8687,
      "▁iç": 8688,
      "ance.": 8689,
      "▁obs": 8690,
      "▁Maybe": 8691,
      "▁implementation": 8692,
      "▁paragraph": 8693,
      ":00": 8694,
      "br": 8695,
      "eur": 8696,
      "lu": 8697,
      "قة": 8698,
      "เก": 8699,
      "เด": 8700,
      "▁лю": 8701,
      "です": 8702,
      "▁II": 8703,
      "▁hist": 8704,
      "▁ru": 8705,
      "▁comb": 8706,
      "itted": 8707,
      "▁его": 8708,
      "lam": 8709,
      "ву": 8710,
      "чен": 8711,
      "ใช่": 8712,
      "▁typ": 8713,
      "▁civ": 8714,
      "▁house": 8715,
      "▁değ": 8716,
      "lex": 8717,
      "▁कहा": 8718,
      "mente": 8719,
      "ive.": 8720,
      "▁prz": 8721,
      "▁gotta": 8722,
      "▁access": 8723,
      "▁उसके": 8724,
      "▁پس": 8725,
      "▁family": 8726,
      "5.": 8727,
      "AL": 8728,
      "AS": 8729,
      "BAR": 8730,
      "__": 8731,
      "▁지": 8732,
      "▁ли": 8733,
      "isation": 8734,
      "ioni": 8735,
      "▁Ent": 8736,
      "▁sex": 8737,
      "▁imm": 8738,
      "▁2006": 8739,
      "▁subm": 8740,
      "po": 8741,
      "ूँ": 8742,
      "▁cat": 8743,
      "ese": 8744,
      "ali": 8745,
      "▁hier": 8746,
      "▁you've": 8747,
      "▁الج": 8748,
      "▁jak": 8749,
      "▁ord": 8750,
      "▁रख": 8751,
      "▁record": 8752,
      "▁she's": 8753,
      "мі": 8754,
      "спо": 8755,
      "ــ": 8756,
      "▁walk": 8757,
      "▁pen": 8758,
      "ison": 8759,
      "▁Ter": 8760,
      "▁Wait": 8761,
      "▁với": 8762,
      "▁Mon": 8763,
      "▁heav": 8764,
      "thing.": 8765,
      "▁now,": 8766,
      "▁build": 8767,
      "▁capac": 8768,
      "ever,": 8769,
      "oh": 8770,
      "▁ir": 8771,
      "▁tro": 8772,
      "▁mà": 8773,
      "ece": 8774,
      "un.": 8775,
      "▁check": 8776,
      "▁إن": 8777,
      "▁small": 8778,
      "BAR_": 8779,
      "4,": 8780,
      "▁caus": 8781,
      "▁gener": 8782,
      "▁Son": 8783,
      "▁Bar": 8784,
      "▁ant": 8785,
      "rij": 8786,
      "▁су": 8787,
      "▁saw": 8788,
      "▁wouldn't": 8789,
      "▁provide": 8790,
      "▁Ты": 8791,
      "OU": 8792,
      "ior": 8793,
      "ration": 8794,
      "ه.": 8795,
      "▁ста": 8796,
      "组织": 8797,
      "▁tou": 8798,
      "ince": 8799,
      "ers,": 8800,
      "▁dam": 8801,
      "ased": 8802,
      "▁inde": 8803,
      "▁geb": 8804,
      "▁Ste": 8805,
      "▁kon": 8806,
      "igin": 8807,
      "▁ang": 8808,
      "▁jud": 8809,
      "▁\"T": 8810,
      "▁except": 8811,
      "▁compet": 8812,
      "9.": 8813,
      "s:": 8814,
      "бя": 8815,
      "م.": 8816,
      "จาก": 8817,
      "▁tri": 8818,
      "▁dou": 8819,
      "▁yeah": 8820,
      "elt": 8821,
      "▁स्": 8822,
      "▁кон": 8823,
      "40": 8824,
      "пу": 8825,
      "▁ay": 8826,
      "▁pens": 8827,
      "ales": 8828,
      "omb": 8829,
      "▁Tu": 8830,
      "▁uit": 8831,
      "▁trad": 8832,
      "▁avail": 8833,
      "▁discuss": 8834,
      "for": 8835,
      "ias": 8836,
      "ém": 8837,
      "خت": 8838,
      "นาย": 8839,
      "ần": 8840,
      "▁dass": 8841,
      "▁intern": 8842,
      "▁Any": 8843,
      "▁Wat": 8844,
      "ters": 8845,
      "ран": 8846,
      "▁ин": 8847,
      "▁mater": 8848,
      "▁Government": 8849,
      "-S": 8850,
      "1)": 8851,
      "сле": 8852,
      "حت": 8853,
      "عة": 8854,
      "▁°C": 8855,
      "ream": 8856,
      "▁div": 8857,
      "es?": 8858,
      "isl": 8859,
      "▁in.": 8860,
      "ics": 8861,
      "roll": 8862,
      "anto": 8863,
      "▁what?": 8864,
      "ience": 8865,
      "▁خود": 8866,
      "▁meeting": 8867,
      "▁Now,": 8868,
      "▁economic": 8869,
      "▁über": 8870,
      "▁wanna": 8871,
      "z,": 8872,
      "ке": 8873,
      "مة": 8874,
      "مل": 8875,
      "rend": 8876,
      "▁sing": 8877,
      "▁sir.": 8878,
      "▁whe": 8879,
      "▁further": 8880,
      "тельно": 8881,
      "ropri": 8882,
      "ency": 8883,
      "ั้ง": 8884,
      "eś": 8885,
      "▁ess": 8886,
      "▁fall": 8887,
      "il.": 8888,
      "ima": 8889,
      "▁Jan": 8890,
      "▁least": 8891,
      "▁Und": 8892,
      "ains": 8893,
      "▁administ": 8894,
      "▁يا": 8895,
      "▁regional": 8896,
      "▁fucking": 8897,
      "▁Please": 8898,
      "k.": 8899,
      "ss": 8900,
      "وق": 8901,
      "ผู้": 8902,
      "いる": 8903,
      "▁pel": 8904,
      "▁ye": 8905,
      "▁event": 8906,
      "ad,": 8907,
      "▁L'": 8908,
      "▁provided": 8909,
      "อย่าง": 8910,
      "▁refer": 8911,
      "▁programme": 8912,
      "▁members": 8913,
      "▁Это": 8914,
      "where": 8915,
      "ек": 8916,
      "ای": 8917,
      "مت": 8918,
      "ある": 8919,
      "▁dri": 8920,
      "▁sens": 8921,
      "▁bien": 8922,
      "▁less": 8923,
      "ede": 8924,
      "▁yet": 8925,
      "рова": 8926,
      "▁prett": 8927,
      "▁impro": 8928,
      "aires": 8929,
      "▁dengan": 8930,
      "▁indic": 8931,
      "▁business": 8932,
      ":0": 8933,
      "uat": 8934,
      "خر": 8935,
      "▁nas": 8936,
      "▁general": 8937,
      "▁(E": 8938,
      "▁These": 8939,
      "▁_BAR_": 8940,
      "▁bisa": 8941,
      ":5": 8942,
      "сли": 8943,
      "वर": 8944,
      "ाए": 8945,
      "▁Л": 8946,
      "▁ở": 8947,
      "▁在": 8948,
      "▁这": 8949,
      "▁dell": 8950,
      "▁Cent": 8951,
      "ender": 8952,
      "ров": 8953,
      "▁जिन": 8954,
      "▁người": 8955,
      "▁하나": 8956,
      "▁deter": 8957,
      "▁address": 8958,
      "▁şey": 8959,
      "▁down.": 8960,
      "вет": 8961,
      "نگ": 8962,
      "อบ": 8963,
      "▁ई": 8964,
      "요?": 8965,
      "ani": 8966,
      "▁fut": 8967,
      "▁Him": 8968,
      "ained": 8969,
      "▁try": 8970,
      "▁वा": 8971,
      "▁Yeah.": 8972,
      "▁services": 8973,
      "▁Regulation": 8974,
      "iques": 8975,
      "ื่อง": 8976,
      "دار": 8977,
      "ख़": 8978,
      "▁ذلك": 8979,
      "ます": 8980,
      "▁live": 8981,
      "▁Take": 8982,
      "iding": 8983,
      "▁Eu": 8984,
      "▁أو": 8985,
      "▁نمي": 8986,
      "▁consid": 8987,
      "▁Canada": 8988,
      ":3": 8989,
      "gress": 8990,
      "سب": 8991,
      "गर": 8992,
      "ูก": 8993,
      "ậu": 8994,
      "▁Х": 8995,
      "こと": 8996,
      "政府": 8997,
      "ités": 8998,
      "▁Mas": 8999,
      "▁Lo": 9000,
      "onder": 9001,
      "ему": 9002,
      "▁Convention": 9003,
      "▁complet": 9004,
      "▁John": 9005,
      "▁रहे": 9006,
      "ाम": 9007,
      "▁camp": 9008,
      "orrow": 9009,
      "ash": 9010,
      "stit": 9011,
      "▁forg": 9012,
      "▁Ev": 9013,
      "ude": 9014,
      "▁accept": 9015,
      "▁Union": 9016,
      "▁killed": 9017,
      "▁continu": 9018,
      "▁review": 9019,
      "0.": 9020,
      "ios": 9021,
      "jo": 9022,
      "вля": 9023,
      "وج": 9024,
      "ยัง": 9025,
      "ึง": 9026,
      "▁모": 9027,
      "▁==": 9028,
      "▁tout": 9029,
      "▁sab": 9030,
      "▁nom": 9031,
      "▁hij": 9032,
      "▁Russ": 9033,
      "ards": 9034,
      "▁تا": 9035,
      "▁przy": 9036,
      "▁هر": 9037,
      "▁legal": 9038,
      "▁change": 9039,
      "ING": 9040,
      "▁measures": 9041,
      "▁ident": 9042,
      "▁lu": 9043,
      "uring": 9044,
      "▁(c": 9045,
      "▁هست": 9046,
      "▁save": 9047,
      "▁actually": 9048,
      "▁देख": 9049,
      "▁drink": 9050,
      "▁million": 9051,
      "a)": 9052,
      "ình": 9053,
      "ीन": 9054,
      "▁cz": 9055,
      "▁ini": 9056,
      "▁gra": 9057,
      "▁alt": 9058,
      "ended": 9059,
      "▁أي": 9060,
      "▁دا": 9061,
      "▁him,": 9062,
      "▁như": 9063,
      "ด้วย": 9064,
      "▁educ": 9065,
      "▁financial": 9066,
      "ił": 9067,
      "सूल": 9068,
      "ข้า": 9069,
      "ốn": 9070,
      "▁)": 9071,
      "关于": 9072,
      "▁past": 9073,
      "icult": 9074,
      "▁Bel": 9075,
      "▁مت": 9076,
      "▁22": 9077,
      "ivid": 9078,
      "▁prec": 9079,
      "▁แต่": 9080,
      "▁तुम्हारे": 9081,
      "▁Look,": 9082,
      "▁За": 9083,
      "cie": 9084,
      "put": 9085,
      "اء": 9086,
      "▁私": 9087,
      "安全": 9088,
      "提供": 9089,
      "▁session": 9090,
      "anz": 9091,
      "▁ot": 9092,
      "▁thế": 9093,
      "▁Sa": 9094,
      "imes": 9095,
      "▁health": 9096,
      "▁الا": 9097,
      "▁eng": 9098,
      "▁Uh,": 9099,
      "▁exact": 9100,
      "▁happened": 9101,
      "▁été": 9102,
      "▁nói": 9103,
      ",并": 9104,
      "lie": 9105,
      "зна": 9106,
      "ذي": 9107,
      "方面": 9108,
      "▁merc": 9109,
      "▁lie": 9110,
      "▁it!": 9111,
      "▁بش": 9112,
      "▁haven": 9113,
      "ter.": 9114,
      "▁super": 9115,
      "sere": 9116,
      "▁\"I": 9117,
      "▁myself": 9118,
      "bert": 9119,
      "▁ني": 9120,
      "▁auch": 9121,
      "▁เรา": 9122,
      "▁мож": 9123,
      "▁(1)": 9124,
      "▁accordance": 9125,
      "9,": 9126,
      "eft": 9127,
      "iç": 9128,
      "بل": 9129,
      "قط": 9130,
      "จร": 9131,
      "▁cel": 9132,
      "▁cir": 9133,
      "▁wie": 9134,
      "▁wish": 9135,
      "▁deal": 9136,
      "▁الو": 9137,
      "▁OK": 9138,
      "▁Gl": 9139,
      "▁जान": 9140,
      "▁needs": 9141,
      "▁كه": 9142,
      "itional": 9143,
      "-h": 9144,
      "ão,": 9145,
      "ай": 9146,
      "от": 9147,
      "شان": 9148,
      "か?": 9149,
      "esch": 9150,
      "eld": 9151,
      "ils": 9152,
      "▁Ang": 9153,
      "adas": 9154,
      "▁vari": 9155,
      "uto": 9156,
      "▁100": 9157,
      "age.": 9158,
      "ances": 9159,
      "▁Ко": 9160,
      "-2": 9161,
      "pen": 9162,
      "ю.": 9163,
      "च्": 9164,
      "▁*": 9165,
      "▁여": 9166,
      "▁일": 9167,
      "我们": 9168,
      "▁cult": 9169,
      "▁is,": 9170,
      "▁التي": 9171,
      "▁23": 9172,
      "▁ве": 9173,
      "▁सब": 9174,
      "▁elect": 9175,
      "▁فر": 9176,
      "▁रसूल": 9177,
      "▁let's": 9178,
      "ını": 9179,
      "▁invol": 9180,
      "-General": 9181,
      "ry,": 9182,
      "เค": 9183,
      "▁당": 9184,
      "▁p.": 9185,
      "▁mot": 9186,
      "▁bij": 9187,
      "▁gro": 9188,
      "etz": 9189,
      "▁kan": 9190,
      "▁الش": 9191,
      "▁الف": 9192,
      "iful": 9193,
      "сту": 9194,
      "artment": 9195,
      "ight.": 9196,
      "▁alg": 9197,
      "endo": 9198,
      "▁getting": 9199,
      "able.": 9200,
      "▁God,": 9201,
      "ड़ा": 9202,
      "▁Group": 9203,
      "▁facil": 9204,
      "fect": 9205,
      "ści": 9206,
      "зу": 9207,
      "يس": 9208,
      "▁sam": 9209,
      "▁cut": 9210,
      "alu": 9211,
      "▁Har": 9212,
      "▁Dep": 9213,
      "▁zo": 9214,
      "▁وا": 9215,
      "▁31": 9216,
      "liament": 9217,
      "▁Secretary": 9218,
      "▁Assembly": 9219,
      "▁haven't": 9220,
      "ran": 9221,
      "▁ai": 9222,
      "reen": 9223,
      "▁ur": 9224,
      "amin": 9225,
      "▁kam": 9226,
      "▁Mus": 9227,
      "ir,": 9228,
      "▁Pa": 9229,
      "▁बना": 9230,
      "▁peace": 9231,
      "▁clos": 9232,
      "duct": 9233,
      "▁demand": 9234,
      "▁prior": 9235,
      "▁меня": 9236,
      "▁mereka": 9237,
      "4)": 9238,
      "band": 9239,
      "most": 9240,
      "yd": 9241,
      "бу": 9242,
      "در": 9243,
      "يت": 9244,
      "▁sleep": 9245,
      "▁book": 9246,
      "▁fait": 9247,
      "eden": 9248,
      "lear": 9249,
      "em.": 9250,
      "ak.": 9251,
      "us,": 9252,
      "▁Ju": 9253,
      "▁सक": 9254,
      "▁هل": 9255,
      "ть.": 9256,
      "▁करो": 9257,
      "ance,": 9258,
      "▁appropri": 9259,
      "▁เธ": 9260,
      "▁express": 9261,
      "▁biết": 9262,
      "лі": 9263,
      "كون": 9264,
      "झे": 9265,
      "पर": 9266,
      "▁tas": 9267,
      "▁bod": 9268,
      "ingen": 9269,
      "▁hous": 9270,
      "▁grow": 9271,
      "▁Cons": 9272,
      "▁(_": 9273,
      "▁(b": 9274,
      "▁what's": 9275,
      "ние": 9276,
      "вори": 9277,
      "▁terror": 9278,
      "5)": 9279,
      "come": 9280,
      "vis": 9281,
      "xim": 9282,
      "мы": 9283,
      "рга": 9284,
      "ều": 9285,
      "▁제": 9286,
      "▁มัน": 9287,
      "执行": 9288,
      "으로": 9289,
      "▁faz": 9290,
      "▁top": 9291,
      "▁Tell": 9292,
      "ro.": 9293,
      "▁dei": 9294,
      "imm": 9295,
      "▁vict": 9296,
      "ira": 9297,
      "▁Das": 9298,
      "▁seg": 9299,
      "▁maar": 9300,
      "▁oblig": 9301,
      "▁brought": 9302,
      "▁थे": 9303,
      "▁ensure": 9304,
      ",以": 9305,
      "ce.": 9306,
      "она": 9307,
      "에게": 9308,
      "▁parent": 9309,
      "▁net": 9310,
      "▁Ser": 9311,
      "▁الن": 9312,
      "ant.": 9313,
      "▁trou": 9314,
      "▁дру": 9315,
      "▁रहा": 9316,
      "▁كل": 9317,
      "▁position": 9318,
      "▁please": 9319,
      "▁streng": 9320,
      "▁которы": 9321,
      "fort": 9322,
      "i!": 9323,
      "just": 9324,
      "سان": 9325,
      "▁e'": 9326,
      "eme": 9327,
      "▁Por": 9328,
      "ify": 9329,
      "▁lab": 9330,
      "▁он": 9331,
      "▁أنا": 9332,
      "▁نم": 9333,
      "▁action": 9334,
      "▁рас": 9335,
      "มาก": 9336,
      "▁ngh": 9337,
      "▁Security": 9338,
      "▁probably": 9339,
      "▁reason": 9340,
      "▁उन्हें": 9341,
      "▁pretty": 9342,
      "12": 9343,
      "mu": 9344,
      "ole": 9345,
      "rimin": 9346,
      "zione": 9347,
      "اف": 9348,
      "ately": 9349,
      "▁pain": 9350,
      "▁mult": 9351,
      "▁young": 9352,
      "▁Human": 9353,
      "umm": 9354,
      "ikel": 9355,
      "▁мы": 9356,
      "ogn": 9357,
      "▁consult": 9358,
      "▁हमने": 9359,
      "▁water": 9360,
      "▁makes": 9361,
      "▁situation": 9362,
      "a-": 9363,
      "ires": 9364,
      "ı.": 9365,
      "ه؟": 9366,
      "เน": 9367,
      "▁tar": 9368,
      "▁cou": 9369,
      "▁Aug": 9370,
      "id.": 9371,
      "▁held": 9372,
      "▁one.": 9373,
      "▁بخ": 9374,
      "▁orang": 9375,
      "▁ду": 9376,
      "▁blood": 9377,
      "▁дол": 9378,
      "▁indust": 9379,
      "▁integr": 9380,
      "▁market": 9381,
      "จริง": 9382,
      "RO": 9383,
      "bl": 9384,
      "line": 9385,
      "ác": 9386,
      "é.": 9387,
      "éri": 9388,
      "ığ": 9389,
      "в,": 9390,
      "ха": 9391,
      "รง": 9392,
      "▁sit": 9393,
      "▁cả": 9394,
      "ald": 9395,
      "▁hon": 9396,
      "eter": 9397,
      "idade": 9398,
      "▁kom": 9399,
      "▁1,": 9400,
      "▁learn": 9401,
      "▁using": 9402,
      "▁time,": 9403,
      "▁say,": 9404,
      "▁subject": 9405,
      "▁protect": 9406,
      "▁langu": 9407,
      "uer": 9408,
      "▁+": 9409,
      "에서": 9410,
      "▁oder": 9411,
      "▁hay": 9412,
      "▁gest": 9413,
      "▁god": 9414,
      "ential": 9415,
      "idence": 9416,
      "▁Dr.": 9417,
      "▁26": 9418,
      "ungs": 9419,
      "▁party": 9420,
      "▁باش": 9421,
      "ability": 9422,
      "ning": 9423,
      "rie": 9424,
      "▁Ç": 9425,
      "▁해": 9426,
      "▁dari": 9427,
      "ow.": 9428,
      "▁once": 9429,
      "▁Fl": 9430,
      "▁class": 9431,
      "▁này": 9432,
      ":2": 9433,
      "bar": 9434,
      "ps": 9435,
      "▁İ": 9436,
      "情况": 9437,
      "ones": 9438,
      "▁pan": 9439,
      "▁member": 9440,
      "▁five": 9441,
      "▁file": 9442,
      "add": 9443,
      "▁Nh": 9444,
      "▁step": 9445,
      "▁anim": 9446,
      "▁Jack": 9447,
      "aren": 9448,
      "▁guess": 9449,
      "ched": 9450,
      "▁become": 9451,
      "▁Program": 9452,
      "▁money": 9453,
      "4.": 9454,
      "LL": 9455,
      "aan": 9456,
      "ाब": 9457,
      "ूर": 9458,
      "เพ": 9459,
      "▁dar": 9460,
      "▁free": 9461,
      "ic.": 9462,
      "ent.": 9463,
      "ah.": 9464,
      "▁near": 9465,
      "▁Ke": 9466,
      "▁lost": 9467,
      "▁employ": 9468,
      "▁حال": 9469,
      "▁individ": 9470,
      "▁benef": 9471,
      "▁protection": 9472,
      "▁साथ": 9473,
      "▁success": 9474,
      "▁우리": 9475,
      "ium": 9476,
      "por": 9477,
      "ę.": 9478,
      "他们": 9479,
      "社会": 9480,
      "▁due": 9481,
      "▁mir": 9482,
      "▁fear": 9483,
      "▁n'": 9484,
      "nde": 9485,
      "▁Cap": 9486,
      "aciones": 9487,
      "▁whom": 9488,
      "▁दिन": 9489,
      "ारा": 9490,
      "▁command": 9491,
      "▁Про": 9492,
      "▁maybe": 9493,
      "▁THE": 9494,
      "11": 9495,
      "ağ": 9496,
      "aft": 9497,
      "oor": 9498,
      "ली": 9499,
      "บอก": 9500,
      "▁저": 9501,
      "▁전": 9502,
      "▁tre": 9503,
      "▁sound": 9504,
      "▁wit": 9505,
      "▁Tom": 9506,
      "▁europ": 9507,
      "igo": 9508,
      "emos": 9509,
      "vert": 9510,
      "▁knows": 9511,
      "▁up,": 9512,
      "▁therefore": 9513,
      "▁दिया": 9514,
      "▁खु": 9515,
      "▁days": 9516,
      "wards": 9517,
      "▁December": 9518,
      "RE": 9519,
      "ąc": 9520,
      "ін": 9521,
      "رار": 9522,
      "ात": 9523,
      "▁않": 9524,
      "ise.": 9525,
      "▁to.": 9526,
      "▁gar": 9527,
      "▁Mo": 9528,
      "▁stor": 9529,
      "▁27": 9530,
      "▁sua": 9531,
      "ource": 9532,
      "egen": 9533,
      "▁contact": 9534,
      "▁six": 9535,
      "ड़े": 9536,
      "▁тебе": 9537,
      "▁life.": 9538,
      "▁earth": 9539,
      "bs": 9540,
      "iver": 9541,
      "s)": 9542,
      "▁お": 9543,
      "包括": 9544,
      "▁draft": 9545,
      "ature": 9546,
      "orld": 9547,
      "▁Tak": 9548,
      "▁Acc": 9549,
      "▁uh,": 9550,
      "▁Post": 9551,
      "▁Like": 9552,
      "▁stuff": 9553,
      "▁anal": 9554,
      "тив": 9555,
      "rug": 9556,
      "▁Không": 9557,
      "▁için": 9558,
      "▁civil": 9559,
      "-p": 9560,
      ":4": 9561,
      "ตัว": 9562,
      "方案": 9563,
      "▁wird": 9564,
      "▁nel": 9565,
      "▁dead": 9566,
      "▁(M": 9567,
      "iving": 9568,
      "нима": 9569,
      "▁verd": 9570,
      "▁50": 9571,
      "▁police": 9572,
      "▁data": 9573,
      "▁asked": 9574,
      "▁technolog": 9575,
      "▁하나님": 9576,
      "-0": 9577,
      "tó": 9578,
      "ät": 9579,
      "ща": 9580,
      "เส": 9581,
      "▁id": 9582,
      "▁ao": 9583,
      "re.": 9584,
      "▁you'll": 9585,
      "ille": 9586,
      "▁km": 9587,
      "▁vậ": 9588,
      "▁بي": 9589,
      "▁answ": 9590,
      "▁Um": 9591,
      "▁पू": 9592,
      "ekt": 9593,
      "▁major": 9594,
      "selves": 9595,
      "▁Develop": 9596,
      "anya": 9597,
      "▁signific": 9598,
      "com/": 9599,
      "न्द": 9600,
      "▁Americ": 9601,
      "▁util": 9602,
      "▁sö": 9603,
      "el,": 9604,
      "▁Miss": 9605,
      "ecut": 9606,
      "▁Bir": 9607,
      "▁government": 9608,
      "▁هي": 9609,
      "▁як": 9610,
      "▁Que": 9611,
      "▁making": 9612,
      "?\"": 9613,
      "ać": 9614,
      "gli": 9615,
      "шо": 9616,
      "かった": 9617,
      "特别": 9618,
      "ania": 9619,
      "▁wil": 9620,
      "▁pub": 9621,
      "▁item": 9622,
      "▁conn": 9623,
      "▁trust": 9624,
      "ard.": 9625,
      "▁تر": 9626,
      "▁अन": 9627,
      "ная": 9628,
      "▁continue": 9629,
      "▁बात": 9630,
      "▁total": 9631,
      "▁political": 9632,
      "vi": 9633,
      "ظر": 9634,
      "决议": 9635,
      "▁fail": 9636,
      "elijk": 9637,
      "▁Ap": 9638,
      "ache": 9639,
      "▁Hay": 9640,
      "▁Pal": 9641,
      "▁proper": 9642,
      "▁Ra": 9643,
      "apa": 9644,
      "▁دي": 9645,
      "▁बह": 9646,
      "дин": 9647,
      "▁defin": 9648,
      "▁global": 9649,
      "ıyor": 9650,
      "▁environment": 9651,
      "▁material": 9652,
      "▁ईमान": 9653,
      "дно": 9654,
      "คิด": 9655,
      "▁nach": 9656,
      "▁gew": 9657,
      "▁red": 9658,
      "ada.": 9659,
      "▁rul": 9660,
      "erenc": 9661,
      "▁هذه": 9662,
      "▁2007": 9663,
      "▁3.": 9664,
      "ет,": 9665,
      "▁trav": 9666,
      "हाँ": 9667,
      "▁strong": 9668,
      "▁तुम्हें": 9669,
      "▁behind": 9670,
      "▁Community": 9671,
      "▁Secretary-General": 9672,
      "مو": 9673,
      "نة": 9674,
      "वाल": 9675,
      "ाइ": 9676,
      "▁же": 9677,
      "rew": 9678,
      "ishing": 9679,
      "▁Day": 9680,
      "htm": 9681,
      "▁ju": 9682,
      "стви": 9683,
      "pped": 9684,
      "ours": 9685,
      "aps": 9686,
      "▁Stop": 9687,
      "▁سو": 9688,
      "▁recent": 9689,
      "▁transport": 9690,
      "เจ้า": 9691,
      "▁available": 9692,
      "AD": 9693,
      "х,": 9694,
      "لت": 9695,
      "ुन": 9696,
      "ุด": 9697,
      "▁•": 9698,
      "行动": 9699,
      "ene": 9700,
      "at,": 9701,
      "▁Mess": 9702,
      "▁Dat": 9703,
      "▁вс": 9704,
      "▁\"A": 9705,
      "api": 9706,
      "▁бе": 9707,
      "ruction": 9708,
      "مات": 9709,
      "▁guid": 9710,
      "▁saying": 9711,
      "▁final": 9712,
      "▁उसे": 9713,
      "▁something.": 9714,
      "▁See": 9715,
      "▁course": 9716,
      "ству": 9717,
      "ствен": 9718,
      "▁cooperation": 9719,
      "▁whether": 9720,
      "-200": 9721,
      "fic": 9722,
      "jet": 9723,
      "rac": 9724,
      "ан": 9725,
      "ці": 9726,
      "اص": 9727,
      "ंग": 9728,
      "ững": 9729,
      "▁घ": 9730,
      "▁오": 9731,
      "▁press": 9732,
      "▁fix": 9733,
      "▁nor": 9734,
      "▁App": 9735,
      "▁June": 9736,
      "▁zur": 9737,
      "▁adm": 9738,
      "▁text": 9739,
      "▁policy": 9740,
      "6)": 9741,
      "ешь": 9742,
      "чно": 9743,
      "स्": 9744,
      "▁何": 9745,
      "▁s'": 9746,
      "iten": 9747,
      "itation": 9748,
      "▁Sept": 9749,
      "▁Eng": 9750,
      "ter,": 9751,
      "▁Jes": 9752,
      "▁पै": 9753,
      "▁esta": 9754,
      "ении": 9755,
      "▁Novem": 9756,
      "▁service": 9757,
      "นั่น": 9758,
      "▁adopted": 9759,
      "▁determin": 9760,
      "-M": 9761,
      "ED": 9762,
      "dom": 9763,
      "iar": 9764,
      "ris": 9765,
      "üz": 9766,
      "тся": 9767,
      "بت": 9768,
      "วิ": 9769,
      "▁대": 9770,
      "an?": 9771,
      "▁cam": 9772,
      "▁food": 9773,
      "▁field": 9774,
      "▁Say": 9775,
      "▁ear": 9776,
      "ley": 9777,
      "▁do?": 9778,
      "▁doct": 9779,
      "▁sud": 9780,
      "▁sust": 9781,
      "▁\"W": 9782,
      "▁abs": 9783,
      "▁above": 9784,
      "▁ada": 9785,
      "plic": 9786,
      "ava": 9787,
      "▁ча": 9788,
      "▁mov": 9789,
      "▁associ": 9790,
      "▁key": 9791,
      "▁рабо": 9792,
      "▁không?": 9793,
      "▁okay.": 9794,
      "ibility": 9795,
      "▁hope": 9796,
      "sz": 9797,
      "дь": 9798,
      "ุก": 9799,
      "代表": 9800,
      "하는": 9801,
      "ate,": 9802,
      "▁mer": 9803,
      "▁inn": 9804,
      "ur.": 9805,
      "unk": 9806,
      "▁Oct": 9807,
      "▁Off": 9808,
      "▁me!": 9809,
      "▁short": 9810,
      "▁We'll": 9811,
      "▁تع": 9812,
      "▁2000": 9813,
      "▁wants": 9814,
      "▁secret": 9815,
      "▁efforts": 9816,
      "▁strateg": 9817,
      "▁Parliament": 9818,
      "▁patient": 9819,
      "เรื่อง": 9820,
      "▁investig": 9821,
      "/A": 9822,
      "ière": 9823,
      "ział": 9824,
      "án": 9825,
      "że": 9826,
      "รอ": 9827,
      "อร์": 9828,
      "▁झ": 9829,
      "▁doll": 9830,
      "▁well,": 9831,
      "▁mı": 9832,
      "▁and,": 9833,
      "olo": 9834,
      "▁conv": 9835,
      "▁struct": 9836,
      "▁energ": 9837,
      "ending": 9838,
      "▁để": 9839,
      "▁đang": 9840,
      "▁there,": 9841,
      "▁arr": 9842,
      "▁delle": 9843,
      "▁40": 9844,
      "▁سر": 9845,
      "ไม่ได้": 9846,
      "▁Мо": 9847,
      "▁created": 9848,
      "▁German": 9849,
      "czy": 9850,
      "ão.": 9851,
      "вя": 9852,
      "ды": 9853,
      "дер": 9854,
      "лы": 9855,
      "ống": 9856,
      "▁ध": 9857,
      "▁พ": 9858,
      "iner": 9859,
      "▁swe": 9860,
      "▁Sat": 9861,
      "▁któ": 9862,
      "▁مش": 9863,
      "ah,": 9864,
      "aha": 9865,
      "oke": 9866,
      "▁rob": 9867,
      "▁muốn": 9868,
      "▁era": 9869,
      "▁fine.": 9870,
      "▁trab": 9871,
      "▁%s": 9872,
      "▁Organ": 9873,
      "▁Exc": 9874,
      "▁simp": 9875,
      "▁werden": 9876,
      "fe": 9877,
      "over": 9878,
      "له": 9879,
      "▁ส": 9880,
      "▁ที่": 9881,
      "atives": 9882,
      "▁más": 9883,
      "▁low": 9884,
      "▁hac": 9885,
      "▁either": 9886,
      "lem": 9887,
      "ations.": 9888,
      "▁(2": 9889,
      "▁مو": 9890,
      "▁हूँ": 9891,
      "▁not.": 9892,
      "▁este": 9893,
      "▁article": 9894,
      "▁common": 9895,
      "pportun": 9896,
      "▁difficult": 9897,
      "▁night.": 9898,
      "▁specific": 9899,
      "▁management": 9900,
      "▁September": 9901,
      "h...": 9902,
      "pond": 9903,
      "ué": 9904,
      "zer": 9905,
      "üy": 9906,
      "ła": 9907,
      "ść": 9908,
      "л,": 9909,
      "ắn": 9910,
      "▁주": 9911,
      "ises": 9912,
      "▁Ber": 9913,
      "▁الخ": 9914,
      "▁we'll": 9915,
      "▁пу": 9916,
      "ceed": 9917,
      "▁zw": 9918,
      "▁पास": 9919,
      "▁Intern": 9920,
      "▁amount": 9921,
      "лько": 9922,
      "anno": 9923,
      "▁einen": 9924,
      "▁الأم": 9925,
      "▁Frank": 9926,
      "พวกเขา": 9927,
      "cer": 9928,
      "off": 9929,
      "sc": 9930,
      "szy": 9931,
      "ári": 9932,
      "я,": 9933,
      "ुत": 9934,
      "ดู": 9935,
      "ไง": 9936,
      "▁ست": 9937,
      "▁жи": 9938,
      "ena": 9939,
      "anç": 9940,
      "▁mol": 9941,
      "▁Int": 9942,
      "▁hum": 9943,
      "▁vor": 9944,
      "▁heeft": 9945,
      "▁beaut": 9946,
      "▁(200": 9947,
      "▁force": 9948,
      "▁You've": 9949,
      "▁this,": 9950,
      "▁Anda": 9951,
      "▁arri": 9952,
      "ван": 9953,
      "вати": 9954,
      "่อน": 9955,
      "▁Special": 9956,
      "▁अपनी": 9957,
      "▁listen": 9958,
      "▁idea": 9959,
      "▁especial": 9960,
      "▁당신": 9961,
      "aur": 9962,
      "mak": 9963,
      "p.": 9964,
      "ân": 9965,
      "жду": 9966,
      "ถึง": 9967,
      "▁face": 9968,
      "▁ya": 9969,
      "▁gun": 9970,
      "▁Treat": 9971,
      "▁Ant": 9972,
      "▁بگ": 9973,
      "▁char": 9974,
      "▁chuy": 9975,
      "▁along": 9976,
      "enda": 9977,
      "▁design": 9978,
      "▁мне": 9979,
      "ным": 9980,
      "ishment": 9981,
      "▁Allah,": 9982,
      "▁قد": 9983,
      "▁Prot": 9984,
      "▁intro": 9985,
      "▁воз": 9986,
      "▁corre": 9987,
      "▁मुझे": 9988,
      "▁November": 9989,
      "ling": 9990,
      "then": 9991,
      "кла": 9992,
      "که": 9993,
      "▁être": 9994,
      "いい": 9995,
      "かれ": 9996,
      "其他": 9997,
      "▁lại": 9998,
      "ado.": 9999,
      "▁Hol": 10000,
      "▁होग": 10001,
      "anger": 10002,
      "▁US": 10003,
      "▁all.": 10004,
      "ured": 10005,
      "▁him?": 10006,
      "▁فقط": 10007,
      "duction": 10008,
      "rict": 10009,
      "▁déc": 10010,
      "▁communic": 10011,
      "▁それ": 10012,
      "15": 10013,
      "7)": 10014,
      "IV": 10015,
      "ue.": 10016,
      "uge": 10017,
      "يف": 10018,
      "ั้น": 10019,
      "▁อ": 10020,
      "▁시": 10021,
      "理事": 10022,
      "▁sil": 10023,
      "▁wife": 10024,
      "▁pie": 10025,
      "ario": 10026,
      "▁luck": 10027,
      "▁nice": 10028,
      "▁Soc": 10029,
      "▁relev": 10030,
      "▁hem": 10031,
      "▁Hij": 10032,
      "▁Dem": 10033,
      "ché": 10034,
      "raf": 10035,
      "▁28": 10036,
      "▁unto": 10037,
      "▁Hey.": 10038,
      "▁هو": 10039,
      "ally,": 10040,
      "▁serious": 10041,
      "واه": 10042,
      "▁front": 10043,
      "▁home.": 10044,
      "ged": 10045,
      "в.": 10046,
      "це": 10047,
      "اج": 10048,
      "ى‌": 10049,
      "人权": 10050,
      "▁waar": 10051,
      "▁pet": 10052,
      "▁ook": 10053,
      "▁opportun": 10054,
      "▁Sal": 10055,
      "▁Mc": 10056,
      "▁iss": 10057,
      "▁Dia": 10058,
      "▁Ein": 10059,
      "▁York": 10060,
      "▁الص": 10061,
      "abor": 10062,
      "▁их": 10063,
      "▁pré": 10064,
      "▁أنت": 10065,
      "▁我们": 10066,
      "▁legisl": 10067,
      "22": 10068,
      "ís": 10069,
      "بار": 10070,
      "गार": 10071,
      "िए": 10072,
      "▁]": 10073,
      "▁ś": 10074,
      "▁정": 10075,
      "▁cred": 10076,
      "iche": 10077,
      "im,": 10078,
      "▁Dis": 10079,
      "▁Bro": 10080,
      "▁whate": 10081,
      "▁Rem": 10082,
      "angan": 10083,
      "▁\"S": 10084,
      "▁2002": 10085,
      "ть,": 10086,
      "▁disp": 10087,
      "▁dispos": 10088,
      "▁relations": 10089,
      "▁чтобы": 10090,
      "▁watch": 10091,
      "▁established": 10092,
      "▁tomorrow": 10093,
      "i-": 10094,
      "ois": 10095,
      "ąd": 10096,
      "ưa": 10097,
      "т.": 10098,
      "ढ़": 10099,
      "स्त": 10100,
      "よう": 10101,
      "机构": 10102,
      "▁ces": 10103,
      "▁mad": 10104,
      "oro": 10105,
      "▁hit": 10106,
      "ador": 10107,
      "▁state": 10108,
      "ables": 10109,
      "umb": 10110,
      "▁від": 10111,
      "ograph": 10112,
      "▁prepar": 10113,
      "▁شد": 10114,
      "▁close": 10115,
      "▁claim": 10116,
      "▁Conse": 10117,
      "▁ची": 10118,
      "▁چي": 10119,
      "▁sector": 10120,
      "▁indeed": 10121,
      "cent": 10122,
      "nel": 10123,
      "s!": 10124,
      "ар": 10125,
      "آن": 10126,
      "به": 10127,
      "ừng": 10128,
      "通过": 10129,
      "▁sold": 10130,
      "▁cust": 10131,
      "▁pick": 10132,
      "alog": 10133,
      "▁nous": 10134,
      "ice,": 10135,
      "▁though": 10136,
      "▁Apr": 10137,
      "▁Sw": 10138,
      "stell": 10139,
      "▁ات": 10140,
      "▁conse": 10141,
      "▁بی": 10142,
      "▁jo": 10143,
      "▁29": 10144,
      "apt": 10145,
      "▁تق": 10146,
      "▁prés": 10147,
      "▁че": 10148,
      "▁work.": 10149,
      "nya.": 10150,
      "▁Он": 10151,
      "▁Мы": 10152,
      "▁गया": 10153,
      "▁developing": 10154,
      "▁내가": 10155,
      "u?": 10156,
      "y's": 10157,
      "ème": 10158,
      "ді": 10159,
      "т,": 10160,
      "ตอน": 10161,
      "ật": 10162,
      "所有": 10163,
      "进行": 10164,
      "▁san": 10165,
      "▁mog": 10166,
      "▁line": 10167,
      "▁initi": 10168,
      "▁ger": 10169,
      "idas": 10170,
      "oto": 10171,
      "▁Well": 10172,
      "▁World": 10173,
      "usband": 10174,
      "elles": 10175,
      "ocrat": 10176,
      "▁trong": 10177,
      "▁alla": 10178,
      "▁تن": 10179,
      "▁log": 10180,
      "plac": 10181,
      "aving": 10182,
      "▁regul": 10183,
      "▁meny": 10184,
      "▁said:": 10185,
      "▁apa": 10186,
      "ियों": 10187,
      "ргани": 10188,
      "▁Development": 10189,
      "理事会": 10190,
      "blic": 10191,
      "rar": 10192,
      "view": 10193,
      "ска": 10194,
      "фор": 10195,
      "ค่": 10196,
      "▁기": 10197,
      "有关": 10198,
      "▁tent": 10199,
      "▁sort": 10200,
      "rob": 10201,
      "▁ren": 10202,
      "▁Wir": 10203,
      "▁ki": 10204,
      "▁kad": 10205,
      "una": 10206,
      "▁Ol": 10207,
      "▁jur": 10208,
      "agn": 10209,
      "▁Jul": 10210,
      "iva": 10211,
      "▁origin": 10212,
      "▁outs": 10213,
      "▁amb": 10214,
      "▁people.": 10215,
      "▁conditions": 10216,
      "belie": 10217,
      "▁observ": 10218,
      "E)": 10219,
      "col": 10220,
      "mas": 10221,
      "ners": 10222,
      "ober": 10223,
      "зы": 10224,
      "وان": 10225,
      "▁한": 10226,
      "どう": 10227,
      "anie": 10228,
      "▁mand": 10229,
      "orang": 10230,
      "▁nuc": 10231,
      "acional": 10232,
      "▁Hel": 10233,
      "▁suff": 10234,
      "▁Those": 10235,
      "рем": 10236,
      "▁resources": 10237,
      "▁times": 10238,
      "▁emp": 10239,
      "стоя": 10240,
      "▁rég": 10241,
      "idades": 10242,
      "▁supposed": 10243,
      "60": 10244,
      "ún": 10245,
      "üş": 10246,
      "рі": 10247,
      "ลัง": 10248,
      "▁들": 10249,
      "▁마": 10250,
      "▁tin": 10251,
      "▁tamb": 10252,
      "▁fal": 10253,
      "▁hurt": 10254,
      "iej": 10255,
      "akukan": 10256,
      "▁مح": 10257,
      "▁weap": 10258,
      "ift": 10259,
      "ahr": 10260,
      "ikan": 10261,
      "▁true": 10262,
      "▁trade": 10263,
      "epend": 10264,
      "action": 10265,
      "▁Ви": 10266,
      "حدة": 10267,
      "18": 10268,
      "UN": 10269,
      "iot": 10270,
      "òn": 10271,
      "мер": 10272,
      "什么": 10273,
      "以及": 10274,
      "大会": 10275,
      "하고": 10276,
      "ine,": 10277,
      "▁gö": 10278,
      "▁الر": 10279,
      "rah": 10280,
      "▁comme": 10281,
      "▁From": 10282,
      "▁segu": 10283,
      "▁zam": 10284,
      "▁areas": 10285,
      "ang.": 10286,
      "▁وت": 10287,
      "▁shot": 10288,
      "▁knowled": 10289,
      "▁perform": 10290,
      "▁वाल": 10291,
      "▁เข": 10292,
      "อยาก": 10293,
      "▁انت": 10294,
      "ือน": 10295,
      "-A": 10296,
      "l.": 10297,
      "кто": 10298,
      "भी": 10299,
      "ขึ": 10300,
      "▁난": 10301,
      "in?": 10302,
      "▁day.": 10303,
      "▁body": 10304,
      "▁fem": 10305,
      "▁hig": 10306,
      "▁Ay": 10307,
      "▁ای": 10308,
      "▁var": 10309,
      "▁rat": 10310,
      "▁2,": 10311,
      "▁sek": 10312,
      "▁almost": 10313,
      "▁لقد": 10314,
      "▁soon": 10315,
      "▁2001": 10316,
      "▁anyone": 10317,
      "▁ground": 10318,
      "дела": 10319,
      "▁naar": 10320,
      "▁Trans": 10321,
      "▁issues": 10322,
      "▁sorry": 10323,
      "▁individual": 10324,
      "▁whatever": 10325,
      "ขึ้น": 10326,
      ");": 10327,
      "/4": 10328,
      "90": 10329,
      "g.": 10330,
      "hal": 10331,
      "ji": 10332,
      "nce": 10333,
      "uest": 10334,
      "ój": 10335,
      "ления": 10336,
      "کر": 10337,
      "गी": 10338,
      "ằng": 10339,
      "秘书": 10340,
      "▁tip": 10341,
      "▁date": 10342,
      "▁drug": 10343,
      "esz": 10344,
      "▁towards": 10345,
      "▁C'est": 10346,
      "▁kön": 10347,
      "▁Book": 10348,
      "▁الذي": 10349,
      "ant,": 10350,
      "▁share": 10351,
      "▁или": 10352,
      "▁دست": 10353,
      "▁داد": 10354,
      "▁2003": 10355,
      "iert": 10356,
      "▁coordin": 10357,
      "▁enter": 10358,
      "▁mi?": 10359,
      "▁away.": 10360,
      "▁Pleas": 10361,
      "A.": 10362,
      "dy": 10363,
      "lé": 10364,
      "ton": 10365,
      "vol": 10366,
      "ênc": 10367,
      "ден": 10368,
      "рен": 10369,
      "لی": 10370,
      "क्त": 10371,
      "่ว": 10372,
      "没有": 10373,
      "经济": 10374,
      "▁aim": 10375,
      "in't": 10376,
      "▁half": 10377,
      "▁Cour": 10378,
      "▁بز": 10379,
      "▁progress": 10380,
      "▁слу": 10381,
      "▁बद": 10382,
      "▁himself": 10383,
      "▁इन": 10384,
      "чески": 10385,
      "▁based": 10386,
      "▁rapport": 10387,
      "▁più": 10388,
      "▁الدول": 10389,
      "▁histor": 10390,
      "▁exactly": 10391,
      "iro": 10392,
      "joy": 10393,
      "лем": 10394,
      "сси": 10395,
      "чу": 10396,
      "لم": 10397,
      "บ้า": 10398,
      "ลา": 10399,
      "้อ": 10400,
      "▁ट": 10401,
      "▁ông": 10402,
      "いて": 10403,
      "▁daught": 10404,
      "▁nou": 10405,
      "▁husband": 10406,
      "▁you'd": 10407,
      "ety": 10408,
      "▁Tra": 10409,
      "▁Cor": 10410,
      "unic": 10411,
      "▁conte": 10412,
      "▁Give": 10413,
      "▁نه": 10414,
      "▁cool": 10415,
      "▁consum": 10416,
      "▁looks": 10417,
      "▁những": 10418,
      "▁چيز": 10419,
      "▁attack": 10420,
      "▁expect": 10421,
      "▁personal": 10422,
      "cher": 10423,
      "uis": 10424,
      "şt": 10425,
      "।\"": 10426,
      "กํา": 10427,
      "いた": 10428,
      "▁tit": 10429,
      "▁mach": 10430,
      "▁bal": 10431,
      "▁opt": 10432,
      "▁lad": 10433,
      "▁nur": 10434,
      "▁harm": 10435,
      "▁thing.": 10436,
      "▁Tidak": 10437,
      "▁Sel": 10438,
      "▁Sub": 10439,
      "sten": 10440,
      "quent": 10441,
      "▁الل": 10442,
      "▁jour": 10443,
      "▁uns": 10444,
      "istem": 10445,
      "رات": 10446,
      "▁compan": 10447,
      "▁سي": 10448,
      "▁किसी": 10449,
      "▁khi": 10450,
      "ходи": 10451,
      "▁woman": 10452,
      "▁worden": 10453,
      "ship": 10454,
      "▁cái": 10455,
      "▁favor": 10456,
      "क्ष": 10457,
      "'ai": 10458,
      "gar": 10459,
      "hold": 10460,
      "ży": 10461,
      "ره": 10462,
      "مع": 10463,
      "▁Ц": 10464,
      "▁ж": 10465,
      "▁같": 10466,
      "▁aud": 10467,
      "▁sia": 10468,
      "▁IN": 10469,
      "▁ni": 10470,
      "▁Sam": 10471,
      "▁deze": 10472,
      "▁Work": 10473,
      "olf": 10474,
      "▁(d": 10475,
      "▁Ng": 10476,
      "▁الك": 10477,
      "▁chi": 10478,
      "ived": 10479,
      "▁King": 10480,
      "ocol": 10481,
      "▁examp": 10482,
      "го,": 10483,
      "вать": 10484,
      "▁prep": 10485,
      "▁anym": 10486,
      "▁Но": 10487,
      "▁사람": 10488,
      "▁harus": 10489,
      "▁tahu": 10490,
      "▁dell'": 10491,
      "▁October": 10492,
      "-se": 10493,
      "gn": 10494,
      "ró": 10495,
      "üt": 10496,
      "дет": 10497,
      "ثل": 10498,
      "گاه": 10499,
      "งาน": 10500,
      "ếu": 10501,
      "▁х": 10502,
      "建议": 10503,
      "这些": 10504,
      "라고": 10505,
      "inter": 10506,
      "re,": 10507,
      "▁mort": 10508,
      "▁bank": 10509,
      "▁hast": 10510,
      "▁Apa": 10511,
      "▁Serv": 10512,
      "▁vir": 10513,
      "▁Mal": 10514,
      "emp": 10515,
      "▁Pat": 10516,
      "▁rais": 10517,
      "ush": 10518,
      "▁لك": 10519,
      "▁pray": 10520,
      "ement.": 10521,
      "ية،": 10522,
      "▁При": 10523,
      "▁حق": 10524,
      "▁related": 10525,
      "▁However,": 10526,
      "▁afra": 10527,
      "▁Isra": 10528,
      "uh?": 10529,
      "imento": 10530,
      "▁currently": 10531,
      "▁necessary": 10532,
      "▁budget": 10533,
      "▁نيست": 10534,
      "ción": 10535,
      "ło": 10536,
      "ướ": 10537,
      "دان": 10538,
      "म्": 10539,
      "ประ": 10540,
      "ัด": 10541,
      "▁ท": 10542,
      "▁만": 10543,
      "▁뭐": 10544,
      "▁ấy": 10545,
      "公约": 10546,
      "区域": 10547,
      "妇女": 10548,
      "▁tam": 10549,
      "ono": 10550,
      "itive": 10551,
      "▁Cong": 10552,
      "▁về": 10553,
      "▁Mart": 10554,
      "em,": 10555,
      "▁National": 10556,
      "ch,": 10557,
      "▁E'": 10558,
      "▁comes": 10559,
      "▁हर": 10560,
      "ello": 10561,
      "ists": 10562,
      "esso": 10563,
      "ेंगे": 10564,
      "▁cover": 10565,
      "▁years.": 10566,
      "▁non-": 10567,
      "▁گفت": 10568,
      "▁года": 10569,
      "▁collect": 10570,
      "▁Minister": 10571,
      "िश्": 10572,
      "▁Janu": 10573,
      "рганиза": 10574,
      "16": 10575,
      "ré": 10576,
      "se.": 10577,
      "ück": 10578,
      "ũng": 10579,
      "нь": 10580,
      "دة": 10581,
      "त्": 10582,
      "▁{": 10583,
      "儿童": 10584,
      "지만": 10585,
      "▁foc": 10586,
      "▁deux": 10587,
      "▁Mom": 10588,
      "▁rap": 10589,
      "▁raz": 10590,
      "▁Great": 10591,
      "▁produc": 10592,
      "▁sever": 10593,
      "▁leur": 10594,
      "▁shoot": 10595,
      "▁सि": 10596,
      "▁imag": 10597,
      "ونه": 10598,
      "ний": 10599,
      "amework": 10600,
      "่าน": 10601,
      "▁شي": 10602,
      "▁subst": 10603,
      "▁тебя": 10604,
      "▁concerning": 10605,
      "▁truth": 10606,
      "▁เธอ": 10607,
      "n,": 10608,
      "ring": 10609,
      "änd": 10610,
      "йте": 10611,
      "шу": 10612,
      "مكن": 10613,
      "ออก": 10614,
      "▁네": 10615,
      "じゃ": 10616,
      "들이": 10617,
      "ically": 10618,
      "▁Somet": 10619,
      "▁Sorr": 10620,
      "▁Dr": 10621,
      "▁govern": 10622,
      "▁\"B": 10623,
      "▁तक": 10624,
      "▁पा": 10625,
      "ement,": 10626,
      "iente": 10627,
      "▁ком": 10628,
      "циа": 10629,
      "▁باز": 10630,
      "▁Со": 10631,
      "▁programm": 10632,
      "érie": 10633,
      "▁detail": 10634,
      "▁basis": 10635,
      "▁चीज़": 10636,
      "'n": 10637,
      "8)": 10638,
      "The": 10639,
      "hl": 10640,
      "ule": 10641,
      "ye": 10642,
      "yi": 10643,
      "лся": 10644,
      "ي؟": 10645,
      "れた": 10646,
      "可能": 10647,
      "iniz": 10648,
      "onn": 10649,
      "▁cette": 10650,
      "▁mond": 10651,
      "▁bra": 10652,
      "▁bill": 10653,
      "omp": 10654,
      "▁rese": 10655,
      "imo": 10656,
      "▁Mi": 10657,
      "▁Med": 10658,
      "▁Du": 10659,
      "▁Dav": 10660,
      "▁Pow": 10661,
      "▁rad": 10662,
      "ight,": 10663,
      "▁са": 10664,
      "▁ship": 10665,
      "нов": 10666,
      "▁We've": 10667,
      "ред": 10668,
      "ired": 10669,
      "lict": 10670,
      "obil": 10671,
      "▁रब": 10672,
      "▁4.": 10673,
      "▁company": 10674,
      "▁recogn": 10675,
      "▁d'un": 10676,
      "▁God.": 10677,
      "▁geen": 10678,
      "▁¿Q": 10679,
      "▁After": 10680,
      "▁стра": 10681,
      "▁circ": 10682,
      "▁July": 10683,
      "▁(b)": 10684,
      "ST": 10685,
      "uğ": 10686,
      "ây": 10687,
      "ôi.": 10688,
      "يلي": 10689,
      "หา": 10690,
      "▁Ф": 10691,
      "▁무": 10692,
      "合作": 10693,
      "ony": 10694,
      "▁diss": 10695,
      "▁sister": 10696,
      "▁gib": 10697,
      "▁gli": 10698,
      "ster": 10699,
      "▁Cal": 10700,
      "▁Hot": 10701,
      "▁Oh.": 10702,
      "▁हा": 10703,
      "▁zij": 10704,
      "erson": 10705,
      "▁đến": 10706,
      "ijd": 10707,
      "▁нас": 10708,
      "formation": 10709,
      "▁entire": 10710,
      "▁assess": 10711,
      "▁60": 10712,
      "▁countri": 10713,
      "▁production": 10714,
      "dzie": 10715,
      "▁living": 10716,
      "▁please.": 10717,
      "▁official": 10718,
      "▁โอ": 10719,
      "▁capacity": 10720,
      "▁strengthen": 10721,
      "▁relevant": 10722,
      "ba": 10723,
      "nis": 10724,
      "ores": 10725,
      "к.": 10726,
      "іль": 10727,
      "▁不": 10728,
      "▁부": 10729,
      "▁сто": 10730,
      "には": 10731,
      "잖아": 10732,
      "▁tried": 10733,
      "▁din": 10734,
      "▁sz": 10735,
      "▁coup": 10736,
      "▁họ": 10737,
      "▁ready": 10738,
      "▁ven": 10739,
      "▁DE": 10740,
      "▁Di": 10741,
      "urg": 10742,
      "▁onder": 10743,
      "▁rac": 10744,
      "▁OF": 10745,
      "rage": 10746,
      "▁haar": 10747,
      "▁za": 10748,
      "▁know?": 10749,
      "▁تح": 10750,
      "▁बु": 10751,
      "▁rock": 10752,
      "▁off.": 10753,
      "ानी": 10754,
      "▁couldn't": 10755,
      "▁Annex": 10756,
      "▁Does": 10757,
      "▁ту": 10758,
      "▁telling": 10759,
      "▁carry": 10760,
      "▁Ка": 10761,
      "ful.": 10762,
      "▁hands": 10763,
      "▁evil": 10764,
      "च्छ": 10765,
      "gal": 10766,
      "o...": 10767,
      "خص": 10768,
      "يه": 10769,
      "ग़": 10770,
      "คือ": 10771,
      "เช": 10772,
      "▁ओ": 10773,
      "▁‘": 10774,
      "▁생": 10775,
      "▁좋": 10776,
      "でも": 10777,
      "▁só": 10778,
      "asi": 10779,
      "▁thì": 10780,
      "ilt": 10781,
      "▁Tod": 10782,
      "room": 10783,
      "▁eat": 10784,
      "▁West": 10785,
      "▁va": 10786,
      "▁staff": 10787,
      "▁بم": 10788,
      "▁بين": 10789,
      "um,": 10790,
      "ival": 10791,
      "▁adalah": 10792,
      "▁बे": 10793,
      "▁يت": 10794,
      "▁guard": 10795,
      "▁training": 10796,
      "▁avo": 10797,
      "▁societ": 10798,
      "▁risk": 10799,
      "\"?": 10800,
      "-C": 10801,
      "34": 10802,
      "You": 10803,
      "a...": 10804,
      "ced": 10805,
      "ihat": 10806,
      "mal": 10807,
      "ài": 10808,
      "ลอ": 10809,
      "▁แล้ว": 10810,
      "あなた": 10811,
      "需要": 10812,
      "▁cli": 10813,
      "▁cậu": 10814,
      "▁ball": 10815,
[...]
