{
    "vocab": {
        "asar": 7307,
        "▁Janet": 28849,
        "▁mengambil": 9282,
        "mour": 31825,
        "岡": 1979,
        "▁199": 5996,
        "▁Cub": 19609,
        "▁Heli": 29472,
        "▁Penerbit": 30477,
        "▁problems": 11668,
        "▁here": 14320,
        "acc": 19526,
        "angsa,": 30418,
        "▁\"m": 12789,
        "abat": 7358,
        "▁carrying": 16966,
        "▁wear": 20493,
        "▁Michelle": 22465,
        "▁financ": 12329,
        "74": 13898,
        "iers": 9250,
        "eas": 18809,
        "▁Mul": 11233,
        "enting": 7885,
        "tery": 11239,
        "▁Turkey": 24211,
        "leton": 15640,
        "▁Kind": 27244,
        "oku": 16129,
        "▁kegagalan": 21902,
        "▁Arms": 30327,
        "▁Basket": 19902,
        "▁Reaksi": 24548,
        "▁(ber": 20128,
        "▁Reed": 22714,
        "▁Rena": 15767,
        "▁Cris": 31237,
        "▁emphasi": 20900,
        "ala.": 21140,
        "▁bulan,": 27116,
        "▁diteb": 9100,
        "▁Seven": 17364,
        "▁projected": 30992,
        "▁1991": 10543,
        "致": 2250,
        "03": 27692,
        "eluarkan": 10670,
        "▁ditulis": 8951,
        "itungan": 21062,
        "▁pandang": 22581,
        "▁Cheng": 27443,
        "▁ak": 6088,
        "igran": 21356,
        "onia,": 29228,
        "onne": 28346,
        "▁Sebelah": 17915,
        "asaan": 18682,
        "▁genres": 27175,
        "Շ": 1534,
        "便": 1027,
        "▁advancing": 27109,
        "左": 503,
        "ima,": 20386,
        "eles": 8076,
        "▁sens": 11942,
        "▁solusi": 27168,
        "ங": 1881,
        "ア": 737,
        "▁pistol": 23567,
        "▁apparent": 19859,
        "▁go": 6928,
        "gi": 21051,
        "要": 2279,
        "▁Mycetoph": 15270,
        "萱": 1038,
        "ė": 1164,
        "結": 692,
        "anni": 22142,
        "▁biru": 19238,
        "▁roh": 18093,
        "▁consequence": 28142,
        "ਏ": 5158,
        "▁Aceh": 9599,
        "類": 1991,
        "Ⴀ": 878,
        "▁pushed": 21001,
        "▁objects": 18089,
        "pose": 14107,
        "▁paman": 25151,
        "꽃": 1052,
        "▁awards": 15052,
        "▁changed": 11502,
        "ibly": 12381,
        "▁Plasmodium": 29102,
        "▁printing": 30340,
        "▁raja-raja": 28236,
        "▁Ran": 16346,
        "ﻻ": 4631,
        "▁Patton": 25499,
        "▁CC": 22134,
        "▁balapan": 12699,
        "▁Phy": 20407,
        "▁berbagai": 7440,
        "▁gran": 22132,
        "neum": 28554,
        "RB": 27777,
        "▁1986.": 28615,
        "▁forest": 16725,
        "分": 2575,
        "▁sic": 29304,
        "▁Ge": 6855,
        "utch": 11473,
        "ֵ": 1397,
        "▁Bogor": 19798,
        "▁roughly": 15887,
        "▁artificial": 24227,
        "▁jabatan": 10302,
        "wn": 6257,
        "▁Pennsylv": 12233,
        "▁kuil": 18192,
        "ala,": 17649,
        "▁mendarat": 23843,
        "ative": 6860,
        "▁memilih": 10597,
        "ambang": 11121,
        "tasi": 18219,
        "▁mine": 20045,
        "▁primordial": 12485,
        "▁spo": 30760,
        "omba": 11887,
        "entingan": 15756,
        "ู": 1759,
        "▁kenaikan": 27622,
        "ila,": 29069,
        "▁rush": 31539,
        "▁legislation": 18693,
        "▁Bond": 10911,
        "▁menunjukkan": 8725,
        "▁c.": 27778,
        "床": 2651,
        "▁Tak": 9043,
        "▁sur": 6403,
        "▁Silent": 31153,
        "▁Generation": 22974,
        "enggal": 31361,
        "▁kode": 13280,
        "說": 3673,
        "avor": 19683,
        "▁been": 6131,
        "arily": 10704,
        "▁rate": 12100,
        "▁specimen": 22381,
        "enazah": 24742,
        "▁alamat": 24895,
        "▁melingk": 31506,
        "▁perut": 26177,
        "Ἴ": 4009,
        "▁tunggal": 13678,
        "▁Tamb": 18235,
        "ൊ": 4841,
        "thus": 19346,
        "講": 1303,
        "ི": 5229,
        "▁Profile": 22754,
        "inae": 27163,
        "▁exerc": 20086,
        "▁proteins": 21552,
        "unjang": 25836,
        "米": 2360,
        "▁menc": 6362,
        "ilihan": 8107,
        "▁Som": 10685,
        "ekal": 16513,
        "▁Sekitar": 18607,
        "▁Penerbangan": 22387,
        "▁extend": 23111,
        "▁aux": 29885,
        "▁Upaya": 30351,
        "▁Komunikasi": 19795,
        "▁kota,": 20367,
        "acity": 14158,
        "▁pati": 15045,
        "▁Dennis": 21961,
        "▁Fut": 24122,
        "layer": 25682,
        "州": 2268,
        "▁berd": 6927,
        "▁Hall": 9146,
        "3": 34,
        "▁Tur": 8279,
        "▁intelligence": 16906,
        "▁menunjuk": 20730,
        "eki": 18710,
        "▁Ko": 10623,
        "▁voting": 24996,
        "enon": 25743,
        "gn": 7952,
        "▁cod": 21622,
        "yg": 18778,
        "opters": 31341,
        "▁Paglin": 9302,
        "岛": 244,
        "洛": 1756,
        "olars": 14801,
        "▁fisika": 22629,
        "▁Members": 26574,
        "▁gest": 27771,
        "▁Having": 19887,
        "▁Berry": 30499,
        "ient": 7456,
        "▁radar": 17076,
        "▁invest": 8925,
        "▁Nep": 17334,
        "▁Ray": 11418,
        "▁Ulama": 22554,
        "匈": 965,
        "▁used": 6709,
        "ushing": 16295,
        "▁nur": 23943,
        "▁Crow": 24629,
        "▁neut": 13738,
        "▁cat": 12804,
        "ression": 9985,
        "▁Marl": 25462,
        "Or": 30069,
        "posed": 8679,
        "▁\"N": 15676,
        "▁#": 11768,
        "ees": 10518,
        "net": 17223,
        "▁sumb": 28382,
        "ῳ": 1312,
        "▁Kom": 7164,
        "ately": 7489,
        "▁asetat": 27845,
        "부": 1147,
        "abase": 8258,
        "▁Luf": 24083,
        "▁stating": 12574,
        "▁Liny": 16272,
        "▁penggabungan": 28226,
        "𐌇": 4469,
        "类": 1992,
        "enaran": 16537,
        "▁Katolik.": 29280,
        "▁choir": 29976,
        "▁Law": 9519,
        "▁mental": 18145,
        "▁&": 6420,
        "▁sav": 27518,
        "▁lat": 8410,
        "▁Zamb": 28641,
        "▁varying": 26828,
        "ᬕ": 4919,
        "oxide": 27178,
        "▁operasi": 12118,
        "征": 3544,
        "浅": 1618,
        "overs": 12283,
        "ophone": 28917,
        "▁Nickel": 31151,
        "▁Taj": 24668,
        "▁segala": 13518,
        "淳": 2322,
        "▁Denpasar": 26203,
        "▁wide": 11360,
        "▁polit": 6835,
        "8,": 7898,
        "anganan": 30073,
        "ant": 5732,
        "ears": 9562,
        "▁customers": 28446,
        "▁historically": 27928,
        "uku,": 26974,
        "igue": 30245,
        "67": 22064,
        "▁philosophy": 20391,
        "超": 4039,
        "▁gugur": 20565,
        "▁clothing": 22097,
        "▁1878": 23222,
        "▁poin": 13276,
        "▁pushing": 31052,
        "▁Cerambycidae": 9200,
        "ually": 7022,
        "▁Electronic": 23527,
        "▁Great": 9160,
        "샌": 3922,
        "hest": 9410,
        "▁Gel": 17622,
        "▁opted": 31916,
        "ṑ": 4876,
        "▁swimming": 23173,
        "▁ninet": 22025,
        "▁oil": 11805,
        "ewati": 13882,
        "▁1890": 20622,
        "▁Duc": 22195,
        "衛": 504,
        "▁Sari": 24475,
        "计": 5324,
        "▁Scout": 24678,
        "ikan,": 27676,
        "ikator": 31032,
        "▁Semenanjung": 19654,
        "▁menulis": 9073,
        "ੰ": 2455,
        "お": 711,
        "▁convoy": 15048,
        "annels": 29743,
        "庭": 3820,
        "▁Kingdom": 9898,
        "lew": 21479,
        "▁plut": 22599,
        "weep": 23307,
        "▁168": 28607,
        "▁Barito": 28900,
        "thia": 28306,
        "▁Roma,": 23569,
        "asa.": 13418,
        "▁Nether": 16090,
        "▁pow": 17119,
        "▁cul": 19664,
        "▁sekunder": 29629,
        "▁borrow": 28057,
        "▁du": 10286,
        "ym": 12626,
        "enger": 22122,
        "刁": 5390,
        "▁berputar": 30540,
        "iak": 30110,
        "▁Semit": 31491,
        "ason": 6361,
        "▁(sebelum": 24709,
        "戯": 1228,
        "aneous": 29432,
        "▁pita": 29299,
        "▁provides": 15436,
        "▁TNI": 9749,
        "▁limb": 19333,
        "61": 21008,
        "alus": 23860,
        "untutan": 21868,
        "iable": 19727,
        "antang": 25327,
        "▁cry": 17663,
        "leh": 5840,
        "ᨛ": 1273,
        "▁Iv": 12609,
        "▁berni": 27195,
        "▁47": 11797,
        "▁syndrome": 27220,
        "허": 1987,
        "ռ": 5337,
        "▁minggu": 14939,
        "▁techniques": 18744,
        "▁Roman": 8966,
        "▁Guards": 21848,
        "▁batsmen": 28957,
        "▁Abd": 9323,
        "▁elig": 25096,
        "▁simpl": 31587,
        "豫": 4709,
        "個": 4263,
        "▁Architecture": 30936,
        "▁period": 7873,
        "波": 509,
        "▁Britney": 27046,
        "ὖ": 3507,
        "adap": 6789,
        "▁pahlawan": 22792,
        "▁Industrial": 23939,
        "enberg": 16481,
        "▁Somerset": 18805,
        "▁obtain": 21925,
        "磊": 4104,
        "▁grad": 13058,
        "▁rebels": 20989,
        "ꦁ": 284,
        "亥": 3872,
        "▁Hergé": 21046,
        "▁positively": 28967,
        "▁fluid": 31564,
        "▁Cardiff": 22639,
        "燦": 5188,
        "▁constant": 15649,
        "zah": 17374,
        "u-": 17928,
        "屆": 5088,
        "tered": 9955,
        "▁representatives": 23782,
        "٧": 2292,
        "▁te": 6186,
        "▁pria": 11851,
        "31": 13801,
        "▁batu.": 16882,
        "aktik": 12173,
        "ejahter": 20527,
        "▁shipping": 21957,
        "ᠶ": 2481,
        "▁Poet": 29532,
        "ianto": 30445,
        "▁Fish": 22193,
        "▁practice": 12668,
        "▁hope": 18955,
        "▁(V": 16584,
        "▁Beyoncé": 16115,
        "▁However": 7390,
        "▁barr": 21111,
        "賢": 3725,
        "𐊶": 3149,
        "▁ked": 6488,
        "▁count": 12717,
        "angkut": 15400,
        "블": 413,
        "/201": 19635,
        "▁menimbulkan": 16071,
        "er)": 31024,
        "ae,": 31744,
        "▁Agromyzidae.": 31977,
        "na,": 23719,
        "▁+": 9769,
        "▁transit.": 30630,
        "救": 3101,
        "enya": 23875,
        "Š": 377,
        "wah": 19113,
        "▁gone": 19043,
        "▁Corr": 24388,
        "▁districts": 26640,
        "▁tradisi": 12426,
        "arat": 8068,
        "▁excell": 21068,
        "▁liked": 21633,
        "enth": 10961,
        "埔": 3538,
        "ſ": 3885,
        "▁Jan": 6538,
        "unn": 10569,
        "inga": 21409,
        "ꦉ": 3815,
        "負": 4228,
        "▁Warriors": 23010,
        "▁emos": 29502,
        "▁Supporting": 30812,
        "▁i": 8239,
        "icit": 18022,
        "▁tam": 28575,
        "inari": 30181,
        "▁cand": 30937,
        "veland": 17815,
        "&": 235,
        "castle": 25033,
        "С": 568,
        "▁ti": 21759,
        "绩": 5396,
        "▁kira-kira": 21167,
        "▁magazine": 10774,
        "▁faced": 14482,
        "▁publisher": 23233,
        "▁Fol": 30492,
        "▁propos": 12212,
        "▁immediate": 18909,
        "▁bakteri": 21526,
        "ৃ": 4044,
        "eny": 16915,
        "▁mengundurkan": 17431,
        "▁wings": 19550,
        "塔": 184,
        "ellar": 23668,
        "▁Ottawa": 22384,
        "unyi": 13908,
        "acre": 21064,
        "▁pleased": 29425,
        "iala": 8556,
        "awai": 10027,
        "▁Chak": 27502,
        "ling": 7288,
        "短": 3084,
        "▁ibu": 9006,
        "▁anat": 23066,
        "RC": 25474,
        "▁Alfonso": 27222,
        "▁master": 14331,
        "ं": 547,
        "eriksa": 27274,
        "▁particles": 27066,
        "▁1959": 14199,
        "▁negl": 30507,
        "ݢ": 4350,
        "▁ances": 28062,
        "▁kembar": 21357,
        "itudes": 22585,
        "arkas": 24057,
        "ὁ": 4713,
        "▁conversion": 20959,
        "▁Test": 11118,
        "mith": 26479,
        "趙": 4392,
        "ka,": 25886,
        "▁Lamp": 30098,
        "備": 1580,
        "႐": 3064,
        "▁|al": 22811,
        "▁Stat": 13786,
        "パ": 699,
        "▁Governor": 13917,
        "▁Luther": 14867,
        "▁concrete": 19501,
        "▁kesejahteraan": 27478,
        "▁Fifth": 28116,
        "onesia": 5989,
        "▁diman": 9685,
        "endent": 31102,
        "▁gh": 25371,
        "马": 3060,
        "▁saf": 11662,
        "▁kriteria": 29029,
        "▁re": 5945,
        "ready": 10848,
        "kel": 29424,
        "▁dream": 20019,
        "コ": 1670,
        "▁menandai": 20971,
        "ulsion": 24857,
        "▁melod": 25533,
        "▁Soph": 19145,
        "▁daughter": 11583,
        "agia": 23861,
        "귀": 2590,
        "usion": 11839,
        "새": 4136,
        "▁Julia": 21318,
        "▁Gone": 26341,
        "▁mengadakan": 13569,
        "▁elaborate": 26789,
        "哉": 4687,
        "▁cutting": 23571,
        "aping": 24086,
        "▁padang": 27607,
        "▁tournaments": 31028,
        "▁Nor": 7308,
        "▁demikian,": 14067,
        "▁Mr": 13441,
        "־": 655,
        "▁Die": 17186,
        "▁spesies.": 25115,
        "asis": 7514,
        "bar": 10515,
        "o-": 21587,
        "▁1990": 9615,
        "▁praise": 18425,
        "著": 405,
        "▁Bec": 12357,
        "▁unnamed": 29825,
        "▁kilometers": 27491,
        "▁Eun": 24216,
        "▁difficult": 9642,
        "▁ran": 11113,
        "▁Nad": 17823,
        "▁enlisted": 22491,
        "ama.": 25792,
        "▁seed": 21360,
        "▁performing": 15908,
        "鳥": 4204,
        "▁Hann": 16457,
        "lining": 26039,
        "asion": 11514,
        "umbria": 28167,
        "▁Planet": 10011,
        "鉱": 2803,
        "ሪ": 5156,
        "▁Chapel": 22628,
        "▁Const": 24146,
        "▁Hier": 25107,
        "ole": 7734,
        "▁deal": 11068,
        "inis": 12580,
        "unami": 21146,
        "umns": 23212,
        "▁Apollo": 13326,
        "▁PN": 28304,
        "irds": 21558,
        "▁aneh": 25879,
        "▁dipakai": 11650,
        "▁Americ": 11769,
        "▁Browns": 25239,
        "▁menyelidiki": 31597,
        "ệ": 849,
        "▁dual": 25920,
        "ň": 2056,
        "▁Notable": 30448,
        "▁Journey": 24393,
        "▁Railway": 12751,
        "▁educated": 26416,
        "achusetts": 13884,
        "efinisikan": 16794,
        "▁pesisir": 15850,
        "▁composer": 18178,
        "Џ": 4506,
        "▁gained": 14021,
        "ov.": 28402,
        "▁reduce": 17425,
        "鵲": 909,
        "▁purpose": 15726,
        "ahman": 24492,
        "▁began": 7037,
        "ば": 1918,
        "絵": 2837,
        "▁number": 6771,
        "▁128": 25812,
        "▁creatures": 28563,
        "▁combination": 17681,
        "▁Curr": 22098,
        "▁always": 11781,
        "▁Barat,": 9996,
        "imir": 20152,
        "ford,": 29267,
        "′": 1009,
        "𐤍": 135,
        "ﺱ": 1044,
        "☉": 887,
        "女": 115,
        "akukan": 6527,
        "▁available": 10342,
        "▁Nat": 16506,
        "ospher": 23159,
        "ilikon": 23581,
        "adakan": 8708,
        "▁Operation": 13710,
        "anggu": 17738,
        "▁Emmy": 19424,
        "▁memperbaiki": 23276,
        "-Mar": 28327,
        "▁arose": 29659,
        "ď": 2150,
        "▁Mot": 10528,
        "▁Cro": 9885,
        "▁suam": 17413,
        "▁mac": 17260,
        "%.": 16150,
        "▁Re": 6757,
        "▁Utsman": 16323,
        "ieval": 15371,
        "▁sisa-sisa": 29733,
        "▁Karier": 15300,
        "▁Angelou": 21994,
        "▁iman": 24274,
        "▁steal": 29486,
        "▁observation": 26376,
        "▁vektor": 21916,
        "aho": 28951,
        "▁print": 13582,
        "國": 1181,
        "▁Trad": 15238,
        "▁Thames": 25308,
        "▁dict": 25834,
        "血": 1416,
        "▁Whe": 15542,
        "▁opposition": 15134,
        "▁Petersburg": 27364,
        "▁1929": 16606,
        "▁Add": 12608,
        "▁Dewa": 19437,
        "ce": 5775,
        "‘": 232,
        "ꦠ": 342,
        "▁Bub": 23392,
        "▁Chu": 26353,
        "Al": 27495,
        "▁Barack": 31999,
        "柚": 1025,
        "莙": 4973,
        "▁maintaining": 24820,
        "▁000": 6595,
        "▁even": 7903,
        "acles": 23551,
        "▁Gor": 12659,
        "▁B.": 9882,
        "ਿ": 1810,
        "▁bub": 17712,
        "▁pep": 16720,
        "▁circumstances": 21987,
        "▁cal": 9132,
        "adi,": 15754,
        "ower": 6626,
        "ְ": 761,
        "-18": 25876,
        "▁Tr": 6354,
        "ﺒ": 4285,
        "▁Medan": 18267,
        "rod": 12567,
        "榮": 4150,
        "▁Kay": 19642,
        "ita,": 14211,
        "▁McCart": 20605,
        "▁Márquez": 29605,
        "▁15,": 30628,
        "Ⴌ": 3222,
        "▁You": 8010,
        "▁Newton": 16568,
        "▁Rod": 12588,
        "escope": 24365,
        "达": 3155,
        "▁Samsung": 28480,
        "▁Congress": 11153,
        "身": 2962,
        "▁mand": 13521,
        "alling": 25032,
        "atural": 8694,
        "▁extensive": 14647,
        "▁berbicara": 15554,
        "▁Bras": 28110,
        "▁neutron": 22036,
        "网": 4453,
        "▁attended": 12744,
        "▁Gelar": 22859,
        "▁vo": 15637,
        "aing": 28114,
        "▁Nick": 13144,
        "agas": 26594,
        "▁form": 6495,
        "▁lyrics": 11648,
        "▁prior": 10727,
        "asasti": 15021,
        "a-": 6692,
        "▁der": 8701,
        "▁Andy": 15131,
        "▁Airlines": 15310,
        "▁zat": 18400,
        "▁receives": 26045,
        "▁Cel": 16897,
        "▁AL": 18832,
        "▁deployed": 19254,
        "▁2013.": 14674,
        "ע": 710,
        "起": 1393,
        "▁mut": 9692,
        "▁conducting": 27429,
        "먼": 4913,
        "▁(yang": 13747,
        "▁trio": 27766,
        "▁Sesko": 30975,
        "▁injured": 16184,
        "▁weapons": 13508,
        "▁165": 19786,
        "▁9,": 24335,
        "▁primer": 27301,
        "練": 4302,
        "▁tujuan": 10146,
        "▁yet": 12334,
        "▁Combat": 24304,
        "▁Kevin": 14025,
        "owed": 20551,
        "▁ensure": 18967,
        "과": 1484,
        "▁breaks": 25583,
        "ч": 73,
        "atasan": 9408,
        "▁Martha": 30271,
        "▁konv": 22823,
        "▁Poll": 19923,
        "▁habit": 11953,
        "BO": 19207,
        "▁ramp": 19298,
        "▁Muslims": 31542,
        "▁merchants": 30792,
        "acular": 30310,
        "▁According": 8582,
        "vel": 13623,
        "▁Dendrob": 22798,
        "▁Hampir": 27801,
        "▁Sula": 21537,
        "▁concept": 12039,
        "右": 3346,
        "ũ": 1642,
        "▁berbagi": 20146,
        "▁telescope": 30359,
        "▁Everything": 30774,
        "▁berpend": 12920,
        "▁Senecio": 26823,
        "▁Spanyol,": 21524,
        "edia.": 26457,
        "ธ": 2774,
        "▁Development": 12672,
        "▁comic": 15522,
        "alih": 17907,
        "▁suitable": 22059,
        "刚": 5382,
        "▁Hollow": 26250,
        "ara.": 13904,
        "ᾰ": 2607,
        "▁designer": 20408,
        "語": 2657,
        "▁overt": 21858,
        "▁document": 12622,
        "불": 3310,
        "▁2012,": 13330,
        "彦": 4581,
        "otik": 24426,
        "ta": 7913,
        "▁develop": 6899,
        "천": 1313,
        "alin": 13026,
        "erat": 19618,
        "▁majalah": 13119,
        "DS": 25645,
        "▁Leh": 28855,
        "▁celebr": 12372,
        "▁Orange": 22386,
        "▁C": 5641,
        "▁expon": 29818,
        "amana": 21663,
        "nes": 11302,
        "H": 87,
        "▁Cox": 25925,
        "▁Willie": 31407,
        "atalis": 21228,
        "▁Corporation": 13420,
        "▁menyediakan": 12771,
        "oks": 10185,
        "▁Kate": 21198,
        "hart": 31995,
        "▁vict": 8417,
        "eks": 6623,
        "P.": 13084,
        "▁kedudukan": 19549,
        "▁seseorang": 11810,
        "▁perception": 30446,
        "鑒": 2954,
        "▁NY": 10112,
        "▁contemporary": 13951,
        "▁seh": 6918,
        "▁Matthew": 14732,
        "項": 3242,
        "▁siang": 25131,
        "▁mengerjakan": 25402,
        "▁nomin": 8898,
        "▁ID": 21874,
        "ampaikan": 15507,
        "▁executed": 19326,
        "▁convince": 31273,
        "▁Anak": 11917,
        "▁members": 7953,
        "͡": 1865,
        "ez": 10816,
        "opia": 18076,
        "岁": 4041,
        "▁Football": 11443,
        "▁Scient": 16753,
        "看": 183,
        "udi,": 21052,
        "▁evident": 25741,
        "ᕐ": 4767,
        "awa.": 21900,
        "hu": 17523,
        "▁Turnamen": 21531,
        "▁leaving": 11280,
        "僑": 3115,
        "舰": 3656,
        "▁aboard": 18518,
        "iven": 7907,
        "▁mendorong": 14221,
        "▁Byr": 30002,
        "▁conference": 15170,
        "▁Route": 10044,
        "▁Trinidad": 27810,
        "▁kitab": 13231,
        "▁suka": 18760,
        "ste": 21584,
        "ag": 5656,
        "▁bertindak": 17723,
        "捏": 4579,
        "臻": 4396,
        "艦": 1862,
        "▁Mart": 8230,
        "▁tantangan": 21178,
        "ads": 14725,
        "围": 5286,
        "▁alj": 30661,
        "矢": 807,
        "▁Exper": 24276,
        "▁resolution": 20226,
        "Ⴋ": 1495,
        "▁García": 24084,
        "abella": 25495,
        "▁reserved": 28388,
        "–8": 28767,
        "▁Zhu": 31246,
        "추": 4975,
        "encer": 20091,
        "anggap": 7798,
        "▁Opus": 26822,
        "ambah": 11460,
        "ْ": 153,
        "ɔ": 1224,
        "ᑑ": 4766,
        "▁Tunnel": 31865,
        "ܗ": 496,
        "▁Joyce": 31910,
        "lusif": 21348,
        "▁hired": 16263,
        "ados": 25774,
        "▁teaching": 20122,
        "폭": 3596,
        "ነ": 3771,
        "ibal": 27248,
        "uke": 10174,
        "▁swasta": 16297,
        "面": 2413,
        "성": 779,
        "▁Val": 8810,
        "▁gerak": 26231,
        "縮": 4705,
        "ᨐ": 3624,
        "▁bay": 12061,
        "릿": 4296,
        "osy": 29273,
        "ementerian": 11428,
        "▁SAR": 30158,
        "▁manis": 24682,
        "ِ": 159,
        "취": 2978,
        "▁Never": 14377,
        "▁decre": 15646,
        "▁secara": 6317,
        "▁nucle": 19954,
        "▁nautical": 24641,
        "▁miss": 9486,
        "AL": 13247,
        "▁linked": 19905,
        "▁pewaris": 28107,
        "▁Angl": 19701,
        "iltr": 30498,
        "▁Cip": 21129,
        "▁June": 7402,
        "ancouver": 19965,
        "obo": 31167,
        "ܘ": 497,
        "ฉ": 2910,
        "▁Liter": 16949,
        "▁busana": 28429,
        "▁produce": 12724,
        "市": 144,
        "▁N.,": 9260,
        "▁understood": 23071,
        "lord": 24888,
        "▁writings": 23240,
        "ital": 7099,
        "▁primarily": 13460,
        "郵": 3754,
        "▁Ro": 7477,
        "izin": 11845,
        "▁designs": 17275,
        "aduate": 24498,
        "▁Anime": 19961,
        "▁Caesar": 20247,
        "▁abb": 21857,
        "▁continued": 8111,
        "teri": 15253,
        "oru": 28791,
        "▁hukum": 8930,
        "lad": 13829,
        "▁horor": 26537,
        "▁seluas": 16480,
        "▁yard": 11572,
        "▁selected": 12049,
        "▁Undang-undang": 28499,
        "orm": 5978,
        "▁Musa": 22112,
        "▁sample": 24347,
        "oa": 15296,
        "▁Parazoa,": 28459,
        "▁golf": 23242,
        "▁kol": 8498,
        "▁Batu": 14435,
        "▁hak": 8820,
        "▁blow": 23779,
        "esko": 28918,
        "▁ability": 13008,
        "é": 97,
        "具": 3416,
        "▁Nancy": 16783,
        "lorasi": 29359,
        "ospel": 21499,
        "▁Division": 9010,
        "▁jawab": 11626,
        "ء": 415,
        "elasan": 17960,
        "ambangkan": 17685,
        "ꦧ": 790,
        "▁penduduknya": 16564,
        "▁permasalahan": 25974,
        "▁fle": 9474,
        "▁coverage": 20584,
        "▁late": 7926,
        "▁kotanya": 28705,
        "▁Filsafat": 30102,
        "박": 1107,
        "ed": 5597,
        "▁coc": 16349,
        "▁Selanjutnya,": 25432,
        "▁alk": 17346,
        "▁2019": 10678,
        "ဟ": 5120,
        "impun": 30722,
        "▁Dalton": 26502,
        "▁AB": 25007,
        "▁rencana": 13580,
        "getown": 26183,
        "れ": 588,
        "ꦟ": 3306,
        "▁Abr": 15741,
        "▁Treat": 16708,
        "纯": 1815,
        "unjung": 13818,
        "▁tuanya": 19797,
        "eplay": 14263,
        "ANG": 22565,
        "▁Quebec": 20758,
        "-benar": 16579,
        "▁pitcher": 25540,
        "ms": 11899,
        "adah": 13506,
        "▁pergerakan": 19772,
        "▁Col": 6485,
        "▁aided": 30696,
        "▁blog": 20973,
        "▁Kot": 11894,
        "▁operator": 17355,
        "敦": 3111,
        "▁jiwa/km": 24970,
        "▁intercepted": 31856,
        "▁Ariz": 19431,
        "ភ": 4538,
        "VA": 25973,
        "epala": 25250,
        "▁menempatkan": 17650,
        "▁electric": 11237,
        "▁Rub": 13802,
        "▁Aleks": 15995,
        "▁Situs": 8613,
        "ES": 10734,
        "umb": 5928,
        "▁opin": 14492,
        "▁Sabtu": 26196,
        "▁22": 7266,
        "▁spoken": 25605,
        "▁February": 7981,
        "ographic": 13687,
        "▁Kebun": 31313,
        "▁Got": 16461,
        "▁jumlah": 7811,
        "▁Irak": 19530,
        "▁old": 7656,
        "▁Delhi": 25571,
        "rous": 23669,
        "▁relationship": 9689,
        "▁silent": 31236,
        "▁pertumbuhan": 15295,
        "▁controll": 12695,
        "▁SCTV": 30681,
        "▁Ng": 10446,
        "▁tre": 10827,
        "olakan": 23446,
        "▁berulang": 23785,
        "▁celebrate": 29346,
        "▁pandemi": 24025,
        "▁nine": 10628,
        "alonkan": 26873,
        "▁Chironom": 28621,
        "▁hands": 13740,
        "▁cards": 29529,
        "▁Lama": 15563,
        "同": 1842,
        "PD": 15661,
        "▁Mess": 15970,
        "▁Sr.": 31116,
        "▁Lob": 21945,
        "⅓": 1859,
        "▁Manila": 29434,
        "▁sharp": 18173,
        "▁sure": 22093,
        "eign": 11092,
        "▁sekretaris": 25806,
        "▁buk": 10552,
        "▁Dar": 9430,
        "▁handled": 24840,
        "▁Zoro": 25928,
        "▁ajaran": 15196,
        "▁diartikan": 28353,
        "▁puncak": 14615,
        "▁makanan,": 29137,
        "္": 1899,
        "▁Sosialis": 27316,
        "▁album": 6342,
        "▁Happy": 19478,
        "▁synthesis": 31861,
        "▁matters": 23731,
        "eni": 19731,
        "uv": 8217,
        "份": 2177,
        "范": 2561,
        "▁17": 6304,
        "▁plants": 14140,
        "▁Ly": 12286,
        "▁redesign": 30976,
        "吕": 4508,
        "ඌ": 5560,
        "▁Atlanta": 21430,
        "lett": 23660,
        "▁portrayal": 24323,
        "▁Mari": 9614,
        "ektorat": 17427,
        "▁twin": 21513,
        "▁Sv": 29414,
        "译": 3865,
        "慣": 4157,
        "▁Centre": 15428,
        "▁sempat": 11676,
        "后": 2517,
        "▁MTV": 14606,
        "▁Arc": 16929,
        "▁98": 16386,
        "alatan": 14180,
        "elum": 6594,
        "com": 7741,
        "▁WIB": 27252,
        "▁warriors": 31133,
        "▁narrow": 14604,
        "▁Computer": 22031,
        "/j": 23570,
        "ouses": 28244,
        "阴": 4698,
        "nar": 29487,
        "udukan": 11612,
        "apkan": 10370,
        "着": 406,
        "▁Complete": 26445,
        "▁arriving": 21281,
        "inggalan": 18091,
        "▁Cycl": 20133,
        "埋": 1414,
        "跡": 4535,
        "圻": 3597,
        "▁Columb": 11022,
        "▁mendapatkan": 8348,
        "▁IN": 18827,
        "▁heter": 21304,
        "▁York.": 22843,
        "jikan": 25518,
        "▁perp": 11756,
        "▁Fact": 17923,
        "ko": 12414,
        "▁youngest": 22404,
        "raz": 10341,
        "unit": 28301,
        "6).": 21108,
        "▁Sag": 21548,
        "mn": 27663,
        "▁bergun": 21580,
        "uo": 22462,
        "▁kop": 22885,
        "▁pan": 8374,
        "▁preval": 29072,
        "ingen": 28162,
        "▁Brook": 16126,
        "yaw": 22706,
        "▁tulis": 11637,
        "▁parts": 10814,
        "andro": 25986,
        "▁tayang": 16111,
        "▁chronic": 28151,
        "▁Taliban": 31834,
        "▁spont": 26013,
        "▁gadis": 15153,
        "ang.": 6549,
        "▁cotton": 24225,
        "▁situasi": 16714,
        "▁parallel": 15847,
        "군": 2054,
        "ⁿ": 3539,
        "▁special": 9182,
        "▁pendekatan": 20700,
        "▁Connor": 27428,
        "补": 2066,
        "A,": 30459,
        "how": 22743,
        "▁makanan": 9764,
        "▁Death": 14855,
        "▁Ellen": 22930,
        "▁Pasar": 15549,
        "▁obsc": 25286,
        "a-kira": 20038,
        "▁Pictures": 13861,
        "onium": 16658,
        "▁organisme": 24811,
        "▁symb": 29100,
        "影": 181,
        "▁kontribusi": 26191,
        "▁Jaw": 12453,
        "andom": 24288,
        "▁Peace": 19740,
        "収": 3131,
        "▁rasio": 23713,
        "▁melayani": 14269,
        "▁1999": 7983,
        "送": 3641,
        "▁defeated": 10691,
        "inerja": 22925,
        "▁rata-rata": 12508,
        "▁Sin": 10965,
        "eric": 26826,
        "▁leher": 27913,
        "▁Samb": 20319,
        "▁apply": 28024,
        "▁catalog,": 14601,
        "where": 21392,
        "entuh": 28333,
        "▁tahunnya": 31105,
        "▁destroying": 26184,
        "▁Abdul": 10794,
        "▁Hung": 10209,
        "▁robot": 23215,
        "▁reformasi": 24031,
        "ipping": 22137,
        "水": 1384,
        "午": 2540,
        "瘋": 4965,
        ",\"": 20192,
        "uth": 7159,
        "展": 1512,
        "▁Develop": 11964,
        "▁perdebatan": 28454,
        "▁ini.": 7965,
        "engg": 7181,
        "▁id": 13254,
        "artai": 30003,
        "磁": 1581,
        "▁Par": 6697,
        "ᾶ": 792,
        "▁serangan": 10603,
        "▁Guam": 30659,
        "▁aer": 15235,
        "inger": 14208,
        "▁Malik": 23835,
        "rograman": 27476,
        "ners": 19744,
        "▁NCT": 26576,
        "▁extratropical": 26108,
        "ូ": 4873,
        "ethel": 24415,
        "mium": 27257,
        "▁tune": 27712,
        "引": 4902,
        "▁diabetes": 27901,
        "▁antib": 28127,
        "▁katalis": 27982,
        "▁suffered": 11998,
        "▁Br": 6188,
        "ye": 9150,
        "▁Burn": 12138,
        "▁pado": 18131,
        "▁pace": 22529,
        "▁(193": 10824,
        "▁Ten": 11431,
        "bir": 31231,
        "楊": 3286,
        "圍": 3371,
        "▁Liv": 23609,
        "▁Bersenjata": 28544,
        "al)": 29350,
        "▁Send": 23349,
        "▁Non": 15265,
        "ol.": 18264,
        "▁Haifa": 23902,
        "▁khas": 12543,
        "▁says": 13930,
        "▁Hart": 12902,
        "▁pertengahan": 12113,
        "▁circumst": 20917,
        "홉": 4145,
        "▁Bott": 22373,
        "0)": 8902,
        "▁colony": 19283,
        "30)": 30746,
        "ṟ": 2549,
        "▁pula,": 31672,
        "▁teh": 22022,
        "笠": 4473,
        "▁Father": 21596,
        "antas": 17512,
        "▁dis": 5857,
        "汜": 4481,
        "▁liqu": 22969,
        "淺": 4739,
        "84": 17446,
        "▁perfect": 15411,
        "▁beautiful": 22087,
        "enuhi": 29065,
        "▁profile": 14630,
        "▁synthesi": 22062,
        "▁babak": 9880,
        "▁besar.": 13541,
        "▁largely": 12036,
        "胤": 4484,
        "tra": 7904,
        "▁Infanteri": 25283,
        "acle": 18949,
        "▁Chronicles": 29077,
        "▁diet": 18933,
        "▁Jupiter": 14802,
        "▁Sukab": 31970,
        "▁dikon": 31418,
        "▁gend": 28462,
        "▁Band": 7516,
        "▁150": 11531,
        "embalikan": 28488,
        "검": 757,
        "▁Rec": 7633,
        "▁10": 6225,
        "▁Ah": 9598,
        "utional": 18394,
        "▁Cann": 20009,
        "▁plug": 19058,
        "ophy": 11124,
        "誼": 3738,
        "▁Marvel": 18808,
        "▁China": 9546,
        "▁Argentina": 14709,
        "▁penyair": 25364,
        "▁Netflix": 25942,
        "▁samp": 9093,
        "iff": 8943,
        "非": 3042,
        "▁perdagangan": 12518,
        "▁Arab": 8095,
        "죽": 2377,
        "음": 822,
        "▁intelektual": 25648,
        "▁Eminem": 23220,
        "𐌿": 124,
        "2)": 8091,
        "wide": 12821,
        "▁gift": 27211,
        "iang": 12737,
        "▁leads": 19522,
        "▁nearby": 12639,
        "▁kecil.": 16631,
        "▁blok": 19388,
        "ha": 7555,
        "▁Stadium": 16238,
        "▁Buenos": 27273,
        "宛": 4701,
        "▁mag": 7333,
        "emudi": 30922,
        "▁scholar": 20497,
        "bah": 13855,
        "come": 15325,
        "▁recovery": 24841,
        "▁esc": 9392,
        "chen": 17505,
        "▁memut": 10172,
        "ić": 13146,
        "▁Jika": 11965,
        "내": 2497,
        "▁Tempat": 13120,
        "ompat": 30462,
        "丸": 3607,
        "▁Leop": 24301,
        "▁kebakaran": 24343,
        "▁Baru,": 13283,
        "▁kanker": 23515,
        "▁pelajaran": 21536,
        "¾": 410,
        "▁White": 9790,
        "ubungkan": 14141,
        "▁airline": 21560,
        "▁Folk": 27874,
        "masuk": 6932,
        "▁Dr.": 9768,
        "▁Return": 18721,
        "▁vary": 17566,
        "▁rig": 22744,
        "ul": 5649,
        "▁balls": 26042,
        "im": 5659,
        "▁Budapest": 28058,
        "▁Being": 28522,
        "▁persa": 22957,
        "imp": 5972,
        "▁boilers": 25026,
        "▁ment": 12038,
        "็": 4127,
        "▁priv": 10330,
        "▁spacecraft": 27293,
        "akult": 10555,
        "YA": 28664,
        "asana": 22617,
        "測": 4352,
        "▁Vlad": 18084,
        "▁pengendalian": 31479,
        "▁melintasi": 20459,
        "ervation": 13216,
        "▁Turk": 11665,
        "amo": 25193,
        "engketa": 30167,
        "▁Simp": 10331,
        "▁specific": 13028,
        "apan": 6276,
        "▁Penelitian": 18619,
        "▁level": 8086,
        "▁Jambi": 27517,
        "▁sep": 6009,
        "▁fo": 28782,
        "▁Kiai": 27461,
        "▁Kisah": 14589,
        "话": 1440,
        "▁batu": 9271,
        "▁Dusun": 10781,
        "▁Colorado": 18028,
        "▁(2018)": 18155,
        "▁Patri": 19475,
        "▁1850": 23413,
        "▁Larva": 8993,
        "▁binatang": 22734,
        "▁fi": 30967,
        "▁Cent": 7141,
        "▁eleph": 30804,
        "▁turb": 15626,
        "▁petern": 23852,
        "burn": 17841,
        "alar": 26912,
        "▁BWF": 26869,
        "𐌲": 123,
        "▁backst": 29551,
        "adel": 11387,
        "▁create": 11685,
        "ᮠ": 3403,
        "utan": 6849,
        "▁mengumpulkan": 16647,
        "▁Stockholm": 25559,
        "𐤁": 136,
        "idupan": 8361,
        "▁weekly": 22999,
        "▁Jalan": 10034,
        "遺": 1444,
        "▁damaged": 11329,
        "▁leb": 21164,
        "usak": 17721,
        "Ø": 354,
        "▁Tem": 19093,
        "▁Hans": 14363,
        "▁Bangs": 13493,
        "菜": 1805,
        "桂": 4002,
        "roll": 9365,
        "▁Minnesota": 17454,
        "▁Orle": 21665,
        "̠": 5333,
        "▁powerful": 13516,
        "▁Mill": 9137,
        "ਹ": 1809,
        "▁Suzuki": 28668,
        "▁leaves": 14325,
        "ώ": 531,
        "▁pemilihan": 10758,
        "hor": 16694,
        "atia": 16994,
        "▁wrest": 23407,
        "▁~": 23888,
        "隆": 690,
        "택": 770,
        "▁Tit": 18380,
        "▁Kew": 29126,
        "¬": 493,
        "▁1984.": 26815,
        "墾": 4045,
        "cers": 28589,
        "ier": 6726,
        "▁kinerja": 25903,
        "▁Boys": 17256,
        "▁mor": 10759,
        "▁considered": 8197,
        "itr": 15880,
        "▁quoted": 27385,
        "▁kediaman": 27249,
        "▁acknowled": 20093,
        "▁1928": 17499,
        "ﻕ": 3528,
        "ῆ": 768,
        "▁Allah.": 24785,
        "▁eur": 31610,
        "engahan": 10770,
        "▁spawned": 31470,
        "長": 754,
        "▁ekspedisi": 23045,
        "▁Warri": 17697,
        "▁knowing": 30133,
        "헨": 2989,
        "eather": 11400,
        "▁requested": 19182,
        "▁flowers": 25680,
        "▁seven": 9009,
        "വ": 2212,
        "aulatan": 22770,
        "▁Ch": 5849,
        "iksi": 11954,
        "icken": 21113,
        "▁Oktober": 7573,
        "▁together": 9438,
        "▁tal": 13589,
        "▁Rosa": 31868,
        "▁Viking": 26352,
        "▁Gin": 29108,
        "▁pendukung": 13928,
        "▁marking": 25121,
        "▁gempa": 17805,
        "▁mulai": 7147,
        "▁Irish": 12028,
        "▁gampong": 19358,
        "▁112": 23356,
        "akilian": 9207,
        "탁": 4125,
        "▁founded": 13081,
        "▁im": 6834,
        "沛": 2582,
        "▁broadcast": 11097,
        "▁Mend": 14969,
        "▁ben": 8150,
        "▁munisipalitas": 17298,
        "▁angkasa": 19247,
        "ungkan": 19467,
        "éd": 20113,
        "▁finished": 10015,
        "ekat": 12905,
        "丘": 1729,
        "째": 4497,
        "▁frig": 23358,
        "pec": 10460,
        "▁Och": 23897,
        "▁membuka": 12679,
        "手": 1828,
        "▁bend": 12698,
        "AD": 17895,
        "▁dibebaskan": 23774,
        "▁Tentara": 13362,
        "elat": 22427,
        "▁Harv": 12654,
        "ἡ": 791,
        "▁sett": 9450,
        "eskripsikan": 19737,
        "2O": 26106,
        "uls": 15212,
        "▁lar": 11365,
        "▁Wrestling": 20145,
        "▁Astragal": 18478,
        "▁Trip": 22192,
        "ल": 1541,
        "▁Jur": 23460,
        "∏": 3794,
        "策": 5400,
        "▁maz": 29902,
        "▁tabel": 22147,
        "흉": 5260,
        "▁Mario": 16478,
        "onia.": 24458,
        "▁dana": 16121,
        "▁worked": 9726,
        "writer": 30405,
        "Ṡ": 3580,
        "▁〈": 29492,
        "▁atap": 21079,
        "▁subregnum": 28399,
        "▁occasions": 20440,
        "▁Ein": 25796,
        "▁Silva": 29096,
        "▁Konser": 26681,
        "▁pik": 30970,
        "▁Alice": 16431,
        "付": 4038,
        "▁Glas": 27406,
        "▁Gul": 22723,
        "▁both": 6804,
        "篇": 3164,
        "▁Fl": 7966,
        "araw": 14584,
        "▁Buddh": 12955,
        "囲": 5287,
        "▁matemat": 15633,
        "ረ": 3938,
        "▁Sad": 20354,
        "▁administratif": 14307,
        "ܒ": 3674,
        "르": 3944,
        "ial": 5825,
        "▁1988": 11464,
        "-c": 12103,
        "▁miskin": 23230,
        "▁pengenalan": 31971,
        "▁Principal": 27789,
        "ट": 2376,
        "▁averaged": 31140,
        "卒": 3141,
        "ⴍ": 5422,
        "注": 2987,
        "▁shots": 18912,
        "pers": 17810,
        "▁\"Sp": 9661,
        "elimin": 20964,
        "▁Crash": 30472,
        "▁Australia,": 19870,
        "▁Bert": 16624,
        "eur": 17955,
        "▁must": 10295,
        "jah": 19138,
        "霞": 1291,
        "▁metal": 11480,
        "▁Southern": 11499,
        "▁burst": 25455,
        "▁sn": 12909,
        "▁pale": 19199,
        "▁selam": 21821,
        "terious": 27446,
        "▁blasteran": 16363,
        "▁Pione": 30274,
        "▁say": 8394,
        "fax": 30416,
        "▁obv": 22931,
        "▁pelayan": 27627,
        "ak.": 9397,
        "▁commenced": 25160,
        "▁molekul": 18630,
        "ich": 5835,
        "▁To": 8237,
        "ツ": 751,
        "▁Nielsen": 18910,
        "otta": 28280,
        "▁Shr": 26117,
        "▁war": 6565,
        "in.": 9587,
        "▁K.": 13171,
        "asarkan": 7403,
        "▁remember": 19404,
        "▁apapun": 19232,
        "▁Protestan": 19287,
        "ม": 2170,
        "▁si": 9808,
        "org": 10652,
        "▁stock": 18285,
        "▁RW": 21600,
        "▁Yah": 9405,
        "▁God": 9099,
        "▁Å": 31005,
        "▁tukang": 27105,
        "ayer": 16922,
        "潘": 2025,
        "연": 553,
        "▁tinggal": 8668,
        "▁vit": 21905,
        "▁sentence": 24471,
        "Ա": 1749,
        "iac": 18261,
        "▁gem": 27334,
        "▁pelatih": 17155,
        "ᮀ": 5298,
        "▁sampul": 28423,
        "▁RPG": 27541,
        "풍": 3484,
        "▁grade": 18269,
        "代": 229,
        "▁ikut": 11576,
        "▁mengh": 6575,
        "减": 3515,
        "fall": 10065,
        "▁pus": 15209,
        "（": 268,
        "ಮ": 5264,
        "鄭": 4630,
        "iously": 18240,
        "篆": 2603,
        "▁meeting": 11643,
        "▁albums": 13863,
        "unker": 26142,
        "ɸ": 3869,
        "▁extra": 14368,
        "▁imprison": 20087,
        "imon": 30923,
        "▁kot": 9953,
        "▁Sifat": 27549,
        "illah": 27559,
        "▁mill": 6959,
        "興": 143,
        "剣": 3128,
        "썸": 5410,
        "▁masuknya": 29386,
        "▁Ikatan": 26458,
        "▁Ta": 14001,
        "WC": 23920,
        "▁Trans": 8994,
        "▁Crittenden": 27736,
        "ahana": 18434,
        "izoph": 26195,
        "onym": 14967,
        "峪": 4461,
        "泥": 5147,
        "▁hydrogen": 21881,
        "▁drag": 24029,
        "▁intellectual": 24848,
        "impin": 6999,
        "臭": 5537,
        "000": 6191,
        "▁tib": 18481,
        "▁religion": 16387,
        "boy": 17554,
        "▁Belanda,": 16168,
        "▁thick": 13185,
        "▁Halo": 27469,
        "▁supporting": 15823,
        "ycl": 8941,
        "▁pula": 10616,
        "▁generasi": 13530,
        "玄": 2195,
        "▁coastal": 17816,
        "▁maksud": 24946,
        "▁Eksentrisitas": 12352,
        "▁played": 7667,
        "▁assist": 10573,
        "▁dilap": 31505,
        "il,": 13795,
        "古": 1334,
        "▁strengthened": 24412,
        "▁Award": 8745,
        "▁memimpin": 11906,
        "▁occ": 7250,
        "゜": 1518,
        "除": 1679,
        "ina,": 11575,
        "▁actions": 13366,
        "▁ayahnya.": 29376,
        "▁committee": 15801,
        "E,": 30426,
        "ᮓ": 3420,
        "▁Osaka": 29870,
        "▁kuat": 10530,
        "▁akun": 23493,
        "▁Ay": 10833,
        "▁Marcus": 19912,
        "am,": 8516,
        "▁sport": 13551,
        "▁Keduanya": 22687,
        "▁memengaruhi": 23148,
        "osc": 24592,
        "▁beta": 27940,
        "▁(lihat": 25859,
        "▁Surabaya.": 28064,
        "▁Princeton": 21107,
        "▁dinner": 28800,
        "▁pinggir": 29187,
        "ipated": 17245,
        "▁Sudan": 24479,
        "▁Poole": 26496,
        "▁manual": 22614,
        "Ď": 2919,
        "▁layak": 25270,
        "▁undertaken": 26763,
        "▁Sloven": 23508,
        "▁Profesor": 25596,
        "គ": 2593,
        "▁Ren": 13591,
        "▁prey": 18420,
        "▁adaptasi": 20592,
        "▁Schwar": 31607,
        "▁station": 9050,
        "▁Christ": 7173,
        "▁wakil": 13080,
        "▁Saf": 17329,
        "▁Habib": 25264,
        "▁perilisan": 25354,
        "▁Pura": 27291,
        "unt": 7084,
        "ecuali": 31720,
        "maisuri": 29568,
        "▁room": 11542,
        "▁(F": 11544,
        "▁cyclone": 13753,
        "च": 2817,
        "▁Earth": 10845,
        "▁mandiri": 25839,
        "▁DKI": 19604,
        "科": 2876,
        "▁bowlers": 31230,
        "劈": 4591,
        "▁membela": 22728,
        "▁broke": 13651,
        "▁dilahirkan": 19004,
        "▁return": 7070,
        "ocaust": 21134,
        "異": 997,
        "俱": 2678,
        "య": 4732,
        "2": 30,
        "arn": 9121,
        "ayasa": 26591,
        "▁sib": 20829,
        "▁Efek": 21003,
        "▁Future": 21512,
        "ृ": 3351,
        "ה": 777,
        "農": 3975,
        "▁prajurit": 17645,
        "▁1896": 20177,
        "▁Gag": 28474,
        "▁dinosaur": 26393,
        "▁perhatian": 14241,
        "▁Bed": 14465,
        "▁keamanan": 15766,
        "▁kud": 15833,
        "▁lingkungan": 10123,
        "▁uses": 12897,
        "▁determine": 18921,
        "▁Conserv": 25844,
        "▁peluru": 21736,
        "ᨆ": 1898,
        "▁Baja": 24891,
        "reated": 31234,
        "▁Ouv": 9297,
        "𐌃": 4572,
        "▁susp": 10910,
        "▁Mahasiswa": 20001,
        "uted": 8496,
        "晦": 5548,
        "▁Harrier": 29691,
        "▁wonder": 25070,
        "▁aware": 20960,
        "ŝ": 4848,
        "▁website": 10241,
        "▁paru": 22790,
        "ʲ": 2472,
        "▁Bro": 7154,
        "▁Pontian": 25551,
        "ড": 1708,
        "tingham": 31439,
        "▁Hugh": 19150,
        "▁constantly": 27438,
        "aki,": 25331,
        "▁Iowa": 20871,
        "▁Bour": 24013,
        "▁no": 6602,
        "▁keponakan": 27370,
        "▁Broadcasting": 19881,
        "▁Leslie": 21218,
        "▁Benny": 30944,
        "▁Shel": 19468,
        "▁consensus": 31712,
        "▁Hungary": 19849,
        "▁takes": 12646,
        "▁RAAF": 20406,
        "Ä": 808,
        "▁Mos": 10922,
        "▁Los": 9448,
        "▁Konferensi": 20034,
        "▁Bunga": 23876,
        "Ⴡ": 1498,
        "ication": 20338,
        "iments": 15452,
        "▁procedure": 29017,
        "棍": 4966,
        "ie.": 23455,
        "▁terlaris": 29265,
        "割": 3956,
        "body": 21369,
        "▁Giul": 31094,
        "O)": 23677,
        "卵": 4059,
        "ycle": 14677,
        "%": 67,
        "▁configur": 30809,
        "uries": 11537,
        "▁DJ": 18401,
        "▁Arch": 9851,
        "▁posisinya": 30084,
        "ivered": 15504,
        "▁inspir": 16559,
        "▁administer": 26269,
        "ҡ": 3642,
        "▁tand": 8624,
        "▁tembakan": 29657,
        "▁climate": 18494,
        "▁variations": 28603,
        "itu,": 21302,
        "ipsi": 17926,
        "▁pi": 22479,
        "𐌓": 2763,
        "-1": 7186,
        "oleh": 8220,
        "ographical": 17187,
        "uta": 7968,
        "▁Pembalap": 19450,
        "▁corn": 13333,
        "▁publications": 22107,
        "ꦚ": 1493,
        "鉤": 4566,
        "得": 522,
        "▁:": 6017,
        "ω": 210,
        "霸": 4184,
        "ships": 21492,
        "▁shows": 11011,
        "▁Tekn": 10014,
        "▁SG": 29892,
        "▁crisis": 20431,
        "▁tumb": 8053,
        "▁genetic": 20558,
        "▁opposing": 25593,
        "wood": 8519,
        "▁Pakist": 18793,
        "23": 8147,
        "▁kab": 13550,
        "բ": 432,
        "obaan": 20790,
        "▁39": 11351,
        "operasi": 11824,
        "▁focused": 16358,
        "att": 6232,
        "pool": 12835,
        "lat": 12948,
        "▁peaked": 13474,
        "▁Meski": 18117,
        "▁Comm": 7157,
        "▁using": 8673,
        "ov,": 22296,
        "▁monarch": 23853,
        "▁disetujui": 23046,
        "achment": 20411,
        "裊": 1697,
        "▁Byzant": 18099,
        "R.": 26641,
        "效": 1499,
        "硫": 5487,
        "▁Together": 20950,
        "ropical": 8127,
        "▁600": 12678,
        "CT": 13625,
        "▁your": 13872,
        "▁us": 5999,
        "頻": 5033,
        "erangan": 12266,
        "▁2015.": 15102,
        "▁Democrats": 30420,
        "obil": 30378,
        "adik": 31172,
        "▁Denver": 23973,
        "ished": 6581,
        "▁digit": 31325,
        "ikh": 12797,
        "▁Y.R.,": 9310,
        "ungkap": 22857,
        "▁nick": 15588,
        "▁Bald": 19801,
        "▁Washington,": 25080,
        "▁far": 9677,
        "案": 1363,
        "▁federal": 12042,
        "▁Meskipun": 9686,
        "▁circum": 15872,
        "imax": 31765,
        "ualangan": 21458,
        "▁ultimately": 13573,
        "▁Dom": 14134,
        "▁internet": 16539,
        "▁taste": 27926,
        "sch": 12316,
        "isten": 13615,
        "틀": 3184,
        "▁teg": 13782,
        "▁wartime": 28032,
        "▁adik": 14929,
        "▁pre": 6597,
        "ister": 7331,
        "▁showed": 12878,
        "碑": 1412,
        "phy": 17000,
        "▁1200": 25883,
        "▁doctrine": 26249,
        "２": 685,
        "-ciri": 29496,
        "▁diduga": 17991,
        "▁portal": 30725,
        "▁Elliott": 25385,
        "▁Allied": 14634,
        "▁Epic": 30805,
        "▁978": 13731,
        "Գ": 3449,
        "arg": 6128,
        "▁besar,": 13622,
        "▁Gran": 19045,
        "▁bot": 20413,
        "▁thorough": 28753,
        "▁chlor": 29754,
        "mad": 11801,
        "ia)": 18338,
        "ച": 3712,
        "Э": 2087,
        "hi": 8419,
        "И": 764,
        "▁kg": 11321,
        "avery": 20036,
        "▁GM": 23182,
        "▁pangan": 20203,
        "▁municipal": 18694,
        "娘": 1694,
        "Ԛ": 4811,
        "▁lolos": 14944,
        "▁Ais": 26466,
        "stock": 26081,
        "ԙ": 1348,
        "quir": 19012,
        "▁Armenia": 15759,
        "▁infl": 19734,
        "ennes": 30033,
        "编": 4823,
        "lical": 24280,
        "ders": 19964,
        "▁connection": 17118,
        "▁ukuran": 12355,
        "ந": 1876,
        "▁Diệ": 24713,
        "▁Tiong": 7283,
        "▁Attorney": 24354,
        "▁FIA": 28351,
        "▁funk": 29986,
        "▁baru.": 14125,
        "eel": 8327,
        "▁sebelas": 29075,
        "▁reduction": 23251,
        "▁Maya": 15381,
        "▁perhaps": 15786,
        "Л": 2369,
        "▁towers": 22221,
        "▁Croatian": 20064,
        "▁Buffy": 26024,
        "▁Bupati": 11031,
        "▁Sesuai": 29829,
        "진": 1059,
        "▁Keter": 26566,
        "▁dipimpin": 11196,
        "▁Maximilian": 31975,
        "▁Brigjen.": 30999,
        "▁code": 19464,
        "ов": 31659,
        "oides": 21894,
        "▁Conf": 13023,
        "▁Sec": 7490,
        "▁Dutch": 13048,
        "": 2191,
        "▁fossil": 23526,
        "ópez": 29377,
        "▁rather": 9716,
        "총": 2492,
        "oven": 14375,
        "ု": 2184,
        "▁evening": 17802,
        "▁massal": 25863,
        "适": 2898,
        "▁telah": 6152,
        "kaid": 28424,
        "▁forth": 23469,
        "ர": 1633,
        "▁ot": 10489,
        "icara": 12229,
        "ke": 8089,
        "▁muda": 9172,
        "▁29": 7792,
        "權": 2994,
        "▁membuktikan": 22689,
        "▁sprint": 27930,
        "▁disrup": 20110,
        "甘": 4795,
        "▁split": 14355,
        "▁Luftw": 28963,
        "▁artist": 12347,
        "▁pentingnya": 28736,
        "▁knee": 26704,
        "▁terbentuknya": 30699,
        "ikan.": 27180,
        "▁League": 8614,
        "堰": 5133,
        "ensions": 18221,
        "▁pertama.": 17209,
        "ே": 3646,
        "ust": 5944,
        "ohar": 28652,
        "ik": 5640,
        "▁panj": 16351,
        "▁le": 6202,
        "▁McD": 16645,
        "▁churches": 19695,
        "▁Mack": 17625,
        "▁rah": 13764,
        "▁beralih": 20924,
        "▁fakultas": 29990,
        "▁kejadian": 16275,
        "esy": 28956,
        "rep": 18648,
        "oses": 31330,
        "▁Jay": 13500,
        "enna": 18151,
        "▁Bulb": 17378,
        "官": 1529,
        "01": 22196,
        "ic": 5631,
        "ˌ": 2869,
        "▁Sekutu": 22453,
        "ick": 6116,
        "▁harfiah": 22550,
        "▁mendat": 21943,
        "▁Not": 10392,
        "▁Wo": 14878,
        "enny": 22476,
        "¢": 1755,
        "▁Daya": 19724,
        "▁Pere": 28894,
        "24": 9745,
        "內": 3557,
        "▁Het": 29575,
        "त": 461,
        "etwork": 9528,
        "▁\"G": 14521,
        "▁2003": 7848,
        "▁collection": 12719,
        "▁Pengetahuan": 25756,
        "▁Yoshi": 30981,
        "opa": 20017,
        "▁kekaisaran": 20236,
        "▁recip": 20801,
        "▁ho": 24630,
        "▁berw": 20326,
        "ţ": 1603,
        "▁Abad": 17320,
        "▁Hak": 11369,
        "♯": 3878,
        "▁perwakilan": 15680,
        "idasi": 24307,
        "▁3.": 12144,
        "ulture": 29354,
        "▁karena": 6264,
        "▁unve": 25959,
        "ident": 6499,
        "娄": 4544,
        "▁requ": 7730,
        "်": 3630,
        "▁konon": 30798,
        "均": 4659,
        "Ἑ": 4419,
        "▁wins": 19308,
        "▁Ulu": 25016,
        "▁processes": 27877,
        "▁Eu": 27052,
        "ᶻ": 5534,
        "ques": 11627,
        "▁Michel": 15364,
        "紅": 399,
        "物": 862,
        "abi": 9877,
        "ܡ": 2449,
        "▁ditambah": 19174,
        "enjataan": 27905,
        "▁buat": 29965,
        "▁Dataran": 30053,
        "▁delight": 31646,
        "deka": 20632,
        "▁(untuk": 26330,
        "▁ke-13": 31322,
        "▁Fit": 18217,
        "▁anak-an": 10769,
        "ap.": 13770,
        "▁José": 17516,
        "▁pembukaan": 17666,
        "amat": 9315,
        "▁Information": 15599,
        "bishop": 21681,
        "jud": 30750,
        "osh": 10807,
        "▁desc": 15511,
        "▁molec": 18923,
        "63": 21623,
        "er": 5578,
        "▁750": 22805,
        "dam": 15685,
        "ohn": 22712,
        "▁pap": 13002,
        "▁predators": 27286,
        "▁unn": 26109,
        "ር": 3440,
        "▁prestasi": 22548,
        "itect": 11983,
        "▁actively": 31785,
        "▁suff": 8825,
        "▁locally": 25737,
        "irt": 23329,
        "▁Nepal": 26989,
        "▁ekonomi.": 28307,
        "▁Sejm": 30772,
        "▁tekst": 24119,
        "elfth": 31018,
        "tif": 8006,
        "▁tactics": 23112,
        "▁penyakit": 10553,
        "▁1894": 21352,
        "▁colored": 28497,
        "▁Resolusi": 22184,
        "▁pals": 23075,
        "繼": 2785,
        "▁treated": 20350,
        "ස": 2696,
        "▁Ident": 25135,
        "▁Burnham": 27545,
        "ခ": 4319,
        "▁destroyed": 10764,
        "▁purpos": 19017,
        "▁Pemb": 7336,
        "▁favorite": 19586,
        "ky": 11073,
        "輩": 3396,
        "▁Force": 10056,
        "▁beredar": 31364,
        "▁Pseud": 20620,
        "▁Televisi": 23622,
        "edung": 10994,
        "▁amounts": 23694,
        "清": 1746,
        "ullivan": 15657,
        "▁reguler": 26382,
        "idents": 10926,
        "髢": 2891,
        "▁Rudy": 30771,
        "▁alternative": 16809,
        "atika": 31374,
        "▁keadaan": 12433,
        "▁p.": 16709,
        "▁commanding": 25775,
        "▁Orton": 31841,
        "巨": 5466,
        "▁alliance": 24312,
        "▁teman-t": 19052,
        "KI": 12476,
        "▁costume": 28694,
        "▁Rest": 18561,
        "▁doktrin": 26581,
        "▁dijumpai": 26429,
        "imetres": 25944,
        "▁Sams": 23749,
        "▁(2014": 29692,
        "▁195": 6477,
        "▁Banyum": 28614,
        "z": 69,
        "▁Elder": 28491,
        "▁pantai": 11010,
        "iai": 24155,
        "▁Seine": 28788,
        "▁Galeri": 30988,
        "▁unexpected": 26009,
        "▁Derb": 22331,
        "▁diberi": 10407,
        "▁wasn": 21571,
        "ﻉ": 4100,
        "▁kursi": 14504,
        "▁tanah.": 23316,
        "访": 3297,
        "si,": 26390,
        "▁tit": 7229,
        "uez": 26955,
        "empuh": 16684,
        "▁Awalnya,": 29695,
        "▁Minaj": 29757,
        "嘗": 4757,
        "▁Birth": 30270,
        "eptor": 18684,
        "▁territ": 10700,
        "廊": 5243,
        "▁violence": 16829,
        "▁gangguan": 16573,
        "ajib": 12702,
        "▁Navig": 28625,
        "▁Security": 19907,
        "本": 1931,
        "▁Lukas": 26990,
        "▁Warga": 25476,
        "▁Historical": 19340,
        "梦": 2163,
        "ற": 1878,
        "▁Doug": 12655,
        "▁gravit": 30651,
        "▁success": 7264,
        "ewaskan": 26895,
        "Ψ": 2430,
        "use": 11706,
        "ನ": 4891,
        "霄": 3022,
        "▁selamat": 21288,
        "▁through": 6502,
        "▁Primetime": 29672,
        "ɒ": 3798,
        "ush": 7611,
        "opher": 14403,
        "▁Inter": 9759,
        "▁2017,": 13694,
        "으": 4600,
        "▁pangkalan": 25457,
        "urun": 10854,
        "▁1996,": 23006,
        "▁potongan": 24038,
        "▁Das": 24951,
        "▁pingg": 16639,
        "▁Muhammad": 10147,
        "▁berisi": 11110,
        "退": 4743,
        "j": 26,
        "▁Eg": 10715,
        "▁objective": 21966,
        "atangani": 13509,
        "פ": 774,
        "▁Outside": 30015,
        "▁human": 9491,
        "▁upgraded": 20183,
        "▁kakek": 23361,
        "essa": 19937,
        "▁encomp": 28527,
        "▁percobaan": 24395,
        "མ": 5227,
        "▁Arg": 10289,
        "▁ul": 10638,
        "▁seleksi": 29229,
        "▁Survivor": 29231,
        "▁graduate": 24794,
        "ਬ": 1811,
        "韬": 4289,
        "▁⁄": 23823,
        "▁garis": 11095,
        "▁Pine": 27637,
        "赴": 3180,
        "▁Dendrobium": 28213,
        "▁penerimaan": 27650,
        "KP": 29603,
        "▁rob": 13656,
        "▁pembangunan": 10875,
        "erus": 9669,
        "▁Lody": 29676,
        "▁parties": 17394,
        "▁$": 6916,
        "▁jika": 8866,
        "uran": 6343,
        "▁Spokan": 20767,
        "▁Gill": 16378,
        "▁saling": 14055,
        "▁province": 17321,
        "ram": 11245,
        "▁Tep": 28591,
        "inster": 18975,
        "▁novels": 19006,
        "▁Sho": 27241,
        "▁continu": 19532,
        "▁finding": 17115,
        "awaringin": 29793,
        "▁alumin": 22656,
        "▁Linyphiidae.": 23189,
        "▁incidents": 28495,
        "璃": 4650,
        "umen,": 31660,
        "▁Cr": 7759,
        "▁Vis": 14734,
        "▁WWE": 17494,
        "▁disiarkan": 17658,
        "▁vi": 29437,
        "▁singer": 12613,
        "▁date": 11194,
        "ꦛ": 2370,
        "▁Course": 31835,
        "▁kontrovers": 18517,
        "8),": 20352,
        "▁Kemp": 28704,
        "▁devices": 26858,
        "▁bersama": 6946,
        "DF": 31332,
        "▁Myan": 21887,
        "ation": 5733,
        "짓": 3900,
        "▁Generasi": 22865,
        "▁Tiongho": 10749,
        "▁hit": 7878,
        "▁signs": 22879,
        "GM": 20857,
        "0s": 7134,
        "ἁ": 2314,
        "혼": 3057,
        "▁disingkat": 17339,
        "▁Race": 19655,
        "aits": 17426,
        "ribadian": 22482,
        "▁deg": 10417,
        "ridge": 9318,
        "c": 38,
        "▁transmission": 28626,
        "▁possible": 10247,
        "▁resulted": 12541,
        "▁kerb": 28550,
        "魚": 4363,
        "히": 3690,
        "歐": 4854,
        "ժ": 4808,
        "瓛": 4929,
        "cis": 7004,
        "▁Partai": 8497,
        "▁ulasan": 22265,
        "▁e.g.": 24324,
        "▁Prancis": 7617,
        "atropical": 25995,
        "▁78": 15783,
        "▁semasa": 27850,
        "ܼ": 2403,
        "♪": 2946,
        "▁Singapore": 12649,
        "▁Pes": 9629,
        "▁significantly": 16254,
        "▁seeking": 21223,
        "祈": 4241,
        "ap,": 16240,
        "▁stead": 25079,
        "▁air,": 19629,
        "adelph": 13388,
        "▁didukung": 16087,
        "formula": 24051,
        "▁Hasil": 12666,
        "▁Tid": 27068,
        "▁Chester": 25548,
        "▁Agust": 7899,
        "▁earli": 9169,
        "▁Semen": 15860,
        "▁awal,": 25620,
        "▁panel": 17953,
        "de": 9108,
        "▁dunia": 7698,
        "aising": 16105,
        "▁110": 14526,
        "▁Lev": 13464,
        "riages": 28326,
        "▁masc": 28829,
        "▁Roma": 11308,
        "O.": 22568,
        "▁mengec": 29669,
        "▁tahun-tahun": 22631,
        "▁Conv": 27012,
        "▁Ain": 23947,
        "云": 2432,
        "▁kecamatan": 7624,
        "ovan": 31806,
        "▁dat": 7324,
        "ז": 1885,
        "▁erup": 19473,
        "泗": 3569,
        "▁vis": 7589,
        "ucks": 16342,
        "넣": 5339,
        "uksesan": 19958,
        "ist": 5753,
        "ementara": 7221,
        "▁Batas": 16424,
        "aghd": 30374,
        "▁Veronica": 23449,
        "▁perbandingan": 29219,
        "za": 9280,
        "▁Terdapat": 12988,
        "▁pemer": 24531,
        "했": 2108,
        "▁families": 15073,
        "▁Peri": 15580,
        "▁remained": 8840,
        "▁cabinet": 26293,
        "▁Aud": 16876,
        "▁Strange": 29399,
        "▁quit": 29909,
        "esley": 30930,
        "▁Primary": 31090,
        "▁communication": 21522,
        "岩": 1801,
        "▁Pict": 11203,
        "പ": 3711,
        "撰": 3587,
        "inity": 14039,
        "ograf": 8012,
        "▁Medal": 14302,
        "▁joins": 31790,
        "▁Asilidae.": 18160,
        "▁Cal": 7471,
        "▁Kh": 7497,
        "▁Basil": 23908,
        "诞": 2298,
        "▁baik": 7592,
        "▁memakan": 13056,
        "▁keperluan": 23921,
        "▁Montana": 19926,
        "▁diant": 14485,
        "IC": 25772,
        "▁turning": 17392,
        "▁Bry": 16099,
        "▁Transportation": 22371,
        "▁save": 15785,
        "薈": 1358,
        "ោ": 3247,
        "▁laws": 14359,
        "▁dibawa": 15520,
        "愴": 4476,
        "▁posted": 17198,
        "icales.": 28405,
        "▁Australia": 7768,
        "▁Pengembangan": 17423,
        "▁dihentikan": 21692,
        "inan": 10526,
        "silah": 27587,
        "▁starring": 22471,
        "局": 5100,
        "odies": 12564,
        "▁Karib": 29338,
        "ahami": 16695,
        "▁korban": 13095,
        "▁Long": 10152,
        "▁possess": 23214,
        "▁donated": 23548,
        "樓": 4986,
        "ེ": 5226,
        "▁diucapkan": 31447,
        "hi.": 25574,
        "bi": 17279,
        "▁guitars": 31547,
        "権": 3631,
        "帳": 4490,
        "▁Sac": 20561,
        "ర": 3481,
        "at": 5584,
        "▁skills": 19151,
        "呑": 2165,
        "▁1984": 11912,
        "▁London:": 19185,
        "▁Eld": 23180,
        "▁1873": 25258,
        "▁Bradley": 25464,
        "▁pedesaan": 26748,
        "arius": 27472,
        "▁1865": 24581,
        "ད": 1847,
        "▁Enix": 29473,
        "zhou": 20151,
        "ओ": 2599,
        "▁Hey": 21045,
        "ᮧ": 2613,
        "ipp": 7932,
        "▁jurisd": 26137,
        "▁banned": 24680,
        "▁pitch": 12976,
        "猎": 3048,
        "▁186": 8438,
        "▁scored": 9847,
        "▁reason": 12297,
        "▁Strat": 22871,
        "▁Pank": 30004,
        "ote": 7395,
        "▁trib": 10903,
        "▁parliament": 17182,
        "ainkan": 9464,
        "▁mir": 10429,
        "▁berkat": 21190,
        "▁exterior": 28939,
        "习": 3041,
        "-s": 6846,
        "▁headed": 16060,
        "▁comes": 14711,
        "▁kontroversi": 28903,
        "▁Ism": 16405,
        "没": 5276,
        "▁spots": 26599,
        "aced": 7261,
        "▁Jl.": 17388,
        "▁colleagues": 22000,
        "▁lengan": 25058,
        "▁Hiday": 25417,
        "▁kuda": 18456,
        "▁Kad": 13875,
        "▁chemical": 18877,
        "VID": 21029,
        "寔": 4818,
        "ebor": 8981,
        "ok,": 14332,
        "▁Oda": 29677,
        "雁": 2968,
        "▁lahir": 8434,
        "▁temp": 7767,
        "—": 131,
        "▁tengah": 9510,
        "▁angkatan": 15206,
        "ekar": 25683,
        "▁WC": 30839,
        "▁Was": 21192,
        "▁Rey": 14938,
        "▁nek": 19513,
        "▁ost": 26747,
        "▁tik": 18263,
        "灰": 4347,
        "▁spir": 11017,
        "▁titles": 15514,
        "▁Springfield": 25335,
        "▁reduced": 12723,
        "▁Lemb": 11487,
        "▁peran": 9893,
        "▁marry": 21159,
        "nick,": 16649,
        "▁terdiri": 7544,
        "▁Family": 14202,
        "▁VI": 14659,
        "▁Baker": 19231,
        "esan": 15603,
        "▁Feder": 17947,
        "▁Political": 22582,
        "▁secretary": 24185,
        "▁Fernand": 28906,
        "▁Tanger": 18550,
        "Ⴥ": 4491,
        "orrh": 31690,
        "adiyah": 18870,
        "▁Kw": 18200,
        "▁amino": 20500,
        "▁kedua.": 21996,
        "uper": 31674,
        "air": 6312,
        "▁downtown": 17016,
        "ipes": 25480,
        "imination": 21270,
        "▁gamb": 10475,
        "▁psik": 15659,
        "▁Wong": 27969,
        "▁isol": 14667,
        "▁pengeb": 26530,
        "aim": 7165,
        "ayable": 28125,
        "▁Anand": 30379,
        "▁seluruhnya": 27137,
        "반": 2964,
        "▁Steve": 12959,
        "▁walking": 24221,
        "▁abund": 21191,
        "lings": 19385,
        "▁dihancurkan": 20946,
        "▁kemajuan": 23564,
        "dess": 25279,
        "▁69": 14060,
        "▁Olivia": 19545,
        "▁Gros": 23647,
        "▁Internasional": 9935,
        "▁Zero": 22417,
        "aba": 8431,
        "▁pen": 5880,
        "낭": 2864,
        "▁berkompetisi": 15260,
        "▁Parade": 30397,
        "▁2009)": 31367,
        "ἑ": 1871,
        "ो": 545,
        "Β": 479,
        "▁kabar": 13072,
        "icance": 22829,
        "▁Leban": 17701,
        "▁sadar": 24807,
        "仄": 2758,
        "▁physically": 28663,
        "ꯪ": 3653,
        "▁Tommy": 21712,
        "upaya": 23679,
        "▁terlebih": 20293,
        "FA": 8306,
        "▁penulisan": 20747,
        "▁punishment": 29908,
        "▁Tiongkok": 7867,
        "ὗ": 5096,
        "匡": 1396,
        "▁William": 7392,
        "▁tubuh": 8853,
        "▁L.": 8122,
        "▁Profes": 21137,
        "▁Bj": 30855,
        "▁hib": 14810,
        "惟": 2966,
        "▁devast": 23065,
        "Μ": 1752,
        "▁forms": 12756,
        "ges": 9165,
        "-g": 10755,
        "ut": 5636,
        "▁substant": 16233,
        "▁going": 10627,
        "▁dipindahkan": 16572,
        "▁Initially": 20425,
        "''": 14638,
        "4": 36,
        "▁Vit": 19592,
        "issance": 15469,
        "▁displays": 23695,
        "▁Prinsip": 28805,
        "μ": 356,
        "ebo": 29827,
        "▁sendiri.": 11896,
        "TT": 23434,
        "্": 2357,
        "onia": 9434,
        "▁mentions": 30391,
        "akes": 9990,
        "▁Laut": 9384,
        "atar": 13234,
        "▁kambing": 22013,
        "耳": 5216,
        "iens": 27322,
        "▁casualties": 17172,
        "▁panjang": 7689,
        "∅": 1229,
        "agikan": 30635,
        "▁critical": 12151,
        "邮": 3755,
        "▁St.": 9072,
        "▁profes": 10955,
        "▁Olimpiade": 11327,
        "ulates": 26807,
        "▁Umay": 28518,
        "▁Eropa": 8625,
        "orp": 7316,
        "▁berinteraksi": 30103,
        "▁Julius": 22601,
        "adilan": 11218,
        "▁Keamanan": 16139,
        "▁Pomp": 26151,
        "丁": 1905,
        "▁perilaku": 17562,
        "▁sukar": 24675,
        "▁wadah": 24972,
        "mospheric": 26187,
        "ihat": 7569,
        "▁Visual": 22246,
        "ona,": 27722,
        "ajar": 8072,
        "謡": 4413,
        "伯": 1543,
        "홍": 2569,
        "权": 2006,
        "▁shall": 15440,
        "贈": 1934,
        "肹": 3414,
        "▁Cry": 16436,
        "amb": 5911,
        "▁membedakan": 19934,
        "▁contohnya": 27661,
        "𐰴": 4551,
        "▁song": 6472,
        "▁El": 6796,
        "ece": 18187,
        "▁sert": 24206,
        "▁CF": 22185,
        "憶": 2686,
        "▁breaking": 18337,
        "▁Seo": 29106,
        "鋳": 993,
        "▁dari:": 31442,
        "류": 3138,
        "vari": 15824,
        "▁hero": 14322,
        "▁fung": 25266,
        "𐊰": 3321,
        "药": 3358,
        "琉": 2979,
        "▁publication": 15472,
        "▁intense": 19047,
        "gr.": 31820,
        "▁Classic": 21619,
        "淡": 4778,
        "▁phy": 21058,
        "▁mouse": 31816,
        "ꥋ": 5151,
        "ar,": 7673,
        "原": 173,
        "lines": 11486,
        "▁sol": 7937,
        "▁understanding": 19846,
        "▁Burr": 26145,
        "▁Gordon": 15369,
        "▁input": 31053,
        "▁Canter": 22753,
        "▁invasion": 14121,
        "PS": 12578,
        "▁transit": 23236,
        "莎": 1911,
        "▁menyusun": 22149,
        "ﻥ": 3808,
        "ῦ": 1220,
        "ရ": 5533,
        "acing": 9956,
        "▁dial": 10593,
        "행": 2141,
        "▁Arth": 7259,
        "▁numer": 11415,
        "▁relief": 14687,
        "▁Mercedes": 23627,
        "▁Def": 10724,
        "▁Originally": 23122,
        "▁nice": 27634,
        "let": 6141,
        "▁sinking": 28341,
        "▁sakit,": 29259,
        "▁sever": 6784,
        "▁oleh": 5845,
        "▁ninth": 18469,
        "elf": 7175,
        "yz": 18698,
        "epang": 27510,
        "嬴": 4549,
        "elles": 31410,
        "ination": 9829,
        "▁Roth": 20949,
        "ensial": 16443,
        "𐩫": 2458,
        "▁Bon": 12177,
        "▁suhu": 14034,
        "▁punish": 23237,
        "俞": 2231,
        "ఊ": 4702,
        "▁Squad": 27984,
        "ior": 7059,
        "▁Beij": 16905,
        "▁voted": 17673,
        "itting": 21948,
        "▁ped": 9512,
        "▁Thund": 22040,
        "▁teratas": 22219,
        "▁endors": 23309,
        "▁French": 7777,
        "▁beberapa": 6446,
        "▁desain": 12529,
        "▁Tul": 21931,
        "fast": 25502,
        "Ū": 2645,
        "▁(2021": 26786,
        "▁processing": 30119,
        "▁limited": 11210,
        "▁Norweg": 12188,
        "▁Hern": 27404,
        "▁covering": 20919,
        "▁selatan,": 21445,
        "▁Mu": 13562,
        "haus": 24505,
        "▁requiring": 26948,
        "▁runner-up": 29363,
        "▁sebelumnya,": 16310,
        "emuk": 18148,
        "lass": 19688,
        "蕪": 5424,
        "ه": 310,
        "▁junction": 21145,
        "sea": 19253,
        "▁Bali.": 27572,
        "び": 1740,
        "▁derived": 17767,
        "▁Indo": 20570,
        "検": 5249,
        "wer": 10834,
        "川": 60,
        "▁International": 7621,
        "▁unp": 18146,
        "▁Ath": 10456,
        "▁communities": 17267,
        "▁condemned": 27593,
        "▁Namun": 9908,
        "祖": 2097,
        "メ": 1263,
        "▁cultural": 15526,
        "з": 517,
        "▁Akhir": 13446,
        "▁naval": 13856,
        "ܿ": 2811,
        "魔": 1503,
        "▁1996": 10043,
        "ồ": 1350,
        "ཚ": 5228,
        "▁cok": 16236,
        "▁belakangan": 30643,
        "植": 1065,
        "75": 11508,
        "▁submar": 16123,
        "uge": 12312,
        "▁Plat": 12256,
        "▁Tert": 22408,
        "aves": 9112,
        "▁Lad": 17160,
        "uturkan": 18524,
        "▁guna": 21611,
        "▁pars": 28196,
        "▁Rise": 29196,
        "있": 4791,
        "ecr": 13727,
        "▁Richmond": 22640,
        "尉": 1193,
        "▁Witch": 24912,
        "练": 4916,
        "▁Na": 13416,
        "″": 1227,
        "製": 2074,
        "▁cenderung": 15912,
        "▁released": 7132,
        "epaskan": 16197,
        "▁diikuti": 13082,
        "▁siaran": 19482,
        "▁(di": 15869,
        "▁baw": 22826,
        "ˈ": 805,
        "▁Need": 22842,
        "归": 3692,
        "▁interpret": 13381,
        "▁Karaw": 25191,
        "▁O": 5738,
        "勇": 2812,
        "輸": 2490,
        "▁membatasi": 22595,
        "▁Clem": 25281,
        "criptions": 25765,
        "塩": 1628,
        "▁penyus": 29987,
        "▁CO": 14645,
        "▁Reg": 8028,
        "ipher": 25060,
        "unungan": 12781,
        "-O": 20141,
        "▁Paralymp": 21896,
        "-sekolah": 31457,
        "▁obvious": 28205,
        "₃": 5256,
        "▁kerajaan": 9723,
        "atra": 16100,
        "▁Romans": 23421,
        "eled": 19380,
        "▁ditolak": 26391,
        "▁gas": 10235,
        "▁polar": 22433,
        "▁Bishop": 17013,
        "▁attr": 20600,
        "ingin": 7635,
        "ꦴ": 1491,
        "徳": 3623,
        "low": 17133,
        "▁Aguilera": 30206,
        "▁'Sullivan": 27798,
        "▁orient": 16382,
        "itter": 11316,
        "桜": 2744,
        "▁advantage": 15628,
        "▁Wiscons": 22326,
        "▁interesting": 21112,
        "饭": 4586,
        "ledge": 12501,
        "▁Mi": 13629,
        "玉": 2037,
        "𐋃": 723,
        "Ф": 1011,
        "濟": 1553,
        "俵": 5269,
        "▁saus": 27689,
        "itled": 15122,
        "▁cair": 23062,
        "▁planned": 11642,
        "throp": 19314,
        "if.": 30600,
        "▁Bened": 21882,
        "▁boy": 11339,
        "▁iOS": 26158,
        "▁claim": 8254,
        "▁minority": 24116,
        "瑟": 3150,
        "出": 1394,
        "▁2010.": 14989,
        "ologi.": 21197,
        "akai": 8901,
        "rome": 17990,
        "abut": 24130,
        "umo": 25881,
        "▁\"H": 12919,
        "护": 4378,
        "▁Mog": 23001,
        "▁near": 7034,
        "ourney": 13129,
        "胃": 4284,
        "▁Mob": 13869,
        "▁Pramuka": 30897,
        "▁roket": 24646,
        "џ": 3132,
        "▁withdrawal": 23377,
        "者": 2333,
        "▁love": 10589,
        "part": 17202,
        "arged": 24049,
        "unk": 5808,
        "▁Lon": 30682,
        "rance": 13756,
        "訳": 3056,
        "▁harus": 7655,
        "ք": 3824,
        "▁mencuri": 28854,
        "▁Baden": 30872,
        "atif.": 29906,
        "े": 828,
        "▁Pohon": 31483,
        "▁Engineering": 23424,
        "▁Bangsa-B": 15379,
        "▁Soest": 17845,
        "▁terkait": 10931,
        "▁Unc": 26298,
        "α": 164,
        "▁day": 7063,
        "▁Sosial": 13983,
        "inf": 17239,
        "▁pasukannya": 25672,
        "43": 18062,
        "ᬅ": 4923,
        "▁Wakil": 10465,
        "▁barisan": 29555,
        "ohon": 10127,
        "edic": 12356,
        "▁Km": 29462,
        "酶": 1567,
        "perial": 12108,
        "▁Have": 27314,
        "▁display": 15286,
        "併": 3076,
        "ement": 6014,
        "沘": 3570,
        "ﺵ": 5388,
        "ya": 5657,
        "읗": 3691,
        "▁Indonesia.": 6857,
        "erapkan": 14585,
        "asifikasi": 17837,
        "▁fine": 18359,
        "▁Tunis": 23747,
        "▁sea": 11660,
        "asemen": 17280,
        "✓": 3999,
        "群": 2980,
        "▁bomber": 25344,
        "▁sword": 26951,
        "▁haul": 30023,
        "▁amp": 30708,
        "▁tas": 22535,
        "▁sekadar": 30011,
        "ereja": 7511,
        "▁Ort": 16266,
        "스": 2266,
        "▁dawn": 31888,
        "品": 3512,
        "号": 1932,
        "可": 3847,
        "ched": 9064,
        "▁satu-satunya": 12123,
        "olusi": 9984,
        "弼": 4784,
        "▁perg": 8562,
        "ature": 7765,
        "▁berkumpul": 22238,
        "🍆": 3210,
        "佑": 4999,
        "▁Tetapi": 18545,
        "险": 3684,
        "▁quadr": 24950,
        "▁generals": 27523,
        "▁duet": 26308,
        "聪": 5419,
        "▁famous": 15221,
        "▁Sehingga": 22078,
        "▁Reception": 14859,
        "▁Stadion": 12970,
        "▁moments": 21116,
        "ilisan": 21876,
        "抜": 5272,
        "▁partai": 10865,
        "▁Wallace": 21542,
        "▁suspic": 24788,
        "▁begitu": 13824,
        "萍": 5141,
        "▁electricity": 20279,
        "▁dispatched": 27897,
        "负": 4504,
        "▁rivalry": 26370,
        "▁raised": 11903,
        "尺": 4614,
        "▁Mayer": 29658,
        "▁petition": 26666,
        "ꞵ": 3327,
        "adirkan": 29824,
        "▁Kim": 9376,
        "親": 2772,
        "▁udara": 9267,
        "-10": 16934,
        "▁Yank": 19588,
        "inyal": 18558,
        "▁Pasir": 27995,
        "▁Barcelona": 22962,
        "う": 2330,
        "atai": 31398,
        "彝": 2528,
        "indakan": 10803,
        "아": 669,
        "▁show": 6800,
        "inetron": 13652,
        "–6": 26554,
        "왔": 4331,
        "▁Chief": 12434,
        "▁sound": 8292,
        "薄": 3928,
        "▁villages": 19541,
        "▁Ez": 29491,
        "▁Zeus": 29360,
        "impan": 13349,
        "iji": 18043,
        "idd": 7732,
        "▁kebenaran": 22235,
        "▁Desember": 7940,
        "▁Orient": 30780,
        "扁": 2243,
        "anting": 27861,
        "▁jung": 30949,
        "绍": 3215,
        "ika,": 11259,
        "▁Winc": 29094,
        "▁pengh": 9828,
        "▁veh": 10582,
        "▁hundreds": 19163,
        "▁opened": 9544,
        "mans": 27610,
        "▁melarang": 20803,
        "▁Ob": 8931,
        "▁bendera": 17437,
        "▁Aless": 30428,
        "▁seiring": 19699,
        "▁Pedra": 29988,
        "料": 3812,
        "▁campaign": 9216,
        "avi": 19101,
        "▁approaches": 25433,
        "▁officially": 14058,
        "▁1982": 12111,
        "▁install": 18075,
        "▁akhir": 6856,
        "ov": 5822,
        "▁County": 7387,
        "▁Kekrist": 22984,
        "athetic": 31112,
        "ently": 7228,
        "▁carried": 11111,
        "▁Dudley": 31035,
        "▁gold": 10653,
        "▁School": 8269,
        "▁Sh": 6122,
        "ida": 7753,
        "▁Tel": 7877,
        "et.": 14544,
        "abrak": 30253,
        "ぞ": 4914,
        "arch": 8965,
        "▁funeral": 21656,
        "▁condom": 22359,
        "uai": 17763,
        "upun": 7371,
        "▁Herbert": 21043,
        "▁ashore": 25686,
        "▁Beginning": 23109,
        "▁pursuit": 25695,
        "큰": 4796,
        "ub": 5765,
        "▁Serd": 28764,
        "urnal": 13768,
        "▁Cay": 30450,
        "apel": 31423,
        "龜": 3501,
        "▁resolved": 27021,
        "eck": 8570,
        "▁Resimen": 26190,
        "▁published": 8328,
        "kan": 5680,
        "ᮞ": 4218,
        "emukan": 7232,
        "▁musim": 7484,
        "▁fatal": 17778,
        "▁BTR": 18953,
        "鶏": 5284,
        "ubl": 6090,
        "▁question": 12204,
        "illa": 9487,
        "▁Sun": 9004,
        "▁survivors": 20912,
        "entasi": 26025,
        "▁ujian": 27262,
        "▁SP": 16540,
        "▁Moch": 30761,
        "▁tasks": 29516,
        "▁ow": 17412,
        "DI": 15429,
        "▁threw": 21205,
        "m,": 27699,
        "ὰ": 1951,
        "▁gather": 15949,
        "إ": 469,
        "▁al-": 30411,
        "▁kom": 6888,
        "▁diterapkan": 20849,
        "▁tewas": 15029,
        "▁Austr": 6619,
        "▁Auto": 24578,
        "▁Daud": 21310,
        "▁mengusulkan": 22424,
        "adr\"": 11182,
        "omar": 23759,
        "▁hatch": 29044,
        "▁Kongres": 15909,
        "ingga,": 31318,
        "ĝ": 5449,
        "續": 5300,
        "background": 14244,
        "▁multiplayer": 28036,
        "edikasikan": 26904,
        "stand": 26575,
        "▁execution": 22182,
        "▁Hend": 14040,
        "▁ketat": 28384,
        "公": 298,
        "▁Lit": 18055,
        "▁enh": 20546,
        "哀": 4348,
        "▁medan": 17769,
        "▁Down": 13391,
        "▁Giant": 24588,
        "▁drug": 14082,
        "▁killing": 14948,
        "▁Nansen": 18222,
        "amba": 23076,
        "▁organisms": 25866,
        "▁sakit.": 28922,
        "ུ": 1853,
        "▁frag": 15188,
        "▁valu": 14408,
        "▁issues": 12246,
        "▁Kok": 22454,
        "ေ": 2185,
        "▁an": 5783,
        "▁Istan": 23799,
        "▁Infr": 31641,
        "▁Perlindungan": 31981,
        "son,": 15569,
        "▁tulisan": 14535,
        "▁berpindah": 17756,
        "▁stret": 27727,
        "▁Atlantic": 10819,
        "▁Kodim": 30283,
        "▁Berdasarkan": 12884,
        "▁ang": 9860,
        "ۤ": 2708,
        "▁class=\"": 6979,
        "iden": 7126,
        "▁melihat": 9868,
        "ents": 6358,
        "▁bersamaan": 17265,
        "▁revival": 27648,
        "▁Because": 13191,
        "寛": 5313,
        "▁protect": 16345,
        "▁berlanjut": 18176,
        "itiga": 21136,
        "ember": 5873,
        "▁serial": 9925,
        "▁sering": 7909,
        "▁Norse": 26423,
        "▁Nama": 7596,
        "豢": 4737,
        "ậ": 1139,
        "▁supply": 14549,
        "▁Man": 6703,
        "▁pass": 7023,
        "▁petani": 17790,
        "▁non-": 23427,
        "▁employment": 25207,
        "▁cattle": 27082,
        "▁potensial": 25473,
        "hears": 26787,
        "▁proposed": 11123,
        "▁photograph": 17189,
        "position": 26920,
        ":1": 20021,
        "▁bound": 13717,
        "▁rowspan=\"": 22756,
        "r.": 9557,
        "▁blind": 26482,
        "yo": 9580,
        "ected": 6492,
        "▁Mr.": 12598,
        "▁services": 11971,
        "៊": 5086,
        "ani": 7090,
        "▁PSSI": 26194,
        "▁serat": 30765,
        "ƒ": 755,
        "owo": 26741,
        "oros": 31775,
        "ong": 5787,
        "暗": 1252,
        "▁Cerambyc": 7588,
        "▁peristiwa": 11563,
        "▁female": 10587,
        "▁cut": 9465,
        "▁attrib": 14043,
        "ϝ": 4937,
        "▁C.": 9649,
        "▁inning": 27460,
        "ذ": 1605,
        "▁Riau": 20814,
        "▁Vancouver": 20008,
        "▁apartment": 23753,
        "▁ter": 5727,
        "▁3:": 17773,
        "▁musuh": 15983,
        "▁opined": 27456,
        "▁organik": 23142,
        "▁intens": 10666,
        "uskan": 8415,
        "ጃ": 897,
        "庙": 4762,
        "难": 5453,
        "▁Anim": 15737,
        "ute": 6724,
        "轮": 2776,
        "inta": 7844,
        "▁basal": 30031,
        "▁won": 7742,
        "▁Pel": 8163,
        "▁Ono": 29608,
        "▁Rhy": 30747,
        "▁widespread": 16765,
        "▁Athena": 22801,
        "▁Simpsons": 15537,
        "▁Hul": 27030,
        "▁147": 31203,
        "▁spe": 13156,
        "imately": 9152,
        "▁Poland": 9244,
        "…": 585,
        "▁rivals": 28357,
        "ajur": 14029,
        "▁Trin": 21488,
        "▁persyaratan": 25003,
        "▁bacaan": 31541,
        "▁Ancient": 21219,
        "enian": 15135,
        "▁Language": 23397,
        "담": 4948,
        "प": 1834,
        "殷": 5544,
        "▁Domin": 13867,
        "▁Afghan": 16601,
        "▁Misi": 25487,
        "в": 71,
        "▁mengebor": 9193,
        "▁prof": 7347,
        "GN": 15702,
        "▁Resp": 26340,
        "eper": 30952,
        "▁drugs": 22769,
        "▁Afr": 7528,
        "▁tan": 6848,
        "▁Oh": 11501,
        "▁Ans": 28792,
        "▁inform": 7774,
        "elompok": 13016,
        "agamaan": 19245,
        "▁Register": 24635,
        "点": 619,
        "aban": 23301,
        "ari,": 11753,
        "文": 858,
        "–20": 14962,
        "邱": 3087,
        "愕": 3425,
        "ɢ": 4005,
        "姉": 3261,
        "▁irregular": 28154,
        "imba": 24779,
        "here": 12842,
        "idency": 25837,
        "▁align=\"center\"": 31089,
        "▁ownership": 21830,
        "▁Variety": 31399,
        "▁throwing": 27382,
        "▁peranan": 28574,
        "▁Around": 16928,
        "կ": 796,
        "Ar": 12125,
        "▁occupation": 19816,
        "zep": 25754,
        "▁Filip": 10500,
        "ujuk": 11634,
        "▁banjir": 28434,
        "▁encounter": 25081,
        "椿": 5394,
        "ebaskan": 16740,
        "": 4266,
        "▁warnings": 26368,
        "ond": 5926,
        "▁Tiga": 14738,
        "▁danger": 15471,
        "▁baja": 17081,
        "▁(1987)": 27914,
        "▁Darul": 31805,
        "lete": 18350,
        "umat": 18324,
        "▁sarang": 31321,
        "▁females": 16870,
        "▁Bridge": 12813,
        "▁Thompson": 19197,
        "anyi,": 21749,
        "▁Bumi,": 31266,
        "▁Ar": 5914,
        "▁sesu": 8065,
        "ieth": 23141,
        "immer": 31596,
        "▁Barr": 17188,
        "発": 596,
        "厦": 1184,
        "▁settled": 17677,
        "▁Lain": 23842,
        "▁Tanpa": 24568,
        "ꤼ": 2753,
        "▁diakses": 24567,
        "▁Ryan": 14763,
        "절": 5391,
        "▁Filipina,": 27957,
        "▁berniat": 27900,
        "▁descr": 7052,
        "▁Adipati": 14769,
        "ෂ": 3436,
        "alat": 7014,
        "kanan": 13258,
        "▁Show": 10960,
        "▁arc": 15826,
        "▁batuan": 24600,
        "roke": 22153,
        "▁perkataan": 29685,
        "▁Mediter": 14566,
        "邊": 1293,
        "▁corp": 27187,
        "▁8,": 22351,
        "▁Ip": 29957,
        "▁foc": 10020,
        "三": 1050,
        "▁battle": 9139,
        "洁": 2975,
        "▁bon": 14069,
        "▁Fow": 24318,
        "ingati": 24401,
        "則": 835,
        "oles": 17742,
        "▁desired": 29453,
        "▁diperankan": 26170,
        "ways": 8870,
        "▁Dend": 17565,
        "赛": 4244,
        "▁fisik": 13429,
        "rus": 13475,
        "▁wabah": 28189,
        "▁victim": 23454,
        "▁oblig": 21407,
        "▁benar": 13238,
        "▁generate": 31791,
        "▁Nas": 14747,
        "粤": 4081,
        "▁jaringan": 10373,
        "▁Keberadaan": 30497,
        "▁Florence": 26590,
        "ာ": 2602,
        "amework": 30569,
        "▁lists": 21309,
        "▁dan/atau": 26806,
        "ekerjakan": 25074,
        "▁Orch": 20984,
        "泽": 2524,
        "iab": 23375,
        "▁Hadiah": 25957,
        "專": 3535,
        "▁Nam": 7208,
        "▁ulang": 11447,
        "▁bre": 7688,
        "▁Harper": 17940,
        "▁Mister": 23372,
        "▁Lily": 29243,
        "▁separately": 30164,
        "报": 4734,
        "igh": 5826,
        "▁southeast": 17217,
        "leman": 26558,
        "ancur": 21617,
        "▁purchased": 15877,
        "andung": 10314,
        "▁farm": 11848,
        "▁cited": 16180,
        "▁awal": 6908,
        "▁aggreg": 23613,
        "present": 29167,
        "ላ": 2485,
        "▁begins": 12769,
        "▁cup": 19966,
        "▁keseluruhan": 14775,
        "ɓ": 2671,
        "▁oriented": 27025,
        "posisi": 24317,
        "熙": 3080,
        "▁telepon": 19836,
        "▁Os": 9411,
        "▁opposed": 14501,
        "▁sm": 6994,
        "atre": 12010,
        "▁Bethlehem": 31751,
        "iant": 10956,
        "捶": 3606,
        "▁Kath": 19315,
        "▁capturing": 27366,
        "▁easy": 19767,
        "▁multi": 17246,
        "▁varian": 20967,
        "▁termuda": 30093,
        "▁collaborated": 27280,
        "▁colspan=\"": 20242,
        "–198": 27693,
        "▁2009": 6700,
        "▁well": 6807,
        "▁baby": 20786,
        "X": 98,
        "kes": 17135,
        "akarta,": 30948,
        "▁100": 7284,
        "▁Kai": 14868,
        "atasi": 13750,
        "▁publik.": 31323,
        "ayu": 6598,
        "▁ITIS": 9268,
        "▁sapi": 17191,
        "四": 146,
        "导": 2886,
        "▁Lembah": 24539,
        "erm": 7556,
        "▁Illinois": 15943,
        "▁skull": 21997,
        "eport": 24543,
        "▁Taiwan,": 31031,
        "ꦿ": 3813,
        "▁undertook": 28933,
        "ド": 750,
        "プ": 1671,
        "ダ": 2637,
        "ἔ": 3839,
        "▁bert": 6529,
        "▁kal": 7827,
        "▁anggaran": 22942,
        "▁closing": 21654,
        "▁conflicts": 26346,
        "▁Kerajaan": 9103,
        "▁GameC": 29977,
        "▁Polit": 9506,
        "▁Ti": 19089,
        "▁Arkansas": 29079,
        "▁rece": 6953,
        "adaban": 22739,
        "▁implic": 25828,
        "һ": 2473,
        "▁lifetime": 26860,
        "▁Margaret": 17776,
        "▁sharks": 27415,
        "▁belakang": 9874,
        "ӥ": 4372,
        "andidat": 20261,
        "entr": 12315,
        "▁threatening": 26344,
        "▁BP": 25778,
        "▁menghilangkan": 21877,
        "▁ditetapkan": 13279,
        "▁Performan": 17751,
        "廣": 2028,
        "▁trials": 19556,
        "▁commun": 8307,
        "ג": 1093,
        "▁tanah": 8661,
        "▁oposisi": 26286,
        "▁birok": 31412,
        "든": 3843,
        "-ke": 31956,
        "▁pak": 13240,
        "ecut": 9046,
        "▁fr": 6993,
        "▁waiting": 23473,
        "▁(P": 7487,
        "▁istimewa": 27024,
        "ב": 687,
        "▁Private": 25732,
        "ighed": 30361,
        "▁Bukan": 25965,
        "onen": 13597,
        "m": 19,
        "▁Baltic": 31489,
        "▁serving": 14317,
        "▁1952": 14789,
        "▁Op": 8861,
        "巢": 2985,
        "▁2022.": 18103,
        "-ind": 21365,
        "ʌ": 3178,
        "▁rumahnya": 27112,
        "▁Advanced": 30000,
        "▁S": 5608,
        "tri": 9390,
        "▁supp": 11295,
        ":": 54,
        "35": 12346,
        "▁Franklin": 19337,
        "ujukan": 15219,
        "eph": 7445,
        "▁warga": 9756,
        "▁clear": 10821,
        "▁initiative": 26605,
        "聖": 423,
        "ਾ": 1808,
        "ical": 5927,
        "▁payment": 29121,
        "脱": 4301,
        "▁Kendaraan": 28455,
        "앤": 5345,
        "▁diranc": 14522,
        "▁independence": 17912,
        "▁diubah": 14255,
        "▁Malam": 21060,
        "▁Perak": 30249,
        "▁(2012": 30932,
        "▁Tank": 21158,
        "▁measur": 24438,
        "▁origins": 22718,
        "姿": 3886,
        "▁covered": 12658,
        "inal": 6071,
        "▁allowed": 9801,
        "olis": 10789,
        "▁kul": 14654,
        "▁Swedish": 19406,
        "▁Tokoh": 7653,
        "RL": 21229,
        "▁which": 5912,
        "蜡": 1912,
        "▁Status": 26087,
        "К": 324,
        "▁mengangkut": 27086,
        "▁unpopular": 31648,
        "齊": 3049,
        "▁Vent": 23462,
        "▁Be": 7341,
        "▁kajian": 26348,
        "▁Rolling": 15960,
        "▁diagnosis": 29624,
        "▁Confeder": 18312,
        "▁Jack": 8035,
        "Ḫ": 2640,
        "▁Tay": 11444,
        "▁countries": 11858,
        "▁saja": 10892,
        "▁senang": 25271,
        "▁memiliki": 6139,
        "羽": 3283,
        "elligence": 14097,
        "▁paran": 30424,
        "▁photographs": 22198,
        "𐌶": 128,
        "ሁ": 4056,
        "▁Corn": 12999,
        "▁tall": 16356,
        "▁ent": 6675,
        "▁ny": 11521,
        "▁describes": 14916,
        "▁1930s": 17359,
        "▁Fif": 20578,
        "▁eating": 24179,
        "ammed": 30665,
        "▁menempati": 14845,
        "▁Career": 23907,
        "▁TNI-A": 28831,
        "indahan": 17026,
        "▁informal": 31007,
        "agara": 25280,
        "▁student": 13927,
        "crete": 17925,
        "昺": 5407,
        "▁rend": 9020,
        "宫": 860,
        "ado,": 31859,
        "ool": 6418,
        "▁insurance": 28288,
        "▁Majelis": 15547,
        "▁pangeran": 21839,
        "ency": 8376,
        "▁Episode": 15642,
        "▁Uruguay": 30078,
        "▁maps": 24076,
        "▁gross": 16529,
        "adi": 5836,
        "̩": 4840,
        "▁desert": 16648,
        "▁Teater": 23300,
        "iks": 16176,
        "性": 1568,
        "涛": 2011,
        "Ŏ": 2359,
        "▁Both": 11678,
        "ivals": 17959,
        "▁heavy": 9558,
        "▁Then": 19809,
        "▁drivers": 24089,
        "▁Rute": 25180,
        "材": 4240,
        "hawatiran": 31846,
        "▁accessible": 28126,
        "娼": 2641,
        "▁imperial": 19886,
        "▁magn": 9066,
        "opp": 20098,
        "▁modern,": 24235,
        "theria": 24643,
        "▁Exc": 19993,
        "▁Baptist": 26692,
        "▁Tipula": 31073,
        "▁Thomas": 8936,
        "姑": 3581,
        "▁Blood": 16666,
        "iflor": 30743,
        "试": 3506,
        "▁Nil": 29830,
        "▁penghargaan": 10159,
        "mm": 23848,
        "𐤑": 133,
        "80": 9421,
        "還": 4120,
        "ject": 6910,
        "▁parliamentary": 26287,
        "▁Upacara": 23140,
        "ಜ": 3457,
        "▁jahat": 26766,
        "▁2000": 6601,
        "▁more": 6305,
        "æ": 121,
        "属": 2248,
        "▁controls": 22780,
        "𐊦": 5130,
        "毡": 2463,
        "iringi": 28445,
        "union": 28463,
        "ﻯ": 5039,
        "卢": 3721,
        "ne": 7020,
        "▁forced": 10355,
        "ਓ": 5474,
        "▁dilahir": 18035,
        "▁rider": 25850,
        "▁administrasi": 16835,
        "▁Inform": 11043,
        "▁0.0": 23992,
        "▁tum": 23126,
        "iders": 21204,
        "鸟": 4833,
        "▁Mus": 6382,
        "ֶ": 472,
        "▁kec": 6331,
        "▁buy": 18600,
        "▁ten": 7790,
        "▁ke-20.": 31190,
        "ereta": 30987,
        "▁Kes": 8113,
        "紋": 4214,
        "일": 2691,
        "▁laboratorium": 26199,
        "▁Territ": 19657,
        "▁\"I": 12710,
        "▁corners": 31627,
        "▁i.": 24272,
        "▁Est": 12642,
        "hy": 6620,
        "ฐ": 1251,
        "▁properties": 18332,
        "¶": 5023,
        "廢": 4282,
        "▁12": 6373,
        "of": 7426,
        "▁extended": 11717,
        "amaan": 10580,
        "▁sedikit": 9842,
        "▁police": 11028,
        "enson": 16754,
        "antry": 10340,
        "▁Henry": 9035,
        "akili": 11919,
        "▁replace": 17218,
        "okoh": 17395,
        "ulating": 21041,
        "▁efficient": 28734,
        "ꚃ": 1656,
        "TM": 28923,
        "▁UC": 23125,
        "▁kicked": 30476,
        "▁139": 28070,
        "▁Gilbert": 13910,
        "▁bios": 21625,
        "aka.": 24230,
        "就": 2580,
        "▁October": 7414,
        "ansson": 28054,
        "▁pub": 28850,
        "▁John": 6500,
        "▁keen": 15899,
        "▁didirikan": 8445,
        "▁magnetic": 25663,
        "▁Fried": 14105,
        "▁Africa": 11361,
        "Ἔ": 2815,
        "▁provide": 11315,
        "▁lawan": 19260,
        "▁struggle": 21035,
        "构": 4340,
        "▁aset": 15937,
        "慰": 5432,
        "▁sessions": 19013,
        "농": 5347,
        "▁moon": 26074,
        "ˑ": 2431,
        "▁meter": 11015,
        "▁Danger": 29699,
        "▁mengatasi": 23833,
        "▁Chrono": 26252,
        "晃": 3143,
        "▁perkebunan": 18905,
        "▁Town": 10494,
        "hys": 9031,
        "pun": 27955,
        "oured": 14765,
        "ອ": 2387,
        "ি": 1710,
        "▁Quarter": 24851,
        "▁Capcom": 25783,
        "asions": 18981,
        "▁coup": 11253,
        "Ṭ": 4028,
        "ul.": 26031,
        "▁timur.": 28217,
        "▁victory": 10049,
        "▁bid": 16420,
        "▁subsidi": 24570,
        "▁notable": 16406,
        "ջ": 4107,
        "▁Yuc": 30301,
        "ड": 1006,
        "alnya,": 15464,
        "▁terbuk": 15491,
        "▁eksklusif": 25132,
        "▁publik": 13567,
        "빠": 2198,
        "anga": 10706,
        "▁cold": 15913,
        "▁infrastruktur": 23055,
        "▁|H": 31867,
        "▁Luftwaffe": 29561,
        "ease": 11860,
        "▁belak": 9126,
        "!!": 29758,
        "塞": 3845,
        "▁army": 9979,
        "sol": 29907,
        "▁domestik": 23601,
        "U": 75,
        "ΐ": 1460,
        "ʋ": 3187,
        "▁sentenced": 26020,
        "ಣ": 5265,
        "▁IV": 10634,
        "▁mengakhiri": 16711,
        "▁melanjutkan": 12005,
        "ati": 6300,
        "▁agama,": 26732,
        "▁atop": 28661,
        "aku,": 31766,
        "argeon": 9303,
        "隼": 4838,
        "▁Claud": 21478,
        "▁visits": 24589,
        "њ": 1475,
        "腹": 4907,
        "▁Jerman,": 15012,
        "mel": 16334,
        "▁sektor": 15857,
        "opular": 30264,
        "▁programs": 15922,
        "endum": 23850,
        "▁kapan": 27347,
        "●": 5199,
        "▁Anc": 17370,
        "▁kant": 27454,
        "▁hits": 15605,
        "치": 4012,
        "▁seles": 12223,
        "▁Sky": 14746,
        "▁ech": 22676,
        "▁complet": 7383,
        "▁ball": 9059,
        "aliz": 10053,
        "umba": 27118,
        "▁pengukuran": 27204,
        "▁Astro": 29998,
        "-TV": 30065,
        "us)": 22726,
        "ikiran": 13453,
        "▁1949": 14558,
        "ourt": 29524,
        "andra": 24764,
        "iddle": 9792,
        "▁Lisa": 14760,
        "्": 832,
        "ensi": 7396,
        "独": 3977,
        "▁mere": 22066,
        "▁Relations": 22838,
        "↔": 4455,
        "▁lap": 8171,
        "▁Jefferson": 24526,
        "▁Brisban": 26100,
        "▁mention": 12328,
        "▁Tintin": 19007,
        "▁Agreement": 29334,
        "amics": 27513,
        "yd": 23854,
        "▁Fr": 8124,
        "▁hitam.": 27751,
        "鉄": 3118,
        "▁battery": 17537,
        "갓": 4582,
        "𐋈": 5308,
        "▁titled": 13476,
        "alanan": 23618,
        "▁roads": 14831,
        "▁dating": 19081,
        "▁Inc": 11759,
        "▁Sri": 11283,
        "ব": 1530,
        "▁jet": 18632,
        "▁coming": 13825,
        "儺": 2900,
        "▁Pegunungan": 18636,
        "페": 3736,
        "▁Argent": 11893,
        "▁ketika": 7171,
        "▁Tang": 16798,
        "壳": 2438,
        "▁Suriah": 18407,
        "▁Masih": 30875,
        "▁behavi": 19382,
        "▁ragam": 24818,
        "tren": 15575,
        "▁sunk": 20104,
        "rans": 6475,
        "锐": 5068,
        "ᮔ": 4875,
        "▁voice": 11689,
        "79": 12939,
        "▁lagi,": 20726,
        "▁Ana": 27119,
        "ۆ": 5281,
        "alan": 6313,
        "▁Lak": 27033,
        "대": 465,
        "▁factor": 20681,
        "▁Pirates": 24100,
        "▁oz": 23940,
        "▁racial": 26385,
        "▁Ben": 8475,
        "▁tekanan": 14595,
        "▁DE": 15620,
        "耍": 4422,
        "▁SE": 15119,
        "ifically": 16421,
        "▁preserved": 20479,
        "51": 25572,
        "▁broken": 15618,
        "▁regulations": 27407,
        "▁Gospel": 28515,
        "chw": 21605,
        "▁ej": 29448,
        "een": 11204,
        "▁Orlando": 29650,
        "rical": 28973,
        "섯": 5185,
        "▁Flower": 28059,
        "▁akadem": 15719,
        "agues": 16923,
        "▁MacAr": 15660,
        "▁drawn": 15831,
        "▁range": 9436,
        "▁66": 12901,
        "▁tet": 14149,
        "alk": 7722,
        "▁crash": 17870,
        "▁siapa": 18283,
        "▁Johann": 15895,
        "▁stored": 30841,
        "劍": 4909,
        "▁komun": 8983,
        "▁houses": 12674,
        "▁Celt": 21694,
        "▁tells": 14574,
        "▁orchestra": 24244,
        "л": 369,
        "仓": 1450,
        "airan": 12060,
        "▁pabrik": 14964,
        "ย": 2465,
        "▁dinam": 11267,
        "▁Le": 6359,
        "▁Libya": 29857,
        "▁encour": 13763,
        "▁Sr": 16806,
        "▁Many": 10974,
        "ܸ": 3293,
        "ang": 5601,
        "▁behalf": 22376,
        "▁makin": 24556,
        "扉": 3974,
        "粍": 4448,
        "▁Wak": 19808,
        "she": 18277,
        "▁Biara": 30026,
        "▁?": 10529,
        "▁playoff": 15976,
        "'A": 21410,
        "▁Garis": 25202,
        "욱": 3477,
        "ድ": 4057,
        "▁establish": 11279,
        "ை": 3015,
        "erjemahkan": 16817,
        "▁contacted": 26911,
        "▁1891": 22324,
        "▁arus": 16721,
        "▁β": 23975,
        "稚": 3426,
        "imbab": 23949,
        "▁afternoon": 20505,
        "▁replied": 24550,
        "แ": 3785,
        "▁Gold": 8857,
        "rael": 8695,
        "▁riding": 22751,
        "▁ketig": 15478,
        "▁).": 23868,
        "etak": 9352,
        "▁victims": 17743,
        "▁Rep": 6923,
        "inned": 29375,
        "ville,": 26002,
        "ln": 29944,
        "UN": 23139,
        "▁Hew": 19230,
        "▁dan": 5658,
        "▁Y": 5831,
        "▁Iskandar": 31661,
        "▁Phill": 14523,
        "▁title": 8847,
        "▁Spiel": 29317,
        "▁pool": 19371,
        "▁historis": 26012,
        "▁murni": 23296,
        "alaya": 19099,
        "▁dimaksudkan": 20127,
        "衫": 5440,
        "irahat": 28977,
        "▁Tanggal": 16388,
        "▁telev": 6997,
        "untuk": 19668,
        "▁diperbolehkan": 28220,
        "▁Deputi": 30916,
        "▁Kaw": 16788,
        "▁dep": 6489,
        "▁constitu": 27567,
        "▁Suci": 14488,
        "uction": 24708,
        "▁navigation": 28506,
        "izer": 29308,
        "iful": 14843,
        "裝": 460,
        "式": 1301,
        "ederhan": 31071,
        "▁kilometer": 14146,
        "▁favour": 13413,
        "stad": 21076,
        "▁rapat": 22063,
        "ounded": 12729,
        "▁selanjutnya": 13767,
        "▁konsep": 12309,
        "픈": 2969,
        "▁reluct": 23008,
        "lav": 24348,
        "gu": 14982,
        "▁god": 13319,
        "▁Azerbai": 15577,
        "▁Neil": 21836,
        "▁selatan": 8858,
        "ounced": 21097,
        "IN": 8537,
        "▁anim": 8946,
        "週": 4235,
        "▁better": 10728,
        "▁Bowl": 14611,
        "▁dibunuh": 15940,
        "▁kecil,": 15988,
        "▁random": 27258,
        "▁diwakili": 31222,
        "▁pembalap": 13600,
        "▁sebut": 29709,
        "▁tend": 15002,
        "▁recordings": 20938,
        "▁Marco": 31933,
        "▁armored": 22887,
        "▁EC": 23051,
        "faat": 17982,
        "▁Franç": 21330,
        "▁kepribadian": 25046,
        "▁militants": 30437,
        "▁res": 5947,
        "镜": 4418,
        "▁mengusir": 26309,
        "ir.": 13533,
        "▁Kuwa": 25506,
        "▁frontier": 30289,
        "▁kon": 7425,
        "▁Beb": 20229,
        "黨": 3644,
        "▁mempunyai": 8765,
        "▁9th": 19698,
        "ஈ": 4143,
        "▁cooper": 29132,
        "▁memec": 19316,
        "▁mengembalikan": 22609,
        "▁installed": 17997,
        "▁cincin": 25237,
        "▁Mine": 28223,
        "▁Hast": 23417,
        "engarkan": 25255,
        "箭": 3091,
        "ῇ": 1523,
        "從": 2121,
        "장": 1607,
        "per": 5884,
        "▁where": 6605,
        "券": 4656,
        "▷": 5230,
        "enes": 9388,
        "δ": 345,
        "erry": 11260,
        "▁Ash": 12196,
        "▁continue": 12512,
        "▁party": 10188,
        "enti": 13042,
        "▁Wanita": 14631,
        "cis,": 14532,
        "▁Hamburg": 24909,
        "‰": 2867,
        "umpamaan": 29418,
        "eber": 26071,
        "▁Raya": 8606,
        "▁type": 11263,
        "▁kargo": 30285,
        "▁Shir": 19183,
        "带": 5037,
        "re": 5717,
        "▁bet": 6297,
        "▁Pembentukan": 11740,
        "▁memanfaatkan": 17648,
        "▁Drum": 23878,
        "akiman": 26878,
        "▁distinctive": 21639,
        "ieties": 30893,
        "▁kepala": 9151,
        "ቤ": 3266,
        "tron": 11100,
        "▁Pir": 15571,
        "▁kamera": 22670,
        "▁manusia": 8722,
        "edur": 23256,
        "ั": 2547,
        "sych": 10870,
        "▁taj": 21303,
        "瞬": 2818,
        "▁good": 8620,
        "句": 618,
        "▁Ses": 14467,
        "▁Oak": 17603,
        "▁kabel": 21972,
        "▁Allah": 8970,
        "▁pernikahan": 13399,
        "▁IP": 14655,
        "亜": 1168,
        "▁berhenti": 15687,
        "ilo": 22553,
        "▁matches": 12400,
        "▁calculated": 27480,
        "owongan": 29332,
        "▁director": 10413,
        "▁appearances": 14415,
        "▁spesimen": 31670,
        "imal": 6762,
        "▁berkontribusi": 24865,
        "▁hantu": 25788,
        "▁Pack": 24316,
        "▁3166": 24026,
        "▁found": 6778,
        "▁mencerminkan": 28153,
        "▁Cover": 30888,
        "embangkan": 9217,
        "▁terkenal.": 29952,
        "ί": 167,
        "▁Canada": 9715,
        "▁fiksi": 15931,
        "▁M.S": 23864,
        "暑": 3780,
        "▁hot": 10811,
        "▁sekaligus": 12106,
        "▁tid": 15207,
        "▁dias": 24926,
        "▁lang": 9023,
        "▁adult": 12866,
        "▁Kemudian": 10288,
        "▁(termasuk": 21667,
        "inese": 10110,
        "▁rare": 15227,
        "ean": 8276,
        "▁quarter": 10916,
        "isasi,": 28103,
        "関": 2947,
        "▁repairs": 22968,
        "urga": 24459,
        "ilder": 24447,
        "▁Conrad": 29042,
        "▁al-A": 25123,
        "▁means": 12479,
        "▁Perdana": 11234,
        "▁Quest": 20637,
        "▁Asal": 26310,
        "▁injuries": 18220,
        "▁heads": 17261,
        "▁investig": 11079,
        "▁marriage": 13162,
        "▁negara.": 16697,
        "▁engines": 17065,
        "▁bott": 14728,
        "eon": 24321,
        "姻": 4816,
        "omed": 22738,
        "—20": 22697,
        "▁Falls": 24361,
        "▁mengapa": 28156,
        "and,": 28192,
        "▁pembelian": 28947,
        "▁metropolitan": 22115,
        "▁setinggi": 26907,
        "▁Arm": 10098,
        "imbol": 14207,
        "orror": 17553,
        "▁Burton": 18606,
        "▁lot": 13083,
        "▁exhib": 13320,
        "▁misionaris": 24138,
        "▁understand": 19630,
        "而": 3678,
        "▁evolutionary": 29344,
        "▁hurricane": 9883,
        "ata": 6028,
        "▁strateg": 10512,
        "▁NO": 31694,
        "▁Mond": 19120,
        "▁lainnya.": 9429,
        "onsel": 25088,
        "▁aktivis": 21144,
        "▁swim": 17389,
        "▁performed": 9316,
        "▁menjamin": 29865,
        "▁loop": 21237,
        "▁theater": 21875,
        "▁biologi": 30501,
        "iel": 6440,
        "׳": 2866,
        "iansi": 21545,
        "▁recruit": 22709,
        "-0": 10405,
        "▁bis": 9583,
        "▁serangga": 15466,
        "鶴": 3866,
        "ekomunikasi": 27598,
        "▁musician": 23018,
        "▁Tunggal": 28631,
        "▁announced": 9219,
        "ted": 6381,
        "▁sp": 5837,
        "tt": 7880,
        "▁terakhir": 8256,
        "▁Wimbledon": 28634,
        "采": 982,
        "氏": 1325,
        "ﻇ": 4537,
        "▁11": 6486,
        "▁Bambang": 23699,
        "ipt": 7420,
        "▁imm": 11999,
        "▁Merah": 14908,
        "oin": 7006,
        "▁presidential": 19408,
        "ജ": 2082,
        "▁gelap": 19782,
        "憎": 5366,
        "▁bent": 25083,
        "airn": 30784,
        "arno": 19317,
        "▁Tipulidae.": 22750,
        "▁DVD": 10864,
        "ikat": 6424,
        "樂": 2278,
        "igen": 10964,
        "▁khususnya": 13204,
        "zh": 11725,
        "ink": 7094,
        "▁occurred": 11849,
        "▁(25": 30510,
        "▁Julie": 27866,
        "o": 18,
        "▁ferment": 31927,
        "▁Batista": 31719,
        "▁arrival": 15126,
        "▁Hist": 30471,
        "▁Fitz": 23826,
        "▁sequences": 20579,
        "istiwa": 9754,
        "aminan": 25154,
        "ru)": 18850,
        "▁Kudus": 21431,
        "▁pencaharian": 28763,
        "▁appropri": 20003,
        "▁predomin": 21689,
        "▁62": 15132,
        "冷": 2723,
        "usi": 7448,
        "oll": 6008,
        "▁actress": 15746,
        "▁changing": 20862,
        "▁Mons": 30935,
        "▁paper": 14752,
        "▁castles": 21148,
        "/t": 25638,
        "▁kalau": 19583,
        "▁84": 16760,
        "▁Full": 18869,
        "▁Chicago": 10702,
        "▁dialog": 25408,
        "▁consist": 12030,
        "ferensi": 13781,
        "▁settlers": 20402,
        "▁might": 10823,
        "urnalis": 23614,
        "▁Commercial": 27346,
        "圧": 3682,
        "ishop": 12032,
        "auss": 30553,
        "kini": 20867,
        "ola,": 24521,
        "brook": 28252,
        "税": 1924,
        "▁Dian": 15228,
        "▁weekend": 22616,
        "▁programming": 22366,
        "署": 1167,
        "mons": 26484,
        "zar": 30326,
        "à": 273,
        "每": 2789,
        "▁meneg": 17180,
        "▁galaksi": 27352,
        "▁artistic": 22123,
        "Δ": 1070,
        "▁ke-10": 21334,
        "igma": 29351,
        "▁mati,": 31832,
        "▁p": 5591,
        "▁(Un": 28674,
        "que": 7855,
        "▁prototype": 27916,
        "▁260": 30025,
        "▁finale": 22082,
        "▁studies": 13560,
        "ait": 6270,
        "▁kepercayaan": 15771,
        "己": 1395,
        "▁Perk": 12095,
        "auan": 14240,
        "-y": 19584,
        "▁patung": 20201,
        "▁Cult": 13109,
        "▁sejumlah": 9252,
        "▁angin": 16396,
        "▁Lakes": 25826,
        "otic": 14486,
        "▁Bros": 18527,
        "▁sekolah.": 24958,
        "rand": 30261,
        "溝": 1908,
        "▁Karya": 12245,
        "▁charge": 13358,
        "庄": 3004,
        "▁Barat": 8131,
        "虜": 4989,
        "▁keluarg": 12171,
        "▁Demospongia": 12726,
        "iber": 12858,
        "▁had": 5891,
        "▁memen": 8099,
        "▁dread": 26461,
        "ډ": 5413,
        "aksan": 9353,
        "▁Kras": 30014,
        "界": 1471,
        "▁common": 8622,
        "▁ruang": 10063,
        "ron": 6680,
        "▁earthquake": 25113,
        "▁rings": 28864,
        "enstein": 29684,
        "卓": 4754,
        "▁berakhirnya": 30230,
        "死": 1470,
        "warn": 29464,
        "▁Central": 10876,
        "ehr": 25566,
        "agang": 12472,
        "▁Italy": 12810,
        "▁>": 25248,
        "▁shallow": 25971,
        "ysis": 12743,
        "▁menerima": 8761,
        "▁Lut": 21604,
        "▁Braz": 13542,
        "▁Sebagai": 9494,
        "akala": 27690,
        "▁coun": 7137,
        "▁perdana": 12495,
        "flik": 13202,
        "▁arguing": 24983,
        "▁waktu.": 23258,
        "研": 1068,
        "ecess": 10470,
        "▁Perjuangan": 22406,
        "▁2007": 6965,
        "▁Dyn": 16442,
        "aw": 5760,
        "ingg": 5888,
        "ou": 6234,
        "5)": 7906,
        "夷": 3130,
        "▁advent": 15005,
        "▁SMP": 11143,
        "▁SC": 16807,
        "erti": 6187,
        "▁shipments": 31533,
        "ult": 6001,
        "OH": 25374,
        "ℝ": 5027,
        "grade": 31804,
        "▁Dari": 9375,
        "▁painted": 20246,
        "▁mixed": 11654,
        "▁innoc": 25538,
        "音": 825,
        "aldo": 28693,
        "頤": 5054,
        "▁()": 6998,
        "abled": 18270,
        "500": 16422,
        "ľ": 2020,
        "▁Akademi": 13186,
        "▁speculation": 26803,
        "▁•": 26921,
        "▁lain-lain": 17587,
        "▁kota-kota": 17989,
        "▁negative": 14941,
        "erhana": 15404,
        "▁bombs": 22924,
        "▁Access": 24918,
        "osari": 25696,
        "▁procedures": 31707,
        "ikasi": 6833,
        "▁rebu": 16657,
        "呂": 3995,
        "emu": 10449,
        "▁walls": 13773,
        "/G": 28783,
        "▁imported": 31838,
        "熱": 3853,
        "30": 8302,
        "ਚ": 4940,
        "▁Brooks": 20344,
        "▁happy": 20051,
        "lai": 31004,
        "ocol": 20050,
        "▁cak": 20280,
        "▁markas": 21915,
        "코": 3737,
        "▁Terb": 8887,
        "兆": 4568,
        "▁Brett": 30733,
        "▁households": 22263,
        "▁printed": 23457,
        "▁meter,": 28760,
        "▁Berk": 11925,
        "▁dancing": 24969,
        "▁naskah": 13274,
        "͜": 5531,
        "▁Selatan,": 9970,
        "▁Gampong": 21026,
        "▁Indosi": 30075,
        "▁Solomon": 31207,
        "Ϙ": 3831,
        "▁dancers": 31265,
        "a-B": 14112,
        "▁segi": 22880,
        "▁ESP": 26528,
        "▁Komandan": 16350,
        "▁Asisten": 27202,
        "▁leader": 12194,
        "ja": 6251,
        "帯": 5038,
        "▁spesial": 19904,
        "▁Pranala": 6198,
        "▁object": 10584,
        "▁Vish": 29443,
        "v": 48,
        "▁“S": 28931,
        "▁Yunan": 8932,
        "▁sang": 6745,
        "筆": 3017,
        "▁diplom": 27714,
        "▁*": 13278,
        "▁Ganda": 26867,
        "face": 10031,
        "▁A.": 8529,
        "▁itu.": 9428,
        "स": 1542,
        "▁unit": 9037,
        "rid": 11299,
        "▁Pittsburgh": 18144,
        "▁dibesarkan": 22967,
        "▁BB": 31062,
        "ィ": 736,
        "එ": 1306,
        "▁card": 20032,
        "圓": 4911,
        "▁dihadap": 28778,
        "▁Berbeda": 27462,
        "▁dekat": 8427,
        "▁Gardner": 20789,
        "▁descend": 21206,
        "▁mendiami": 30728,
        "uduh": 20341,
        "▁Baek": 31713,
        "ulaan": 26988,
        "▁chose": 15035,
        "▁lama,": 26492,
        "ule": 11832,
        "ვ": 1386,
        "▁14.": 22848,
        "▁radi": 11341,
        "▁1933": 15624,
        "ubuw": 25658,
        "irian": 12873,
        "▁Alpin": 22463,
        "▁Virginia": 10040,
        "蔡": 2015,
        "),": 6057,
        "ugg": 7385,
        "▁kilomet": 12985,
        "▁1962": 13526,
        "▁Graham": 17944,
        "02": 26336,
        "ipil": 12086,
        "asang": 14846,
        "ajan": 26180,
        "엔": 4276,
        "尖": 4910,
        "▁critics": 9959,
        "panjang": 21031,
        "▁membebaskan": 24584,
        "▁Watt": 26553,
        "▁Bakar": 27774,
        "▁Mingg": 31875,
        "▁Charlotte": 20188,
        "▁viewers": 13646,
        "▁Third": 16677,
        "酸": 2228,
        "▁pir": 16909,
        "regular": 27153,
        "▁dedic": 13674,
        "▁diplomat": 16404,
        "▁Brigadier": 29627,
        "窓": 4541,
        "urer": 21721,
        "▁menuju": 9937,
        "sey": 27002,
        "▁Nic": 8132,
        "坚": 3792,
        "▁Persia,": 31065,
        "▁Padang": 13937,
        "▁displaced": 24461,
        "▁Thorn": 29252,
        "▁meliputi": 10155,
        "ѣ": 3157,
        "现": 932,
        "▁Georges": 28585,
        "▁projects": 16167,
        "餅": 2532,
        "tract": 8198,
        "ふ": 2687,
        "▁Maskapai": 19024,
        "▁2000s": 26143,
        "복": 2261,
        "▁beaten": 26411,
        "▁Diamond": 20890,
        "期": 999,
        "番": 1441,
        "▁penjualan": 14261,
        "▁Fisher": 21985,
        "omo": 13334,
        "≫": 2928,
        "翼": 3708,
        "risis": 13301,
        "▁Maluku": 16300,
        "▁Andre": 14663,
        "▁Iraq": 17422,
        "awinan": 15290,
        "ably": 8787,
        "ȏ": 5425,
        "浮": 4400,
        "▁strongly": 18068,
        "▁HAM": 30251,
        "▁schizophrenia": 31194,
        "▁too": 9029,
        "▁respond": 13077,
        "oki": 12003,
        "hum": 24284,
        "ဗ": 4983,
        "▁pertempuran": 12430,
        "erintah": 29943,
        "▁convent": 17207,
        "化": 1563,
        "▁demographic": 28494,
        "▁SMAN": 24113,
        "▁1998": 9364,
        "敗": 5404,
        "▁circuit": 22360,
        "▁Volks": 28794,
        "▁Cool": 23841,
        "50)": 31211,
        "ܪ": 2401,
        "▁compilation": 22400,
        "·": 302,
        "▁acclaim": 23728,
        "▁Teg": 20904,
        "▁bakal": 28658,
        "▁Database.": 17900,
        "olished": 17727,
        "▁Foss": 29058,
        "ﻑ": 1984,
        "ប": 1372,
        "▁Metro": 13896,
        "ﺗ": 4558,
        "▁Spokane": 20931,
        "cess": 6612,
        "▁Heart": 12643,
        "▁Islamic": 21792,
        "▁ketiga.": 29026,
        "▁dress": 17854,
        "illed": 12490,
        "힘": 4934,
        "貿": 5538,
        "yat": 7380,
        "ز": 637,
        "▁Sap": 15901,
        "icans": 29619,
        "ighter": 12065,
        "▁scientists": 19324,
        "A.,": 9168,
        "▁into": 6250,
        "▁Wei": 28573,
        "▁decline": 18180,
        "▁electron": 21433,
        "ot": 5674,
        "信": 1967,
        "▁marked": 12957,
        "▁menembak": 23451,
        "▁states": 10572,
        "▁Revenge": 31797,
        "▁mel": 5915,
        "▁married": 11362,
        "▁Sug": 15788,
        "▁balap": 18299,
        "ܚ": 2810,
        "▁Urusan": 23811,
        "▁Leaf": 26171,
        "▁dipergunakan": 29218,
        "▁Tanaka": 31681,
        "嵐": 1999,
        "樱": 4325,
        "▁ditembak": 28041,
        "き": 1594,
        "▁Eric": 13842,
        "bankan": 23573,
        "▁several": 6983,
        "褒": 4494,
        "Ċ": 2892,
        "ough": 6126,
        "史": 1419,
        "▁Chamber": 23591,
        "agaimana": 10525,
        "▁zone": 17875,
        "▁Bag": 17717,
        "ifted": 31538,
        "▁influential": 19481,
        "▁Bog": 13000,
        "▁diletakkan": 26627,
        "辛": 3948,
        "arikan": 11758,
        "ո": 429,
        "▁Gadis": 30808,
        "▁aksara": 18872,
        "edar": 17832,
        "▁YouTube": 16050,
        "▁Benteng": 20441,
        "ნ": 1389,
        "-buku": 25877,
        "▁torpedoes": 25991,
        "ese": 7700,
        "▁consecutive": 15044,
        "▁LGBT": 25627,
        "▁suppl": 13322,
        "▁peta": 21935,
        "▁Rebecca": 30823,
        "▁86": 15616,
        "용": 2647,
        "癀": 3026,
        "▁align=\"center": 29702,
        "▁overl": 16705,
        "▁ekspor": 31171,
        "杨": 2348,
        "▁depth": 15072,
        "▁caps": 28095,
        "▁corner": 18775,
        "▁ph": 7455,
        "▁industry": 12048,
        "▁AI": 19911,
        "erminkan": 27847,
        "絕": 5434,
        "-align:": 13664,
        "象": 4123,
        "北": 964,
        "▁Ts": 10997,
        "olds": 23110,
        "▁Kill": 22257,
        "▁secured": 18829,
        "▁onwards": 27287,
        "apasitas": 31261,
        "▁bas": 9370,
        "▁kadang": 13800,
        "fl": 9977,
        "▁Cyper": 19862,
        "▁menentang": 17259,
        "▁François": 25023,
        "ulu.": 24232,
        "awat": 7585,
        "營": 4410,
        "▁digambarkan": 15139,
        "ga": 7271,
        "▁NH": 14160,
        "祝": 613,
        "▁wis": 15243,
        "Ⴎ": 2453,
        "▁forec": 21306,
        "ay,": 16550,
        "▁mengisahkan": 24636,
        "▁plas": 20108,
        "▁Kuz": 23995,
        "▁clergy": 30917,
        "▁rehabil": 28581,
        "▁Cl": 6468,
        "▁Ber": 6737,
        "▁Spider": 21341,
        "▁Jakarta,": 15902,
        "▁bud": 11969,
        "▁vers": 6774,
        "▁soundtrack": 12483,
        "ibr": 18747,
        "▁restored": 19076,
        "필": 4090,
        "▁Coul": 26706,
        "▁keragaman": 30138,
        "ٔ": 2927,
        "▁Panjang": 19950,
        "ner": 7098,
        "▁Business": 15700,
        "▁surat": 10388,
        "▁permainan": 10186,
        "▁menyebar": 18175,
        "確": 2076,
        "arti": 9129,
        "ounds": 11436,
        "▁(c": 15866,
        "▁Portland": 17865,
        "定": 3589,
        "ׁ": 1487,
        "▁renew": 18498,
        "▁Posisi": 26278,
        "▁Toul": 27717,
        "▁1950s": 16185,
        "▁debate": 18118,
        "▁sirkuit": 23106,
        "▁Fergus": 23871,
        "onnie": 31709,
        "▁kurang": 9178,
        "/s": 20318,
        "▁berarti": 9385,
        "▁metap": 27409,
        "▁Iw": 25278,
        "₂": 4904,
        "utu": 14754,
        "戀": 1525,
        "▁Nes": 27903,
        "▁Russell": 15890,
        "ibel": 28786,
        "anu": 29133,
        "▁Movie": 15074,
        "osl": 12228,
        "술": 3491,
        "▁95": 13182,
        "▁foot": 8287,
        "▁depicts": 26613,
        "Λ": 233,
        "콘": 2238,
        "▁Un": 5904,
        "atat": 8509,
        "▁told": 10604,
        "osex": 26161,
        "▁MVP": 26568,
        "喝": 4460,
        "▁style=\"background:#": 18121,
        "휴": 4238,
        "▁1993,": 25426,
        "థ": 3719,
        "ontakan": 12946,
        "▁strategi": 22401,
        "▁mengoperasikan": 22552,
        "▁Consequently": 29616,
        "▁03": 20212,
        "▁Others": 26841,
        "种": 4357,
        "▁voices": 26428,
        "intangi": 10534,
        "ety": 9403,
        "▁leaf": 25102,
        "uming": 23308,
        "龄": 5561,
        "▁Pennsylvania": 12961,
        "▁Gallagher": 25393,
        "adang": 7914,
        "▁fosil": 25409,
        "▁Bloom": 26877,
        "▁berdua": 27521,
        "▁Eis": 18340,
        "▁Singapura": 15004,
        "▁15.": 27929,
        "ivers": 6221,
        "𐊱": 3520,
        "▁1866": 26060,
        "▁imprisonment": 31881,
        "▁Pow": 14324,
        "▁langkah": 17760,
        "▁peninsula": 30128,
        "▁Eparki": 30972,
        "▁medium": 17466,
        "▁Shen": 23670,
        "▁uk": 31425,
        "盜": 839,
        "▁wilayah": 6662,
        "▁cap": 6798,
        "▁menuliskan": 26380,
        "▁supplies": 16728,
        "▁mata": 11075,
        "ster": 10900,
        "‧": 4943,
        "▁Mongol": 23099,
        "▁dealt": 30134,
        "▁NASCAR": 23913,
        "▁1911": 16869,
        "ische": 20894,
        "{": 530,
        "ota": 5967,
        "edia": 8036,
        "▁center": 10590,
        "▁rein": 12754,
        "▁typically": 14431,
        "▁dibandingkan": 11830,
        "▁software": 20666,
        "▁sawah": 22696,
        "▁berikut": 8055,
        "emb": 5706,
        "agh": 14914,
        "▁sana.": 21599,
        "▁researchers": 24410,
        "▁gallery": 28373,
        "▁newspaper": 14652,
        "š": 56,
        "韓": 1677,
        "▁less": 8429,
        "▁250": 13246,
        "▁improved": 15333,
        "障": 230,
        "▁mencari": 11370,
        "▁halnya": 20627,
        "▁MT": 24052,
        "ikian": 26185,
        "友": 570,
        "akkan": 18098,
        "▁developers": 26882,
        "▁Frankf": 27470,
        "lied": 9678,
        "▁Queen": 12124,
        "▁pp.": 14203,
        "▁Ic": 20039,
        "▁Budaya": 14024,
        "christ": 28122,
        "Ń": 4812,
        "rov": 6961,
        "▁waves": 20861,
        "▁Raf": 16683,
        "阶": 3916,
        "▁bersifat": 12493,
        "▁didasarkan": 15113,
        "▁speed": 10502,
        "▁suited": 31181,
        "ຸ": 4672,
        "엄": 4082,
        "▁clearly": 22415,
        "▁terkenal,": 27508,
        "orpor": 8906,
        "olin": 27823,
        "ỵ": 5514,
        "▁Kanada": 11379,
        "▁Path": 25198,
        "▁Pickett": 28860,
        "￥": 1906,
        "々": 2267,
        "▁terutama": 9291,
        "▁Lithuanian": 29225,
        "ở": 5349,
        "▁guarant": 22926,
        "▁joy": 30535,
        "▁Oasis": 30652,
        "ika.": 12276,
        "ɑ": 1269,
        "户": 3636,
        "▁kat": 16752,
        "uan": 5998,
        "▁lisensi": 24188,
        "-hak": 18195,
        "▁induk": 14770,
        "tor": 6607,
        "▁Yesus": 12571,
        "▁PA": 18289,
        "හ": 3342,
        "▁den": 10130,
        "osof": 26571,
        "▁Wilfrid": 24267,
        "▁Banten,": 29866,
        "esies": 6099,
        "▁Weekly": 16211,
        "gen": 9143,
        "្": 1374,
        "agaiman": 23578,
        "st": 5757,
        "▁nort": 12449,
        "▁dikenal": 7019,
        "▁motif": 19223,
        "aret": 30191,
        "▁asp": 10455,
        "▁1995": 9933,
        "▁Athens": 27953,
        "▁20,": 31987,
        "▁Kuning": 30943,
        "▁batteries": 24757,
        "▁demo": 21849,
        "▁Heaven": 22870,
        "▁sulit": 14349,
        "▁anth": 29038,
        "▁\"K": 11319,
        "传": 1218,
        "▁Tag": 19697,
        "▁Queens": 16368,
        "∗": 3892,
        "▁vel": 20521,
        "▁dipegang": 22136,
        "▁trains": 17856,
        "▁discussed": 19121,
        "▁gusts": 28163,
        "▁Soc": 7769,
        "▁mampu": 10017,
        "oth": 6327,
        "▁class=\"vcard\"": 11188,
        "▁bangkit": 28982,
        "▁Ok": 7219,
        "▁drinking": 24329,
        "▁Mountaine": 27807,
        "▁Jombang": 29159,
        "▁Tionghoa": 12394,
        "完": 1980,
        "▁order": 7557,
        "▁Zaman": 20323,
        "▁AS.": 28258,
        "▁manages": 30443,
        "ous": 5900,
        "▁volunteer": 31097,
        "员": 5450,
        "itarian": 22951,
        "▁1872": 25236,
        "จ": 1155,
        "▁begun": 17511,
        "▁kesamaan": 28657,
        "▁format": 13511,
        "▁Kus": 18757,
        "▁Saints": 26093,
        "▁Komisaris": 22621,
        "▁Bers": 11350,
        "▁93": 17733,
        "night": 17226,
        "▁foss": 16831,
        "omen": 8015,
        "alang": 15246,
        "onymous": 19706,
        "İ": 1793,
        "▁Spirit": 25181,
        "▁Lead": 23298,
        "▁N.": 15336,
        "▁Bris": 25126,
        "▁determined": 15392,
        "▁Usher": 20653,
        "▁fourth": 9751,
        "▁bung": 11929,
        "▁injury": 14215,
        "▁nama": 6706,
        "置": 3412,
        "突": 2873,
        "ition": 6204,
        "▁buku": 8961,
        "▁CR": 19327,
        "▁suara,": 27795,
        "▁Northern": 12904,
        "antic": 28750,
        "量": 3776,
        "▁before": 6648,
        "舟": 4613,
        "▁NBC": 15384,
        "▁Sebelum": 10586,
        "노": 112,
        "▁heir": 25807,
        "▁mayat": 28888,
        "フ": 735,
        "▁Leices": 26154,
        "Г": 744,
        "▁Rangers": 20784,
        "▁benzodiazep": 30844,
        "ł": 357,
        "▁Fiction": 26721,
        "震": 2922,
        "▁Contin": 18506,
        "▁fault": 25692,
        "▁Vocal": 29124,
        "▁mengant": 25915,
        "atalkan": 19493,
        "▁Tol": 13701,
        "१": 3742,
        "▁XV": 17468,
        "▁terakhir.": 21982,
        "▁Tigers": 26511,
        "▁that": 5759,
        "▁Meteor": 20024,
        "▁Thir": 21885,
        "unitas": 20979,
        "▁probably": 11784,
        "▁cep": 18765,
        "▁SPAN": 31486,
        "▁194": 6314,
        "▁grows": 27087,
        "▁hence": 28710,
        "각": 2749,
        "annon": 23299,
        "▁sings": 27488,
        "▁complic": 19444,
        "iled": 14047,
        "quet": 29210,
        "▁Camp": 10689,
        "証": 4507,
        "▁guest": 13726,
        "▁Gallery": 19600,
        "▁Charts": 23927,
        "▁Kimia": 24805,
        "cover": 28512,
        "organisir": 31414,
        "▁Selama": 10199,
        "▁ranks": 21866,
        "olisian": 16531,
        "etas": 19719,
        "imewa": 18309,
        "▁Hom": 18681,
        "▁op": 6325,
        "▁utara,": 21947,
        "▁recover": 12651,
        "▁Pol.": 24535,
        "▁dust": 27091,
        "▁On": 6163,
        "ropoda,": 7608,
        "▁representation": 27042,
        "▁menonj": 20688,
        "▁PD": 18315,
        "▁kembali,": 28739,
        "▁Dest": 16301,
        "伽": 3492,
        "▁ke-15": 26903,
        "▁pagi": 21073,
        "▁ax": 27206,
        "▁rebellion": 26018,
        "偉": 3119,
        "▁rating": 12410,
        "nis": 8534,
        "▁manga": 14179,
        "ocene": 30414,
        "▁Ent": 27023,
        "▁'A": 16024,
        "▁wrestling": 26997,
        "▁perb": 8397,
        "▁dieks": 25439,
        "▁1904": 18504,
        "▁predominantly": 27881,
        "▁blocks": 21771,
        "▁Brighton": 29216,
        "eneg": 23760,
        "▁Tujuh": 28901,
        "▁komod": 28135,
        "zi": 12832,
        "▁legislative": 25288,
        "▁Pemerintah": 10538,
        "▁meminta": 11764,
        "▁(1998)": 21706,
        "ged": 9241,
        "錢": 1900,
        "▁blank": 30203,
        "▁Bright": 21583,
        "▁moved": 8272,
        "▁Industries": 31396,
        "▁classification": 16160,
        "▁XIV": 29586,
        "ayed": 9574,
        "ekn": 7407,
        "..": 6758,
        "aga": 6464,
        "帐": 5356,
        "▁core": 14361,
        "七": 1790,
        "▁(2)": 25422,
        "▁menjadikannya": 19946,
        "▁Tern": 21390,
        "¹": 2389,
        "▁magnitudo": 12047,
        "eated": 9157,
        "更": 2232,
        "▁bigg": 17307,
        "utkan": 21847,
        "▁Juvent": 30124,
        "х": 666,
        "hess": 19270,
        "▁aluminium": 28305,
        "▁Pteroloph": 30056,
        "▁Pink": 20031,
        "▁Sipil": 22943,
        "▁(6": 24126,
        "ords": 8351,
        "▁(set": 30463,
        "▁berkolaborasi": 27141,
        "ott": 7247,
        "yakini": 18738,
        "▁wanted": 9948,
        "intas": 12983,
        "ren": 6663,
        "▁Kata": 14444,
        "▁Pran": 6066,
        "anggang": 20775,
        "urunkan": 21408,
        "ega": 16950,
        "roft": 29607,
        "َ": 155,
        "ina.": 12107,
        "▁intensity": 15663,
        "▁mempertahankan": 13265,
        "▁transaksi": 31941,
        "ilisasi": 30480,
        "▁Pem": 6364,
        "▁concluded": 13341,
        "▁−": 13889,
        "utions": 12620,
        "▁low": 8420,
        "▁manner": 17497,
        "銭": 3497,
        "▁raks": 18287,
        "▁2007)": 27017,
        "sewhere": 18008,
        "栽": 3913,
        "列": 565,
        "yes": 12704,
        "▁Archae": 23005,
        "▁Mich": 7417,
        "▁surv": 8505,
        "▁umum.": 19334,
        "iness": 8450,
        "▁me": 6442,
        "lement": 9927,
        "▁writer": 11012,
        "▁Whit": 15180,
        "▁resident": 16008,
        "nie": 30662,
        "▁depan": 10545,
        "▁157": 31406,
        "▁Megatron": 29871,
        "atis": 14954,
        "▁feels": 22422,
        "▁Challenge": 26809,
        "▁harta": 23383,
        "▁quantities": 28199,
        "▁pal": 12805,
        "▁perceived": 22044,
        "▁24.": 31452,
        "ea": 18605,
        "责": 1836,
        "▁seks": 12299,
        "▁pp": 29321,
        "erback": 30024,
        "▁Bizant": 19831,
        "▁1953": 14070,
        "oustic": 22517,
        "▁indicate": 19691,
        "▁Apoll": 11452,
        "hee": 21765,
        "憲": 4063,
        "irect": 25578,
        "▁Bayern": 19194,
        "iga": 6360,
        "600": 30545,
        "▁spending": 21769,
        "izz": 26544,
        "そ": 801,
        "▁https://": 18500,
        "篤": 3550,
        "▁worst": 18245,
        "▁dil": 6357,
        "▁pack": 15087,
        "▁dorong": 29681,
        "▁competing": 24545,
        "▁swast": 28802,
        "rice": 30252,
        "▁down": 7069,
        "▁Aktris": 18574,
        "▁upaya": 12362,
        "▁(terutama": 29482,
        "amakan": 18780,
        "al,": 8090,
        "s": 16,
        "琢": 4598,
        "▁T.M.,": 9306,
        "▁incomplete": 28600,
        "▁184": 10384,
        "▁metall": 22717,
        "▁Judith": 30686,
        "asi,": 9590,
        "針": 4683,
        "▁hydro": 31842,
        "▁1997": 9664,
        "▁1846": 28974,
        "ugi": 28529,
        "露": 4693,
        "▁tampak": 16489,
        "10.": 28001,
        "ٮ": 4271,
        "itud": 8628,
        "zes": 28612,
        "IT": 8303,
        "▁Prix": 12761,
        "▁(2": 10550,
        "▁Techn": 13667,
        "游": 3233,
        "ego": 15530,
        "▁oxid": 27093,
        "ekul": 16281,
        "-off": 20609,
        "▁Ghost": 22018,
        "徒": 1342,
        "▁keyboard": 19130,
        "hip": 6425,
        "▁longest": 18795,
        "蘭": 4411,
        "▁Mand": 10499,
        "▁surprise": 21707,
        "▁Gob": 24041,
        "▁(ep": 21562,
        "mat": 12949,
        "aining": 7227,
        "H.": 13879,
        "▁liar": 24062,
        "ahankan": 12174,
        "▁tournament": 13304,
        "统": 2887,
        "▁learning": 19952,
        "▁negotiations": 20664,
        "▁Guardian": 18162,
        "▁investment": 25204,
        "▁Pabrik": 27654,
        "专": 3536,
        "▁Toba": 26728,
        "▁pos": 6260,
        "▁battles": 12234,
        "araf": 17420,
        "▁paying": 28371,
        "ठ": 4071,
        "▁pro": 5773,
        "▁Timur,": 10464,
        "▁nep": 27687,
        "▁bowling": 21100,
        "่": 1764,
        "ode": 6140,
        "▁Ste": 21413,
        "▁Formula": 14983,
        "▁Astragalus": 22593,
        "awanan": 13497,
        "▁Halifax": 25319,
        "통": 4029,
        "▁judul": 13135,
        "▁funny": 23736,
        "▁brings": 28976,
        "綾": 4496,
        "ब": 3259,
        "▁Semua": 12853,
        "▁translated": 20805,
        "ificial": 21650,
        "▁Yan": 22591,
        "▁ty": 16251,
        "▁River": 8366,
        "▁gener": 11151,
        "▁unlike": 20872,
        "▁portion": 13659,
        "Բ": 2668,
        "entrasi": 15709,
        "BS,": 27738,
        "隱": 3899,
        "▁penalty": 18886,
        "▁association": 17859,
        "▁certified": 18231,
        "▁Istimewa": 26665,
        "น": 2167,
        "奧": 2880,
        "▁Paroki": 23600,
        "▁tough": 27234,
        "ves": 9155,
        "az": 6303,
        "▁agre": 8894,
        ".org": 15664,
        "ukota": 23400,
        "uras": 28642,
        "─": 491,
        "yli": 15117,
        "uduki": 13680,
        "▁Lebih": 18384,
        "▁throne": 18851,
        "angkitkan": 27065,
        "車": 597,
        "출": 1446,
        "售": 3588,
        "▁Robert": 7876,
        "ス": 871,
        "akart": 6980,
        "▁Ont": 18812,
        "龍": 256,
        "▁Urban": 20955,
        "▁berhak": 23887,
        "eppe": 31272,
        "angunan": 7454,
        "▁Organization": 20686,
        "▁Marshall": 14840,
        "▁informed": 19105,
        "▁Namanya": 23958,
        "▁Đ": 25035,
        "▁minim": 24598,
        "挺": 5029,
        "▁Rom": 6795,
        "▁\"B": 10383,
        "▁Rubiaceae.": 25071,
        "▁Saraj": 30701,
        "ǫ": 1203,
        "▁Axis": 29872,
        "▁breeds": 24247,
        "▁mili": 26204,
        "Á": 492,
        "গ": 1707,
        "▁em": 7435,
        "using": 19309,
        "績": 5395,
        "害": 3823,
        "▁mempersiapkan": 25532,
        "chiev": 10180,
        "▁principal": 16899,
        "▁peaking": 22345,
        "ugar": 21550,
        "▁resolusi": 25406,
        "▁connects": 27548,
        "▁noble": 31830,
        "𐋍": 5329,
        "愁": 4895,
        "▁Vir": 8480,
        "▁away": 8992,
        "": 5311,
        "宥": 5523,
        "▁ster": 15351,
        "▁halted": 30087,
        "▁service": 8585,
        "ipati": 13306,
        "▁cepat.": 27465,
        "▁activities": 14130,
        "▁Fund": 19903,
        "▁kaca": 22662,
        "▁Jam": 13091,
        "▁cens": 25607,
        "ler,": 27132,
        "▁keunggulan": 30821,
        "雪": 1254,
        "▁Bi": 8472,
        "▁Tour": 10012,
        "▁cleared": 23041,
        "▁protests": 25056,
        "▁wali": 18774,
        "ಶ": 5253,
        "▁Sejak": 10400,
        "▁Davies": 19988,
        "▁rekaman": 13219,
        "▁Parad": 22230,
        "ف": 147,
        "age": 6021,
        "gram": 6829,
        "▁Agustus": 8083,
        "▁Bak": 14101,
        "▁dir": 6181,
        "先": 1587,
        "▁cases": 13798,
        "bang": 26070,
        "▁Sya": 17194,
        "▁incorporated": 18292,
        "▁Bian": 30671,
        "▁adj": 13991,
        "▁berdirinya": 21969,
        "▁Lt": 15954,
        "en.": 8567,
        "ள": 3034,
        "ding": 27198,
        "▁rumah,": 25785,
        "▁gitaris": 28911,
        "弓": 925,
        "▁Bron": 20549,
        "掌": 4515,
        "aeus": 27055,
        "▁ay": 22960,
        "▁Joint": 22102,
        "▁Cav": 23017,
        "▁inn": 10009,
        "▁hill": 20364,
        "▁1": 5637,
        "igned": 9646,
        "▁photography": 26059,
        "▁equipped": 17472,
        "usa": 21733,
        "▁Rutherford": 23091,
        "ы": 271,
        "▁Pertama,": 28834,
        "▁pertamanya,": 24753,
        "ique": 11476,
        "enb": 20832,
        "▁ka": 28440,
        "▁dominan": 26700,
        "▁Merupakan": 27433,
        "▁Galveston": 26957,
        "▁Alph": 29183,
        "▁administered": 30684,
        "▁Ethi": 20808,
        "▁Gil": 10377,
        "▁recommended": 17098,
        "olog": 6158,
        "▁prefer": 15255,
        "▁rakyat": 11933,
        "참": 2372,
        "ȷ": 470,
        "▁1971": 12801,
        "▁Forces": 17758,
        "▁acceptance": 29966,
        "▁1997.": 21687,
        "ឋ": 3079,
        "▁increasingly": 16044,
        "▁Helena": 30790,
        "inop": 17542,
        "▁rendah,": 23930,
        "▁Al-Qur'an": 27917,
        "房": 1090,
        "um,": 12875,
        "▁Unit": 15058,
        "▁integrated": 27528,
        "▁inaugur": 30953,
        "▁dropped": 13070,
        "▁certainly": 24755,
        "▁denomin": 24340,
        "ulty": 25157,
        "▁76": 13192,
        "line": 7457,
        "icus": 16953,
        "▁ic": 28165,
        "▁protest": 17808,
        "▁story": 7760,
        "顕": 5106,
        "▁role": 8135,
        "▁periods": 19487,
        "iptaan": 19678,
        "▁Penampilan": 21898,
        "▁Alumni": 13527,
        "and": 5613,
        "burgh": 13208,
        "lege": 8455,
        "▁(2015": 30287,
        "▁Paulus": 17293,
        "yss": 20180,
        "▁neck": 18956,
        ");": 14999,
        "▁Trial": 27839,
        "22)": 16178,
        "ukis": 13340,
        "▁bassist": 30508,
        "▁Italian": 11777,
        "▁pimpinan": 14569,
        "65": 15041,
        "▁Ross": 13394,
        "▁Away": 25802,
        "▁paduan": 28534,
        "eor": 13992,
        "▁Sax": 17037,
        "▁there": 6669,
        "▁mencoba": 12398,
        "ﻝ": 4974,
        "▁beroperasi": 13392,
        "▁pengguna": 11692,
        "纬": 5402,
        "▁undang-undang": 17848,
        "▁berpengaruh": 17620,
        "▁Fuj": 18218,
        "▁shooting": 16380,
        "background:#": 16887,
        "▁depiction": 28691,
        "議": 246,
        "▁consent": 29795,
        "onom": 6652,
        "onis": 18010,
        "▁Unlike": 18147,
        "▁adegan": 20273,
        "ο": 206,
        "▁dipromosikan": 26938,
        "縦": 3193,
        "▁pengajar": 29125,
        "래": 1701,
        "弁": 1712,
        "ogo": 21096,
        "▁Konflik": 24974,
        "R)": 27179,
        "ients": 21505,
        "▁adaptation": 19791,
        "▁buah": 10451,
        "▁Miller": 14821,
        "izations": 16974,
        "73": 18474,
        "▁lagu,": 25362,
        "iskus": 29239,
        "esmikan": 17557,
        "▁Herzegovina": 22668,
        "▁Gond": 26819,
        "▁Timber": 29406,
        "▁(Y": 17484,
        "▁ass": 6556,
        "磯": 4725,
        "enom": 17617,
        "▁25": 6625,
        "▁argumen": 24344,
        "▁dak": 28579,
        "▁sus": 9173,
        "招": 3951,
        "▁bah": 5920,
        "awal": 12536,
        "統": 1669,
        "letak": 6971,
        "▁Saxon": 26520,
        "놀": 2105,
        "▁seg": 7812,
        "▁Mid": 12762,
        "-": 24,
        "▁1921": 14866,
        "♦": 5305,
        "▁Pulau": 8714,
        "enia": 31991,
        "օ": 4091,
        "ayangkan": 11252,
        "▁mengandung": 12370,
        "▁Kampung": 14621,
        "opi": 14960,
        "▁bayi": 19035,
        "▁Shot": 30990,
        "aron": 16460,
        "▁Isle": 21833,
        "▁lo": 9246,
        "ት": 3438,
        "▁contested": 29687,
        "▁ditayangkan": 12444,
        "ᮥ": 4217,
        "▁friendship": 25147,
        "苗": 2733,
        "▁bersedia": 31401,
        "▁mysterious": 29565,
        "▁Lebanon": 20443,
        "left\"": 23680,
        "▁leagues": 29649,
        "▁prov": 6518,
        "▁jadi": 14005,
        "▁dikeluarkan": 15337,
        "▁spotted": 25343,
        "▁nuclear": 13608,
        "▁hancur": 26991,
        "▁import": 8469,
        "ꦾ": 5128,
        "▁vault": 28441,
        "▁(bahasa": 14143,
        "ternal": 16544,
        "▁substitute": 30523,
        "▁Aur": 18782,
        "▁Authority": 23121,
        "▁Penduduk": 14994,
        "▁dunia,": 15586,
        "▁Tests": 24836,
        "▁sejarawan": 17807,
        "▁Suc": 11565,
        "际": 2548,
        "顯": 3268,
        "OM": 18875,
        "▁mainland": 21992,
        "▁1924": 17157,
        "▁dilanjutkan": 18432,
        "ards": 7990,
        "▁sweet": 25786,
        "▁University,": 28836,
        "▁modal": 20190,
        "aitan": 12890,
        "▁riff": 28646,
        "thal": 29207,
        "ur,": 10168,
        "▁prosp": 19587,
        "革": 1330,
        "차": 2832,
        "▁kata-kata": 19576,
        "▁coastline": 30667,
        "▁(b": 8515,
        "צ": 1024,
        "寞": 1660,
        "慶": 3270,
        "ra": 6093,
        "▁Saltic": 24124,
        "ium.": 21854,
        "isai": 24707,
        "▁187": 8240,
        "▁\"d": 16320,
        "▁Agama": 14568,
        "▁removal": 22594,
        "▁Sepanjang": 24160,
        "▁(1992": 29834,
        "▁Morris": 17571,
        "▁konsisten": 29904,
        "▁Protection": 29753,
        "▁Pihak": 29596,
        "د": 304,
        "绿": 4167,
        "▁2019.": 15533,
        "ם": 616,
        "▁15th": 19011,
        "ormal": 25628,
        "ces": 6952,
        "룹": 5513,
        "▁terbuka": 14418,
        "▁somet": 10606,
        "▁mounted": 16110,
        "amed": 11411,
        "வ": 2135,
        "▁manusia,": 17357,
        "byter": 29620,
        "leep": 15365,
        "蒸": 4211,
        "▁Wend": 27503,
        "▁Swedia": 15724,
        "▁lane": 18788,
        "▁disappeared": 26103,
        "▁Kann": 24569,
        "ɖ": 3027,
        "▁household": 15606,
        "nets": 24220,
        "▁comprised": 29614,
        "▁converted": 15551,
        "▁str": 6098,
        "worth": 14184,
        "圖": 2102,
        "▁sebanyak": 9763,
        "▁follow": 6628,
        "jakarta": 26628,
        "ttp": 10447,
        "astra": 12121,
        "red": 6254,
        "鳴": 2123,
        "gether": 9435,
        "unan": 6348,
        "汉": 1283,
        "▁um": 10406,
        "▁menggambarkan": 12344,
        "▁over": 6172,
        "amine": 24446,
        "▁Mb": 31715,
        "▁Ibrahim": 18551,
        "：": 3273,
        "▁Adrian": 21437,
        "hed": 6058,
        "▁Tomato": 29587,
        "賣": 5317,
        "▁arrived": 10768,
        "▁progressed": 26326,
        "▁kapital": 31966,
        "enalkan": 11006,
        "▁wartawan": 26695,
        "▁Universe": 20569,
        "▁Armenian": 20869,
        "黄": 931,
        "ots": 8085,
        "▁Dawn": 25784,
        "▁Conservation": 23532,
        "▁attemp": 7828,
        "ष": 2375,
        "▁grossing": 29249,
        "▁mainly": 13564,
        "▁Peraturan": 18025,
        "▁kayu": 6786,
        "勃": 4197,
        "ansk": 18001,
        "tivitas": 18521,
        "▁mengabaikan": 30985,
        "EM": 18501,
        "▁Pab": 29171,
        "▁situated": 20709,
        "▁misi": 15279,
        "▁Januari": 7942,
        "▁Actress": 22765,
        "▁pikiran": 23147,
        "onim": 20868,
        "▁safety": 16052,
        "▁situation": 13217,
        "▁than": 6459,
        "▁kaya": 17698,
        "▁Haiti": 21608,
        "▁Federasi": 18729,
        "▁Fungsi": 25292,
        "▁Trail": 17749,
        "ᬾ": 4920,
        "▁Led": 21210,
        "▁they": 6185,
        "▁Jakarta": 8400,
        "▁not": 5929,
        "▁Bun": 25984,
        "ⵄ": 5528,
        "▁kritis": 22822,
        "▁studio": 9399,
        "단": 3290,
        "us": 5625,
        "▁phys": 10473,
        "▁dry": 15738,
        "itte": 9845,
        "fi": 19179,
        "▁Airport": 14530,
        "▁Reynolds": 29201,
        "▁off": 6148,
        "B.": 14345,
        "▁angkutan": 20158,
        "▁punk": 26410,
        "▁Gunung": 10559,
        "▁Adam": 12991,
        "SA": 18719,
        "rite": 22641,
        "▁Sora": 29591,
        "▁probl": 9589,
        "▁Mas": 7349,
        "▁Pah": 31895,
        "▁Linyphi": 16425,
        "▁Rose": 16379,
        "▁Konserv": 31122,
        "▁Deep": 19491,
        "▁succession": 24566,
        "▁Zagreb": 26780,
        "ilst": 18680,
        "▁900": 17083,
        "olo": 15335,
        "▁offered": 12271,
        "ª": 3427,
        "▁bridge": 10805,
        "未": 1615,
        "ilid": 26415,
        "▁biological": 26501,
        "▁klasifikasi": 23605,
        "猷": 3009,
        "PG": 20888,
        "▁menit": 14344,
        "▁asuransi": 27590,
        "▁Mig": 19948,
        "특": 4536,
        "os": 5684,
        "▁demonstr": 12293,
        "▁Rog": 11680,
        "▁medical": 13707,
        "▁dinamai": 16772,
        "陽": 640,
        "▁mengikat": 29553,
        "asons": 10761,
        "▁tries": 19830,
        "ri.": 26356,
        "▁five": 7366,
        "▁convection": 19818,
        "▁as": 5711,
        "▁tourists": 27893,
        "ံ": 5122,
        "▁generation": 17693,
        "▁p.m.": 28261,
        "颇": 1281,
        "▁belah": 28313,
        "▁Indonesia)": 28676,
        "con": 17934,
        "▁SI": 24663,
        "տ": 1750,
        "▁chase": 26562,
        "▁Atas": 15925,
        "▁al-Q": 28339,
        "▁dub": 17319,
        "▁thermal": 31680,
        "▁Proc": 27640,
        "▁Luz": 29268,
        "▁bowl": 24205,
        "ev": 5809,
        "▁friend": 8590,
        "ulated": 11538,
        "▁(sebelumnya": 27920,
        "イ": 599,
        "ắ": 671,
        "▁ilmiah": 8097,
        "▁awalnya": 10132,
        "উ": 1365,
        "▁risk": 14712,
        "itals": 21645,
        "▁Financ": 30353,
        "▁Zoo": 25419,
        "▁Armada": 25898,
        "▁elekt": 20179,
        "▁politicians": 26933,
        "aksanakan": 11158,
        "▁sedemikian": 30835,
        "enj": 9324,
        "▁dibubarkan": 24135,
        "▁Phantom": 29221,
        "▁Against": 23467,
        "ග": 2905,
        "▁energ": 8949,
        "ingk": 6224,
        "▁luas,": 26026,
        "adia": 28635,
        "▁challeng": 11881,
        "▁musisi": 17611,
        "▁lalu.": 21194,
        "▁habis": 26916,
        "▁matematika": 22652,
        "▁portrayed": 17869,
        "▁absolute": 28190,
        "対": 1692,
        "二": 1135,
        "icket": 10075,
        "▁Iwan": 29961,
        "▁Philipp": 11461,
        "0": 65,
        "leg": 11918,
        "▁Ferd": 20511,
        "olve": 18903,
        "М": 374,
        "ited": 6210,
        "▁Keh": 10070,
        "ers": 5669,
        "umur": 13165,
        "▁Miz": 23576,
        "▁vocal": 13110,
        "▁BA": 25178,
        "▁submarine": 19596,
        "ϛ": 4001,
        "ektur": 8180,
        "▁sepeda": 18578,
        "▁88": 16112,
        "▁1855": 29343,
        "▁diam": 11554,
        "uing": 11027,
        "従": 2122,
        "▁yield": 23633,
        "▁Prote": 29862,
        "▁decides": 22407,
        "▁emigr": 30125,
        "苻": 2926,
        "▁acted": 20665,
        "▁characteristic": 24861,
        "erse": 12621,
        "패": 411,
        "依": 2088,
        "▁spread": 13610,
        "ت": 158,
        "▁pint": 26547,
        "uba": 13335,
        "ombang": 13999,
        "▁bumi": 13040,
        "unuhan": 15829,
        "▁empat": 8341,
        "aver": 15716,
        "▁Kings": 18806,
        "鱼": 4364,
        "ỷ": 2270,
        "anger": 9309,
        "₩": 2363,
        "▁Sim": 8610,
        "▁kabupaten": 11276,
        "▁elek": 10697,
        "↓": 2115,
        "坂": 4416,
        "42": 15969,
        "K)": 20818,
        "승": 3821,
        "▁(C": 9456,
        "▁v.": 20780,
        "▁manage": 27239,
        "▁jelas": 14283,
        "pat": 17885,
        "ash": 6482,
        "▁Geoff": 21161,
        "▁derajat": 25267,
        "▁pregnant": 26123,
        "▁Gren": 22291,
        "▁Capital": 23783,
        "ዊ": 4058,
        "▁Konsili": 27126,
        "▁halam": 30323,
        "▁menolak": 11882,
        "▁Indian": 8752,
        "▁kedua": 7182,
        "▁Martin": 10165,
        "▁Warner": 16116,
        "OC": 15560,
        "▁accounts": 17421,
        "▁disebutkan": 14242,
        "▁once": 9720,
        "cu": 28323,
        "▁trans-N": 25245,
        "许": 1085,
        "▁hampir": 10216,
        "质": 4652,
        "western": 16432,
        "▁Pertanian": 17493,
        "▁Bone": 21958,
        "▁kreat": 21128,
        "雲": 2924,
        "Indonesia": 29031,
        "#": 140,
        "ስ": 3700,
        "▁km²": 13572,
        "a-b": 16533,
        "▁acids": 23441,
        "▁Proto": 31277,
        "▁hy": 9738,
        "▁tertentu,": 21282,
        "▁knowledge": 15368,
        "ų": 2133,
        "a:": 24585,
        "活": 1337,
        "▁battalion": 15264,
        "ố": 803,
        "is)": 23314,
        "▁Thunder": 27655,
        "쥐": 4482,
        "▁metre": 28152,
        "▁surpr": 19442,
        "▁Past": 15341,
        "▁corresponding": 27606,
        "isar": 17465,
        "▁Municipal": 26054,
        "▁(kini": 29366,
        "Ç": 237,
        "▁Maine": 25726,
        "aksud": 14136,
        "▁cancer": 18576,
        "▁Internet": 12928,
        "▁visited": 14414,
        "ě": 92,
        "ucc": 29345,
        "ria,": 30983,
        "ín": 19386,
        "▁Budi": 20628,
        "s,": 8489,
        "▁(L": 10013,
        "施": 3161,
        "▁Sheff": 21075,
        "▁diklasifikasikan": 27981,
        "ras": 11040,
        "▁Pil": 13974,
        "殼": 2437,
        "▁Letter": 29720,
        "otrop": 31240,
        "帝": 920,
        "▁negoti": 14126,
        "-X": 20928,
        "▁newly": 14828,
        "𐋁": 5009,
        "eria": 11082,
        "▁contribution": 23807,
        "▁Henderson": 29233,
        "▁efektif": 16766,
        "▁Rektor": 24234,
        "↑": 2709,
        "▁catalog": 13098,
        "▁perpanjangan": 25789,
        "▁Pada": 6020,
        "▁Hour": 29223,
        "▁example": 9891,
        "▁talent": 22494,
        "▁vehicles": 12984,
        "▁kalender": 20865,
        "ҷ": 4203,
        "烁": 938,
        "校": 1288,
        "紫": 4779,
        "▁Sak": 13745,
        "▁dated": 17224,
        "ako": 20677,
        "oso": 17365,
        "▁Sob": 27735,
        "kannya": 13868,
        "▁trip": 14898,
        "▁Range": 31565,
        "▁Von": 28902,
        "ajiban": 23849,
        "unisipal": 13390,
        "▁x": 10867,
        "▁Dik": 16224,
        "atan,": 28732,
        "▁(ru)": 18970,
        "蛇": 3320,
        "ata,": 13096,
        "▁gardens": 31292,
        "abar": 9991,
        "yataan": 12210,
        "ᠪ": 5383,
        "ized": 7399,
        "▁thous": 13642,
        "▁thousand": 20674,
        "授": 2544,
        "▁experts": 30848,
        "▁econom": 10039,
        "▁68": 15817,
        "▁Kawasan": 16674,
        "▁komp": 7217,
        "▁thirty": 18930,
        "▁temperatures": 18236,
        "▁dipengaruhi": 18540,
        "no": 12990,
        "ছ": 1256,
        "▁Manitoba": 28618,
        "🍑": 3417,
        "▁bombers": 20601,
        "ờ": 2166,
        "▁orches": 16135,
        "ܦ": 3730,
        "yarak": 7183,
        "▁Source": 28696,
        "▁Marinir": 24784,
        "OT": 17782,
        "▁otomat": 15697,
        "▁menyal": 28844,
        "남": 1054,
        "▁Shangh": 17949,
        "▁(1995)": 23472,
        "▁News": 11177,
        "roli": 30908,
        "▁revolusi": 25378,
        "▁gods": 21486,
        "捕": 3615,
        "▁discover": 9505,
        "▁HD": 23393,
        "▁berawal": 30474,
        "agger": 28487,
        "▁Zona": 21213,
        "▁Kyoto": 26726,
        "▁warisan": 22808,
        "駝": 3807,
        "▁summon": 31951,
        "mit": 13692,
        "▁Lintas": 28092,
        "숙": 1150,
        "浩": 3390,
        "▁aggress": 18863,
        "▁Cavalry": 25263,
        "▁Sword": 25471,
        "▁berkuasa": 20387,
        "▁first": 6033,
        "▁sister": 12521,
        "ᮏ": 3422,
        "unjuk": 7517,
        "▁hiburan": 19225,
        "▁Mariah": 24529,
        "偕": 4620,
        "▁memb": 5943,
        "▁surviv": 18763,
        "▁ledakan": 25652,
        "思": 923,
        "▁algor": 25759,
        "len": 26270,
        "aut": 6615,
        "▁Kor": 11817,
        "勁": 4518,
        "닛": 4519,
        "▁1916": 14756,
        "▁Fink": 28883,
        "▁Paper": 29195,
        "▁bertempur": 30874,
        "asts": 20116,
        "▁Jembatan": 19641,
        "▁Semarang,": 28386,
        "濤": 2193,
        "▁skala": 18082,
        "▁ref": 6621,
        "▁Kalimantan": 10362,
        "福": 1012,
        "▁curves": 29845,
        "▁piec": 10169,
        "▁Satu": 11815,
        "!\"": 23170,
        "ugh": 5885,
        "見": 2014,
        "▁subsequent": 13549,
        "▁petunjuk": 22856,
        "▁recre": 20624,
        "▁listing": 20078,
        "▁Sy": 6984,
        "ˋ": 3067,
        "角": 3232,
        "▁terbanyak": 16067,
        "▁beh": 8231,
        "▁arrested": 17349,
        "▁Surabaya": 11485,
        "애": 3305,
        "▁board": 11186,
        "ouch": 19353,
        "辨": 3782,
        "▁pleasure": 30239,
        "▁climb": 13050,
        "▁profesor": 22339,
        "ahi": 17129,
        "ipan": 17299,
        "hargaan": 7785,
        "eaksi": 29910,
        "irkan": 10750,
        "▁legislature": 24879,
        "ahari": 8018,
        "吐": 3097,
        "▁delapan": 13679,
        "ौ": 1583,
        "▁control": 8501,
        "aration": 17284,
        "真": 1557,
        "▁Self": 30818,
        "▁phone": 23384,
        "後": 2745,
        "▁H.": 9361,
        "ដ": 3078,
        "▁1903": 20135,
        "慧": 4272,
        "▁sebagai": 5824,
        "柱": 1860,
        "▁Ell": 12464,
        "▁charter": 20840,
        "▁questioned": 23357,
        "▁Bennett": 23369,
        "Ű": 772,
        "inc": 6454,
        "▁promp": 15118,
        "▁based": 7677,
        "ㇲ": 5303,
        "▁Ps": 20235,
        "▁lama.": 24004,
        "ổ": 1882,
        "▁Tenggara,": 24090,
        "istol": 14083,
        "▁Edm": 14510,
        "▁be": 5776,
        "▁kekayaan": 22485,
        "wing": 27231,
        "▁Ox": 10535,
        "▁Saleh": 26048,
        "▁Hard": 11213,
        "sius": 23635,
        "▁disch": 25977,
        "▁offshore": 28713,
        "▁perbelanjaan": 31021,
        "슈": 4556,
        "▁Lag": 19793,
        "淑": 1217,
        "▁Adat": 26133,
        "▁triang": 20835,
        "▁Hat": 19206,
        "▁natural": 11278,
        "▁Tiongkok.": 15114,
        "り": 227,
        "彰": 1748,
        "un": 5599,
        "▁pusat": 8623,
        "▁TIT": 9195,
        "egr": 10104,
        "▁base": 10486,
        "▁regarded": 14519,
        "▁Raden": 16724,
        "uci": 24199,
        "위": 426,
        "▁Collins": 18532,
        "▁offs": 25396,
        "▁references": 17627,
        "춘": 3274,
        "▁Corpor": 31614,
        "戸": 2318,
        "ukuman": 16075,
        "람": 1029,
        "松": 1675,
        "▁declaring": 31331,
        "當": 2578,
        "▁reportedly": 19228,
        "▁Der": 13949,
        "ounty": 7073,
        "乾": 1008,
        "▁I": 5647,
        "angkap": 10497,
        "fried": 26953,
        "▁meetings": 21598,
        "▁offensive": 15401,
        "▁dipert": 15852,
        "▁uap": 25747,
        "ata.": 17572,
        "▁err": 21165,
        "iture": 28608,
        "▁Jos": 8373,
        "▁1990-an": 30714,
        "▁reduc": 10283,
        "▁offices": 18816,
        "▁Extr": 28320,
        "uff": 8967,
        "▁Magazine": 14706,
        "▁1999,": 18552,
        "▁Bran": 20037,
        "口": 478,
        "akar": 9024,
        "ԛ": 2286,
        "撫": 3677,
        "▁menghapus": 27034,
        "찌": 4295,
        "▁...": 7373,
        "▁Saw": 17171,
        "엠": 733,
        "←": 3197,
        "eri.": 31030,
        "▁Kolombia": 31249,
        "antangan": 18798,
        "▁Paris.": 29449,
        "陰": 2863,
        "eld": 13463,
        "▁rear": 14602,
        "-C": 11207,
        "▁rookie": 30526,
        "▁investigate": 24538,
        "▁Lalu": 16483,
        "bol": 19161,
        "형": 2051,
        "▁Such": 21453,
        "▁hitam,": 29705,
        "▁ir": 11019,
        "60": 8216,
        "͌": 3783,
        "▁Thomp": 18183,
        "▁La": 8140,
        "uncurkan": 11205,
        "ohonan": 24826,
        "▁batang": 8778,
        "▁tradisional": 10646,
        "▁bias": 28045,
        "첩": 2799,
        "▁aud": 13671,
        "acher": 13627,
        "▁Tet": 25140,
        "▁Komering": 28098,
        "okus": 12798,
        "▁Danau": 14881,
        "aston": 30788,
        "▁tengg": 22510,
        "▁web": 7737,
        "itional": 7916,
        "▁Salat": 31327,
        "ommod": 17151,
        "▁ruling": 24611,
        "▁talks": 24436,
        "凤": 555,
        "测": 4353,
        "饮": 4368,
        "ambaran": 27193,
        "▁w": 5603,
        "▁Sriw": 27149,
        "othy": 18426,
        "밀": 1002,
        "▁terbaik": 10782,
        "▁suara": 8578,
        "친": 1159,
        "¡": 2350,
        "▁mempengaruhi": 19236,
        "n.": 19708,
        "ittle": 8045,
        "野": 717,
        "-r": 8757,
        "ilitas": 22217,
        "▁Jain": 18973,
        "▁comedy": 15000,
        "▁Conference": 13167,
        "apus": 17812,
        "-11": 29896,
        "▁\"ter": 31777,
        "▁tertentu": 12075,
        "▁Fine": 30358,
        "▁folk": 17170,
        "agr": 15245,
        "▁open": 7174,
        "▁Batavia": 20639,
        "▁push": 22919,
        "▁tiba": 14794,
        "▁Acc": 8100,
        "udi": 6421,
        "▁piece": 12892,
        "ك": 269,
        "▁granted": 14953,
        "▁suci": 16839,
        "▁enlist": 19709,
        "▁Matemat": 23197,
        "▁invent": 22886,
        "orney": 17520,
        "▁prol": 19483,
        "▁examination": 27196,
        "▁Miranda": 28509,
        "▁Chang": 18753,
        "▁ES": 30231,
        "tures": 12248,
        "aily": 11394,
        "▁Kecil": 23510,
        "▁91": 18122,
        "希": 1673,
        "▁02": 20528,
        "▁berapi": 31605,
        "isition": 23531,
        "▁conn": 9357,
        "▁Maka": 18322,
        "▁Oklahoma": 20655,
        "lim": 8149,
        "ina": 6298,
        "▁graf": 19766,
        "▁Gang": 20544,
        "▁Freeway": 28209,
        "▁crown": 18326,
        "艾": 4691,
        "▁Pruss": 25274,
        "▁(189": 26749,
        "▁confused": 27576,
        "▁Obat": 29457,
        "▁π": 31165,
        "吸": 4803,
        "▁report": 7354,
        "idium": 19585,
        "'s": 7223,
        "▁Headley": 28542,
        "ሃ": 5321,
        "寂": 1659,
        "▁menjelaskan": 13351,
        "ursus": 23360,
        "/d": 18005,
        "▁emerging": 30484,
        "잠": 4640,
        "颍": 3532,
        "▁Environmental": 28409,
        "莉": 4488,
        "▁lines": 10928,
        "▁SK": 15054,
        "isch": 24277,
        "▁proportion": 27516,
        "▁depend": 17958,
        "ح": 303,
        "eft": 7452,
        "▁infant": 30822,
        "▁ghost": 30779,
        "膳": 5373,
        "▁relatively": 13396,
        "▁Legacy": 18497,
        "▁akan": 6267,
        "豁": 1171,
        "𐊫": 5221,
        "▁batted": 23632,
        "視": 4321,
        "賈": 3309,
        "▁keluarganya": 17513,
        "▁distinction": 27688,
        "▁uns": 9523,
        "▁Convers": 28083,
        "▁arist": 23966,
        "▁19.": 24662,
        "▁Sisilia": 31134,
        "▁bangsa": 10668,
        "怒": 5082,
        "▁Radio": 11317,
        "悩": 4547,
        "▁hosts": 21121,
        "dale": 16863,
        "▁believ": 8318,
        "ฟ": 3458,
        "▁ch": 5878,
        "ingu": 11593,
        "ław": 15743,
        "▁1892": 21253,
        "▁Santo": 13061,
        "▁Spec": 11859,
        "erimaan": 23595,
        "▁plum": 26623,
        "▁fragment": 26624,
        "ogi": 18929,
        "▁fan": 13901,
        "awaran": 16745,
        "▁Cz": 17739,
        "b.": 26359,
        "inter": 15023,
        "▁Jennifer": 23059,
        "▁eleg": 29355,
        "▁planes": 31301,
        "逢": 1939,
        "▁1867": 26744,
        "멸": 3311,
        "▁\"R": 13522,
        "▁(2019": 23192,
        "▁Wid": 14998,
        "▁Tud": 30183,
        "▁trained": 18735,
        "▁liga": 16032,
        "▁Pry": 28569,
        "社": 1211,
        "▁Diponegoro": 25295,
        "▁Shu": 25893,
        "▁Rai": 27467,
        "yright": 29404,
        "▁Hers": 25025,
        "▁Wein": 28035,
        "▁penjelasan": 22918,
        "ensif": 22722,
        "▁papers": 23448,
        "urasi": 26643,
        "▁Twenty": 26567,
        "gg": 11021,
        "-200": 12237,
        "▁Ward": 15996,
        "外": 1769,
        "mun": 18429,
        "▁Agre": 27906,
        "▁productions": 26181,
        "▁sendiri,": 13732,
        "▁affair": 21752,
        "▁ada,": 25187,
        "▁Kaj": 27299,
        "ithe": 31732,
        "▁survey": 14088,
        "umbu": 16830,
        "▁Hog": 20902,
        "ek": 5699,
        "raft": 29879,
        "chool": 6772,
        "▁44": 12122,
        "▁lain-lain.": 21439,
        "min": 6544,
        "cepat": 29110,
        "▁HMS": 14358,
        "amping": 14918,
        "棒": 5125,
        "phere": 14462,
        "alahkan": 10206,
        "▁meraih": 10084,
        "lis": 14366,
        "倉": 1676,
        "▁pengund": 21276,
        "Und": 16715,
        "▁controvers": 13297,
        "▁Nikolai": 31924,
        "▁astr": 13903,
        "▁Cina": 18510,
        "▁counties": 21466,
        "▁crowds": 31570,
        "廚": 3558,
        "▁Eb": 21099,
        "▁nektar": 21315,
        "eksp": 20813,
        "▁Park": 7599,
        "▁Michael": 8358,
        "evel": 6345,
        "▁lainnya": 7720,
        "▁Kang": 17429,
        "▁6.": 15763,
        "▁fasc": 23685,
        "▁pec": 10284,
        "٠": 5074,
        "▁kaum": 11044,
        "▁Avenue": 13481,
        "س": 419,
        "▁sexually": 30412,
        "▁Sarah": 15179,
        "滋": 5540,
        "▁khawatir": 30592,
        "▁creation": 15218,
        "ទ": 1375,
        "▁kata": 8314,
        "umbled": 28500,
        "持": 4936,
        "▁Juli": 8158,
        "器": 1341,
        "ꦶ": 338,
        "he,": 26384,
        "逓": 542,
        "▁fun": 11620,
        "▁Butler": 20465,
        "▁Bush": 13706,
        "▁historical": 14563,
        "▁legal": 12687,
        "箫": 5201,
        "▁VIII": 19200,
        "▁berharap": 25324,
        "usn": 25089,
        "▁1820": 28671,
        "uster": 14825,
        "▁Hebrew": 21139,
        "의": 1641,
        "apaian": 30692,
        "▁cavalry": 16419,
        "▁sports": 14690,
        "▁surviving": 18042,
        "▁pedes": 19489,
        "▁(1993)": 24835,
        "რ": 1387,
        "▁defensive": 16133,
        "etime": 19520,
        "▁Keluarga": 14714,
        "▁Big": 10612,
        "▁Eug": 14784,
        "▁instruc": 15812,
        "▁shale": 22834,
        "▁bersenjata": 21934,
        "噂": 589,
        "▁overseas": 22459,
        "imb": 6949,
        "a-desa": 31582,
        "▁juta.": 22541,
        "输": 2491,
        "▁Toh": 30905,
        "▁Potter": 20773,
        "▁Bait": 23495,
        "▁serikat": 26783,
        "▁Babel": 30910,
        "క": 3718,
        "▁bulan.": 21845,
        "▁Finn": 17149,
        "ъ": 659,
        "▁Belarus": 30235,
        "ܬ": 2405,
        "ษ": 3787,
        "▁provinsi": 8814,
        "asi.": 10007,
        "건": 3139,
        "ince": 6751,
        "isip": 11651,
        "ana,": 18988,
        "Ἐ": 5174,
        "▁membawakan": 21842,
        "▁convert": 27983,
        "▁tercantum": 31481,
        "▁CS": 19645,
        "—A": 28414,
        "jib": 29590,
        "裂": 2576,
        "ilding": 15299,
        "▁Herz": 18116,
        "=": 89,
        "-pen": 24313,
        "ำ": 2572,
        "▁few": 8102,
        "▁expansion": 14713,
        "esokan": 27317,
        "워": 2701,
        "龟": 3502,
        "▁general": 7703,
        "araj": 17700,
        "Ō": 409,
        "享": 3524,
        "▁Communist": 23442,
        "GS": 28526,
        "▁wahana": 31658,
        "elir": 27076,
        "▁exposure": 23504,
        "▁optim": 23957,
        "▁scrip": 23936,
        "▁Golkar": 31639,
        "▁ladang": 27624,
        "▁akademik": 29716,
        "별": 3399,
        "▁baju": 26509,
        "▁75": 10252,
        "▁Number": 22449,
        "▁complaints": 28770,
        "▁aman": 16877,
        "▁Feat": 29202,
        "ati.": 24065,
        "ice": 6076,
        "ekaran": 20957,
        "▁pegunungan": 16912,
        "▁kariernya": 17538,
        "idikan": 7185,
        "ooking": 18892,
        "▁escorted": 25685,
        "▁90": 10452,
        "▁Persian": 20052,
        "▁uang": 11307,
        "▁claims": 15018,
        "▁boneka": 26017,
        "›": 4889,
        "▁basa": 30768,
        "▁militia": 23095,
        "▁berkec": 31204,
        "▁composed": 12285,
        "▁Baseball": 20042,
        "angkal": 18201,
        "tons": 27310,
        "▁high": 6540,
        "▁Nelson": 17216,
        "▁reaktor": 28470,
        "▁chart": 8756,
        "▁Indianapolis": 28833,
        "▁characters": 8909,
        "▁minum": 22382,
        "▁Glor": 27557,
        "▁thro": 28345,
        "▁menjauh": 31080,
        "▁completed": 9484,
        "송": 2849,
        "ٰ": 454,
        "▁philos": 14836,
        "▁conceived": 24607,
        "▁future": 10914,
        "ᬮ": 2557,
        "▁employ": 10109,
        "=\"": 6466,
        "sburg": 20007,
        "▁data": 9186,
        "▁Mov": 11120,
        "附": 2201,
        "▁Four": 12053,
        "▁peralatan": 15184,
        "▁react": 16616,
        "▁Anugerah": 27922,
        "▁Abby": 31801,
        "▁penyiar": 28292,
        "unia": 6673,
        "edi": 8626,
        "ʽ": 2189,
        "▁perd": 8530,
        "ayani": 12397,
        "▁(196": 10954,
        "竖": 5389,
        "▁habitat": 14032,
        "uny": 11235,
        "anggal": 27051,
        "▁jangkauan": 30859,
        "ី": 1380,
        "懂": 5370,
        "▁2011.": 14063,
        "▁MacL": 27834,
        "ʢ": 4972,
        "so": 6019,
        "▁romantic": 18882,
        "urah": 22551,
        "東": 2073,
        "▁(S": 7571,
        "▁Systems": 25809,
        "▁bypass": 21728,
        "▁magnet": 21232,
        "▁Start": 24484,
        "▁Melayu": 12505,
        "-G": 13321,
        "▁Cosm": 31923,
        "▁abs": 10145,
        "ihara": 21828,
        "▁1858": 29251,
        "▁Maros": 21632,
        "changed": 26621,
        "▁lemur": 28164,
        "▁conservation": 22787,
        "▁mort": 16314,
        "▁bersatu": 26146,
        "▁Machine": 25728,
        "▁dipasang": 20918,
        "cements": 22232,
        "▁(Pers": 28825,
        "▁melakukan": 7423,
        "aug": 19900,
        "▁United": 6651,
        "▁nuklir": 15951,
        "伟": 4140,
        "romosom": 29179,
        "▁Lima": 19781,
        "▁votes": 20394,
        "▁refl": 12389,
        "▁tahun": 5807,
        "▁Pahlawan": 23538,
        "▁enjoy": 13174,
        "▁Eff": 19027,
        "ﺘ": 632,
        "▁sinetron": 19330,
        "妹": 1055,
        "▁Link": 24371,
        "alah": 5741,
        "ukuran": 9602,
        "▁significance": 24123,
        "级": 1706,
        "ڪ": 5113,
        "▁kh": 7328,
        "▁terdapat": 7639,
        "▁prisoner": 25489,
        "▁ro": 5959,
        "٤": 4852,
        "▁branches": 25067,
        "칠": 1907,
        "纸": 5452,
        "▁arranged": 16507,
        "asus": 23285,
        "军": 3205,
        "▁girl": 10966,
        "▁Amaz": 18344,
        "▁1984,": 29039,
        "▁spirit": 20124,
        "▁Triple": 23572,
        "▁supposed": 17401,
        "▁Male": 26956,
        "▁Architect": 24536,
        "okan": 11258,
        "▁Call": 15584,
        "▁Ibu": 12652,
        "ology": 7685,
        "luk": 11488,
        "▁SF": 27987,
        "▁Ext": 25148,
        "▁Batalyon": 22259,
        "antle": 27552,
        "˥": 3795,
        "self": 8746,
        "antor": 9567,
        "▁theatr": 22520,
        "▁Republ": 7313,
        "▁sehari": 15747,
        "▁eyes": 16106,
        "▁Mesopotam": 27976,
        "▁storm": 7944,
        "urt": 14787,
        "▁li": 25664,
        "雑": 334,
        "wakil": 10294,
        "▁\"An": 30417,
        "▁Kelapa": 29061,
        "▁traum": 25490,
        "巫": 977,
        "abaya": 11215,
        "▁dirilis": 8170,
        "▁class=\"note\"": 8731,
        "▁catatan": 12947,
        "6)": 8049,
        "▁applic": 15303,
        "▁Harold": 19568,
        "▁hippocamp": 30482,
        "▁set": 5982,
        "ian": 5708,
        "▁Tara": 31877,
        "uno": 22168,
        "▁apart": 12894,
        "arikh": 24251,
        "▁Lem": 15791,
        "መ": 5320,
        "▁numerous": 12192,
        "▁animasi": 17044,
        "막": 4831,
        "タ": 741,
        "▁Works": 19301,
        "▁dewasa": 13324,
        "▁without": 8221,
        "▁Onthophagus": 19400,
        "▁ste": 12989,
        "▁hidrogen": 24212,
        "隋": 4751,
        "apt": 8839,
        "雨": 2300,
        "▁duduk": 15770,
        "▁Front": 13531,
        "orra": 25530,
        "▁2016.": 14926,
        "▁Nak": 16796,
        "iapkan": 16549,
        "▁Executive": 23452,
        "▁starting": 13006,
        "lus": 8823,
        "▁attached": 18094,
        "▁biasa.": 24596,
        "usus,": 26488,
        "琦": 3312,
        "/20": 29301,
        "famil": 28908,
        "新": 962,
        "uz": 8143,
        "▁fail": 11836,
        "▁mereka": 6184,
        "intasi": 18749,
        "▁airfield": 24044,
        "i\"": 29441,
        "⅔": 4638,
        "▁flo": 19065,
        "▁Us": 9378,
        "ὀ": 3966,
        "rut": 21678,
        "orejo": 27525,
        "oon": 7379,
        "und": 5992,
        "▁usual": 22086,
        "foundland": 27990,
        "濱": 5282,
        "1.": 8782,
        "▁stop": 10298,
        "anto": 12900,
        "ocese": 23768,
        "erto": 12282,
        "vas": 29576,
        "▁propaganda": 24593,
        "术": 2589,
        "▁Maria": 11096,
        "▁Mega": 18777,
        "▁Encyclop": 16644,
        "▁Orb": 28274,
        "▁economy": 15696,
        "▁terbaru": 20537,
        "▁Student": 29325,
        "▁Majapahit": 31079,
        "▁Bahan": 20163,
        "▁Yahudi,": 29963,
        "▁Arya": 31873,
        "ៃ": 3036,
        "alam": 5767,
        "▁Suh": 23910,
        "▁tangk": 17387,
        "uc": 5811,
        "mer": 5887,
        "▁kosm": 31045,
        "angkaian": 12284,
        "▁Pike": 28376,
        "▁discussing": 28144,
        "▁fase": 18830,
        "achne": 23798,
        "▁turnamen": 13514,
        "▁sometimes": 10924,
        "lying": 10386,
        "韩": 2303,
        "𐌣": 4645,
        "▁Ban": 13001,
        "ekerj": 9373,
        "ﻁ": 1213,
        "慎": 5184,
        "▁reality": 17671,
        "▁cub": 23693,
        "▁continental": 28194,
        "Ӥ": 3942,
        "▁mundur": 17748,
        "▁latar": 15461,
        "▁Egyptian": 18534,
        "won": 26950,
        "头": 3254,
        "rane": 10985,
        "º": 279,
        "鶯": 4478,
        "𐊼": 5070,
        "//": 10463,
        "▁sevent": 12806,
        "▁aimed": 22933,
        "▁bisnis": 11876,
        "達": 571,
        "▁alam,": 30046,
        "儿": 3488,
        "▁Motors": 21801,
        "▁ker": 6256,
        "▁ever": 9822,
        "▁1870": 22277,
        "▁Book": 9699,
        "፡": 4658,
        "utes": 8401,
        "ebab": 7156,
        "▁tours": 25820,
        "▁merasa": 12594,
        "aya.": 26034,
        "▁eagle": 30204,
        "▁berakhir": 10478,
        "▁Admiralty": 30902,
        "▁maint": 19410,
        "▁Top": 10743,
        "▁Kel": 7298,
        "ray": 18665,
        "▁tape": 26218,
        "S": 66,
        "▁(1994)": 24161,
        "ṭ": 193,
        "▁lear": 10575,
        "▁bandar": 21028,
        "▁publish": 22698,
        "▁Transport": 12664,
        "▁Steel": 18168,
        "ណ": 1381,
        "賃": 4385,
        "organ": 11663,
        "▁Obs": 15149,
        "▁bawah": 7253,
        "▁ministers": 29833,
        "▁lingu": 24053,
        "▁Manusia": 17716,
        "▁feeling": 18229,
        "ṳ": 3946,
        "ꦩ": 782,
        "yawa": 12524,
        "▁Hond": 17515,
        "angdut": 25212,
        "pon": 12419,
        "▁bioskop": 24433,
        "▁author": 8592,
        "iffer": 26463,
        "▁Hills": 19704,
        "▁Dong": 16589,
        "▁univers": 8783,
        "▁Craw": 27374,
        "▁kebanyakan": 13857,
        "▁perkot": 23565,
        "acent": 18597,
        "▁PB": 26746,
        "otop": 15838,
        "▁tarik": 27794,
        "착": 5261,
        "▁Stewie": 26736,
        "▁harbor": 31268,
        "▁(peng": 29920,
        "▁176": 15671,
        "RA": 12325,
        "▁decompression": 27156,
        "▁\"t": 13961,
        "▁DC": 15997,
        "itab": 7977,
        "▁Edition": 17443,
        "▁Vin": 26284,
        "▁television": 8995,
        "▁Nom": 25760,
        "▁Porifera,": 28363,
        "▁memperhatikan": 26452,
        "ぬ": 4860,
        "achi": 17410,
        "▁Æ": 18444,
        "梶": 4773,
        "▁Sports": 15853,
        "right": 9875,
        "▁Mason": 22176,
        "▁associate": 30140,
        "▁reviewers": 19986,
        "▁aff": 8372,
        "鄧": 4749,
        "▁(2004)": 20126,
        "▁park": 10466,
        "▁Juan": 14803,
        "▁Sayang": 24422,
        "▁ven": 15007,
        "▁Timur.": 12720,
        "uksi": 11144,
        "/km": 23489,
        "▁serangkaian": 17153,
        "▁who": 6130,
        "▁É": 17242,
        "aktifkan": 27875,
        "emen": 6831,
        "▁accurate": 25749,
        "岳": 4956,
        "esak": 26216,
        "▁allies": 22657,
        "ellect": 21195,
        "サ": 740,
        "omi": 12343,
        "▁bir": 9942,
        "▁Publish": 20970,
        "▁owing": 29673,
        "怖": 2307,
        "▁charg": 12339,
        "likasi": 11298,
        "▁Rac": 13224,
        "▁dist": 7921,
        "▁tahu": 14285,
        "▁aim": 16286,
        "▁Other": 9744,
        "▁Keith": 19515,
        "▁|J": 21714,
        "▁proof": 24431,
        "̃": 2409,
        "▁nominations": 23673,
        "▁Meh": 24659,
        "▁cu": 18920,
        "▁enorm": 30155,
        "머": 4022,
        "ifer": 14579,
        "elih": 15031,
        "杀": 2496,
        "▁shock": 22015,
        "▁teor": 29208,
        "tained": 11147,
        "亦": 5547,
        "▁proper": 17690,
        "▁Simon": 14212,
        "vensi": 16265,
        "alays": 30262,
        "▁kandung": 22542,
        "知": 1614,
        "▁Caroline": 26127,
        "▁sisters": 22402,
        "皋": 4806,
        "銅": 1747,
        "ehatan": 9424,
        "▁Minahasa": 24310,
        "ೆ": 2883,
        "▁Golk": 27529,
        "imes": 9470,
        "▁Rein": 31077,
        "▁Halte": 28170,
        "例": 4793,
        "伍": 5262,
        "▁breed": 11167,
        "▁Anna": 13988,
        "▁pes": 7107,
        "▁800": 13395,
        "▁Room": 22295,
        "o)": 16370,
        "▁consider": 11710,
        "▁group": 7108,
        "▁Sriwijaya": 31552,
        "Ꚃ": 3970,
        "▁produc": 6555,
        "▁Para": 9645,
        "▁biography": 21859,
        "学": 1873,
        "ರ": 3455,
        "▁pew": 19507,
        "▁Sel": 6170,
        "▁gun": 7332,
        "KB": 14049,
        "▁challenges": 26084,
        "IP": 25613,
        "▁ensuing": 29945,
        "ong.": 16911,
        "▁Follow": 9838,
        "istory": 7010,
        "▁Cher": 16501,
        "▁Audio": 30389,
        "▁Tyrann": 23982,
        "▁boundary": 21826,
        "▁Bess": 31746,
        "▁III.": 31919,
        "▁features": 9513,
        "▁Laboratory": 20756,
        "▁1868": 28066,
        "â": 262,
        "▁information": 11050,
        "▁Stage": 21040,
        "▁Press": 8644,
        "emah": 31382,
        "ographer": 16762,
        "obatan": 14159,
        "rec": 15503,
        "▁rentang": 29697,
        "abil": 9680,
        "▁Dim": 16737,
        "elling": 9076,
        "▁PL": 19884,
        "▁assessment": 29337,
        "▁orang.": 14958,
        "▁Gott": 25412,
        "▁dwarf": 31088,
        "方": 1080,
        "▁mathemat": 21503,
        "stitu": 30977,
        "▁trying": 14808,
        "▁DPR": 10751,
        "▁Taman": 11908,
        "▁Hay": 12509,
        "usan": 7103,
        "▁(K": 8486,
        "▁releasing": 28148,
        "▁Hem": 23178,
        "狗": 3082,
        "▁spokes": 27675,
        "ャ": 874,
        "ই": 1364,
        "▁Various": 29382,
        "▁advoc": 21124,
        "ukup": 8157,
        "▁like": 7345,
        "▁lagu": 7060,
        "Ӡ": 3024,
        "▁kapasitas": 16274,
        ":00": 20289,
        "▁hilang": 16640,
        "▁keter": 22212,
        "ẏ": 3833,
        "MS": 10223,
        "▁(film": 25073,
        "erluan": 23502,
        "": 800,
        "▁cycle": 19085,
        "기": 628,
        "ski": 13568,
        "▁Java": 22210,
        "▁taking": 10358,
        "▁impossible": 21189,
        "atang": 12896,
        "enium": 30238,
        "▁kil": 9295,
        "▁meant": 12326,
        "ber": 8223,
        "▁dicapai": 23103,
        "unjungi": 14491,
        "▁Church": 9457,
        "emat": 10799,
        "cott": 22721,
        "▁Malaysia": 10267,
        "na": 6735,
        "▁inner": 18352,
        "▁external": 23851,
        "▁chapter": 18393,
        "▁play": 6175,
        "▁Putra": 15585,
        "▁rook": 27586,
        "г": 438,
        "embangan": 8257,
        "환": 3822,
        "▁asl": 13989,
        "叔": 4076,
        "▁(j": 14271,
        "▁deleg": 15966,
        "▁complicated": 26563,
        "▁artef": 28787,
        "▁Dry": 27679,
        "▁merged": 26593,
        "▁interview": 10226,
        "▁Sub": 9639,
        "ﻡ": 3926,
        "감": 3069,
        "▁exped": 13360,
        "▁atas": 6614,
        "▁Cook": 16031,
        "▁locomot": 20383,
        "▁win": 8243,
        "▁Perm": 11130,
        "準": 2656,
        "iyah": 11715,
        "-A": 8908,
        "▁realiz": 26846,
        "▁around": 7306,
        "MP": 17495,
        "灾": 5233,
        "▁Observatory": 28171,
        "ค": 2168,
        "olitan": 13255,
        "▁faith": 16946,
        "私": 2275,
        "usters": 21367,
        "alian": 13020,
        "▁cert": 14583,
        "▁glac": 28809,
        "▁Abrams": 30370,
        "庫": 4343,
        "ito": 11600,
        "▁bantuan": 11870,
        "echan": 12533,
        "▁staff": 11155,
        "₤": 3905,
        "▁repeated": 15304,
        "▁Agrilus": 16465,
        "▁Judah": 28772,
        "eptunus": 20312,
        "ations": 6108,
        "intu": 12417,
        "▁Texas": 11018,
        "apit": 28960,
        "▁Paus": 11407,
        "▁MH": 23981,
        "▁Constant": 13978,
        "▁compensation": 31988,
        "▁melawan": 8843,
        "▁jen": 28637,
        "▁Yos": 18942,
        "체": 4053,
        "▁melahirkan": 17487,
        "砂": 3265,
        "▁Vos": 30578,
        "▁Grup": 11214,
        "emic": 21941,
        "-23": 24389,
        "▁direct": 7580,
        "▁gam": 11968,
        "▁diawali": 28510,
        "▁Brit": 6461,
        "▁stability": 29313,
        "▁tua": 11619,
        "▁refugees": 27756,
        "▁fusion": 31963,
        "▁dipenj": 29324,
        "antu": 8274,
        "ekusi": 24372,
        "▁woman": 11574,
        "film": 14861,
        "eenth": 18508,
        "▁sehari-h": 27436,
        "▁inaug": 20733,
        "on": 5588,
        "▁diseases": 31009,
        "umber": 6353,
        "▁phen": 25454,
        "▁bukti": 14406,
        "arungan": 24691,
        "▁Meteorological": 25553,
        "እ": 3699,
        "▁difusi.": 18047,
        "▁2002.": 18430,
        "▁Norfolk": 25325,
        "▁below": 12442,
        "▁casting": 23846,
        "▁(w": 18893,
        "永": 2069,
        "▁Surya": 23879,
        "ief": 7818,
        "▁Jacob": 14561,
        "atalyon": 20925,
        "▁setempat.": 26268,
        "▁berpart": 15020,
        "vention": 12526,
        "▁went": 8524,
        "ima": 6517,
        "isipasi": 13190,
        "▁bacteria": 24541,
        "▁Files": 21154,
        "▁ties": 27181,
        "ฒ": 3802,
        "▁burn": 12349,
        "𐊺": 2110,
        "▁Halif": 25227,
        "▁final": 6809,
        "▁(G": 11176,
        "馮": 4327,
        "iam": 6813,
        "▁Af": 11406,
        "▁umumnya,": 12446,
        "襖": 4747,
        "▁Laks": 20661,
        "▁Bolesław": 24411,
        "▁Brandon": 23040,
        "▁|L": 24740,
        "想": 1719,
        "▁dikirim": 14098,
        "abatan": 8772,
        "▁Bosnia": 17871,
        "umberland": 24953,
        "▁Roberts": 18849,
        "GB": 18109,
        "▁Prab": 30857,
        "assy": 24670,
        "▁Mod": 8980,
        "▁pelanggaran": 24701,
        "名": 2998,
        "iwara": 27146,
        "va": 7791,
        "٣": 5075,
        "▁uskup": 16792,
        "▁observed": 12943,
        "▁Khmer": 28370,
        "▁traffic": 13047,
        "▁explor": 14336,
        "▁Kans": 15820,
        "▁keberhasilan": 25862,
        "斯": 510,
        "▁tank": 10508,
        "▁court": 10211,
        "▁language": 11119,
        "▁Germany": 9836,
        "▁contoh": 11336,
        "▁option": 19758,
        "对": 2981,
        "ī": 263,
        "▁term": 7830,
        "emon": 26775,
        "etch": 16704,
        "▁unsur-unsur": 26205,
        "頂": 3227,
        "▁deliber": 21551,
        "▁ancient": 14457,
        "▁terpisah": 16174,
        "▁pemrograman": 29012,
        "berry": 21812,
        "▁Nigeria": 24154,
        "▁build": 7393,
        "ocalyp": 30284,
        "▁bertanya": 30867,
        "▁ts": 18274,
        "▁Munisipalitas": 21069,
        "▁2024": 27383,
        "▁unclear": 24222,
        "elaj": 10274,
        "▁them": 6422,
        "▁termasuk": 7166,
        "兰": 5472,
        "▁Finally": 24674,
        "▁menonjol": 22847,
        "▁ordered": 10376,
        "▁Wayne": 21385,
        "▁trav": 8707,
        "▁Throughout": 16908,
        "달": 4274,
        "▁52": 13995,
        "▁preserve": 27481,
        "▁Bac": 10527,
        "▁Guru": 15410,
        "apuskan": 29087,
        "▁frame": 21674,
        "▁mitologi": 23269,
        "을": 2337,
        "工": 2149,
        "▁seriously": 23698,
        "▁37": 11053,
        "▁(R": 10035,
        "▁slopes": 31432,
        "asing": 9002,
        "▁intr": 15484,
        "her": 5922,
        "▁kampus": 21718,
        "之": 838,
        "ก": 2545,
        "ahaya": 10608,
        "ujung": 21729,
        "▁Cardinals": 29499,
        "▁Market": 19440,
        "aris": 7202,
        "coming": 19921,
        "ී": 3348,
        "erej": 15183,
        "▁Cran": 27832,
        "▁confined": 31750,
        "လ": 2186,
        "▁kidn": 25662,
        "▁1985.": 28869,
        "▁Round": 23287,
        "९": 3750,
        "ut,": 12816,
        "▁Teori": 17631,
        "agor": 31869,
        "insey": 28548,
        "▁memicu": 22109,
        "▁Di": 6274,
        "▁lingkup": 26793,
        "▁unt": 5779,
        "adow": 16719,
        "akin": 8667,
        "נ": 709,
        "▁Filmfare": 26751,
        "–200": 14990,
        "▁Chir": 23950,
        "▁Discovery": 24686,
        "▁retained": 17606,
        "▁week": 8323,
        "▁constructed": 12522,
        "egan": 15703,
        "▁XX": 19721,
        "▁kompilasi": 27437,
        "ὡ": 3362,
        "▁Seorang": 13929,
        "▁caus": 8056,
        "jin": 30712,
        "ester": 14473,
        "岬": 3299,
        "ED": 17910,
        "▁MB": 26705,
        "▁CEO": 17950,
        "▁developed": 8954,
        "▁resist": 13990,
        ".000": 7788,
        "▁Viv": 26586,
        "느": 4611,
        "encing": 18464,
        "▁berlatih": 29949,
        "ebook": 13807,
        "▁Publ": 9294,
        "▁spektrum": 31472,
        "Û": 4887,
        "ia,": 6433,
        "▁1980.": 28599,
        "▁Watch": 17852,
        "▁no.": 25722,
        "▁berhadapan": 30225,
        "▁Blake": 25955,
        "▁Contohnya": 31003,
        "70": 9938,
        "▁blood": 13213,
        "asket": 11834,
        "串": 5193,
        "▁came": 8048,
        "▁Czech": 21977,
        "氐": 3894,
        "▁kebangkitan": 27973,
        "ege": 14365,
        "▁Win": 11306,
        "▁Wol": 19102,
        "▁appropriate": 25172,
        "eskr": 17457,
        "▁recurring": 26889,
        "▁towards": 10024,
        "olition": 22160,
        "▁Cort": 27283,
        "ulp": 15359,
        "▁transm": 14857,
        "▁(1999)": 22592,
        "▁larangan": 25853,
        "ourse": 27658,
        "▁film,": 20754,
        "▁Wolver": 28838,
        "▁maintenance": 20322,
        "▁fill": 24780,
        "▁Dep": 7928,
        "atif,": 28216,
        "颉": 1451,
        "▁Mat": 8555,
        "erties": 16222,
        "usty": 25326,
        "ila": 8222,
        "▁teratur": 25463,
        "empa": 14187,
        "▁Les": 11568,
        "enaikan": 23993,
        "▁settle": 30097,
        "▁Waktu": 18759,
        "awe": 31235,
        "icide": 17757,
        "▁OK": 27846,
        "ring": 8750,
        "板": 4225,
        "▁kesehatan": 11384,
        "8)": 7890,
        "iawan": 21093,
        "nut": 31208,
        "▁Laf": 22378,
        "ubah": 7412,
        "▁watershed": 29856,
        "̞": 2724,
        "▁swall": 30001,
        "▁und": 7850,
        "▁brick": 21710,
        "front": 13986,
        "▁yang": 5662,
        "▁things": 13137,
        "AR": 8123,
        "▁Lapangan": 18358,
        "▁baik,": 20899,
        "▁undergo": 30583,
        "▁Berbagai": 20550,
        "丽": 4736,
        "ulf": 9739,
        "カ": 944,
        "▁Scientology": 25539,
        "rak": 25880,
        "-V": 19124,
        "▁dik": 6102,
        "隹": 3526,
        "bro": 17376,
        "▁dasarnya": 24575,
        "emy": 11069,
        "▁centers": 24516,
        "lets": 18157,
        "▁males": 16764,
        "▁1800": 20779,
        "ives": 7289,
        "欖": 2172,
        "▁pip": 14790,
        "▁Wald": 25752,
        "봉": 4099,
        "▁fiction": 11422,
        "▁tari": 19307,
        "vana": 25209,
        "蟄": 4674,
        "▁Jenn": 11877,
        "▁unw": 24416,
        "▁shoot": 11517,
        "▁tinggi": 7929,
        "▁allied": 31611,
        "胡": 508,
        "ota,": 30090,
        "호": 1146,
        "uluki": 22996,
        "▁Final": 9594,
        "▁Rook": 28022,
        "berg": 8710,
        "▁extensively": 25494,
        "▁Taur": 22074,
        "▁pasien": 20710,
        "▁dism": 13103,
        "▁Masalah": 24252,
        "▁Meja": 27306,
        "ma": 7378,
        "0-an": 11907,
        "▁Oklah": 19799,
        "ensively": 22365,
        "ahbis": 28005,
        "▁Sand": 11166,
        "▁Federer": 21509,
        "▁Sleep": 29854,
        "▁Plate": 30070,
        "▁Wash": 8729,
        "ó": 106,
        "▁capacity": 15022,
        "▁very": 7949,
        "英": 3370,
        "orship": 14181,
        "립": 1102,
        "▁Street": 8691,
        "▁Beliau": 27818,
        "▁disag": 20945,
        "万": 468,
        "국": 2291,
        "ahkan": 7028,
        "▁buildings": 11373,
        "▁populer": 11786,
        "iasi": 25705,
        "▁Politics": 27745,
        "▁Junior": 16617,
        "▁scenes": 11789,
        "▁G.,": 7600,
        "▁hendak": 22071,
        "▁debt": 25687,
        "▁gauge": 27225,
        "▁berkeb": 14593,
        "▁wisat": 24226,
        "ᨙ": 195,
        "ں": 3446,
        "ampak": 10570,
        "▁George": 8115,
        "▁Sydney": 12831,
        "▁Mex": 9871,
        "▁mutl": 11843,
        "oyal": 15635,
        "▁have": 6097,
        "ekut": 11749,
        "inggu.": 17986,
        "▁Arif": 27487,
        "▁diwakil": 28063,
        "▁Roma.": 27311,
        "aceous": 26425,
        "▁discuss": 11161,
        "ʡ": 5094,
        "▁(9": 21529,
        "绥": 5525,
        "ebar": 9632,
        "po": 24034,
        "쉬": 2062,
        "ម": 2808,
        "▁Teknik": 13496,
        "▁fils": 15308,
        "▁Aman": 19847,
        "▁Representatives": 26126,
        "▁Barrett": 26934,
        "▁menghind": 15918,
        "▁contrib": 10233,
        "itis": 14546,
        "▁advocated": 30512,
        "▁beaut": 16038,
        "▁1988.": 25848,
        "▁tom": 29302,
        "▁pasar": 11722,
        "▁racing": 21734,
        "봐": 4066,
        "▁Twin": 26570,
        "▁rul": 8863,
        "▁Semarang.": 30929,
        "ँ": 4126,
        "暖": 4708,
        "▁Paraly": 21819,
        "▁Hag": 27621,
        "▁kill": 7682,
        "▁olahraga": 13173,
        "ana": 6025,
        "▁gelar": 8846,
        "ved": 16376,
        "▁Mold": 22680,
        "▁ve": 22736,
        "▁Balapan": 30710,
        "▁pant": 20731,
        "▁kreatif": 25630,
        "դ": 5283,
        "oly": 25401,
        "▁kip": 28344,
        "▁Vaugh": 30409,
        "▁pajak": 19677,
        "▁2)": 28237,
        "▁asks": 20712,
        "kare": 29794,
        "▁search": 13157,
        "▁sejenis": 14564,
        "▁Lincol": 12545,
        "ʎ": 2861,
        "▁Kristen,": 26478,
        "宝": 1097,
        "▁po": 6463,
        "api": 8236,
        "▁pakai": 26546,
        "LC": 17544,
        "▁Campus": 30624,
        "Ս": 947,
        "▁surgery": 22368,
        "▁Aftermath": 22748,
        "▁Bos": 11959,
        "▁opponents": 19267,
        "29": 12396,
        "▁journalist": 19187,
        "umpul": 17069,
        "▁dinyanyikan": 21995,
        "▁Kara": 24797,
        "吹": 2884,
        "董": 1178,
        "▁pup": 18234,
        "▁a.": 21789,
        "▁HIV": 21891,
        "anggotaan": 25146,
        "emukakan": 25307,
        "▁(n": 14619,
        "ါ": 5552,
        "▁Seat": 15881,
        "ause": 6801,
        "▁Petr": 30294,
        "▁environments": 31992,
        "▁Vietn": 14168,
        "朱": 1872,
        "▁2004,": 15846,
        ":2": 29609,
        "▁abandon": 12468,
        "獅": 4885,
        "Ԟ": 5145,
        "▁basin": 24605,
        "ebak": 25575,
        "天": 420,
        "▁Associ": 20499,
        "usuk": 31493,
        "▁foto": 16486,
        "andangan": 18628,
        "eak": 7671,
        "泊": 3397,
        "▁problem": 13650,
        "▁perkawinan": 16665,
        "▁(disingkat": 24075,
        "▁Bradman": 17067,
        "▁compan": 11733,
        "▁Kids": 28431,
        "▁Revol": 29604,
        "ches": 7706,
        "▁Gonz": 20619,
        "▁pend": 6211,
        "環": 3998,
        "▁Aster": 22584,
        "下": 1383,
        "▁Milan": 20405,
        "▁string": 20822,
        "kan,": 13046,
        "▁diam-diam": 29878,
        "Ⴃ": 3376,
        "ᠷ": 4000,
        "含": 3756,
        "▁laid": 14250,
        "▁commissioned": 15723,
        "▁Paris": 10350,
        "▁Chi": 20287,
        "▁2021": 9355,
        "离": 1062,
        "▁arti": 17550,
        "▁Danish": 27666,
        "▁Jennings": 19019,
        "▁Radar": 30304,
        "-peng": 30393,
        "▁pendaratan": 30700,
        "esa": 15025,
        "▁Madonna": 18139,
        "▁Agrom": 21080,
        "▁diadaptasi": 24045,
        "▁western": 10838,
        "▁Sw": 7285,
        "▁Nguy": 28804,
        "慕": 2581,
        "渔": 3062,
        "ꦫ": 787,
        "厕": 4011,
        "▁Heritage": 20076,
        "engkapan": 23082,
        "▁Remix": 26608,
        "▁az": 31307,
        "▁Somalia": 28104,
        "荷": 4209,
        "bins": 30280,
        "ກ": 2383,
        "etap": 6217,
        "ah.": 8181,
        "igala": 31666,
        "▁Helen": 18688,
        "▁tongkat": 30876,
        "▁inst": 7172,
        "▁continuous": 22048,
        "▁Tek": 29085,
        "eko": 27117,
        "▁RBI": 25865,
        "速": 3565,
        "▁NAS": 14235,
        "osed": 8200,
        "▁vot": 26824,
        "▁(200": 7109,
        "▁about": 6443,
        "犯": 366,
        "▁Perl": 18836,
        "isting": 31531,
        "▁performan": 8117,
        "agus": 12971,
        "𐊷": 5285,
        "intai": 20221,
        "赵": 1230,
        "▁jurisdiction": 28580,
        "▁jag": 21539,
        "▁allows": 16802,
        "▁mengor": 23640,
        "▁tunduk": 30884,
        "▁PDI": 30611,
        "▁item": 24639,
        "▁accomp": 10663,
        "ius": 7809,
        "启": 2510,
        "▁Karang": 14625,
        "▁Literature": 25969,
        "ancang": 16947,
        "olves": 16446,
        "▁Mosc": 22683,
        "ising": 10345,
        "evich": 30221,
        "▁Hokkaid": 30627,
        "佐": 1575,
        "▁diplomatik": 22630,
        "织": 816,
        "▁Kalender": 26515,
        "▁RS": 15878,
        "▁penjual": 27377,
        "▁pounder": 27620,
        "▁Bekas": 31107,
        "▁Bolshevik": 31117,
        "▁some": 6643,
        "▁menyeb": 18073,
        "▁retreated": 31402,
        "▁filming": 14957,
        "▁Istri": 16696,
        "▁relev": 22282,
        "▁Oman": 21640,
        "▁Benzema": 31219,
        "ej": 6378,
        "è": 191,
        "ǔ": 875,
        "amatan": 6567,
        "▁convers": 14287,
        "▁acknow": 18441,
        "▁senyawa": 15382,
        "▁Hyd": 25453,
        "▁locomotives": 26578,
        "▁shells": 23166,
        "攻": 4249,
        "▁Perubahan": 18132,
        "▁Chronicle": 22268,
        "▁menguntungkan": 30520,
        "ٍ": 917,
        "擧": 5499,
        "▁Berkah": 28866,
        "lahir": 11718,
        "ingkatan": 10909,
        "▁dimas": 26642,
        "▁kawasan": 9722,
        "▁Muk": 20410,
        "▁Mikhail": 30709,
        "서": 223,
        "faatan": 26066,
        "▁mic": 14237,
        "▁defence": 16811,
        "▁Uzbek": 28654,
        "agon": 8684,
        "▁|D": 31335,
        "▁menandatangani": 15844,
        "▁arsitektur": 16319,
        "阜": 5488,
        "▁Oktober,": 27371,
        "rodus": 27081,
        "iph": 19707,
        "基": 1837,
        "iec": 9061,
        "▁Mel": 7523,
        "▁Vul": 26149,
        "肠": 4008,
        "▁involved": 10126,
        "▁menerbitkan": 15482,
        "▁Perangkat": 21540,
        "▁appear": 6897,
        "▁antara": 6535,
        "支": 3361,
        "▁Chelsea": 22890,
        "▁prominent": 14139,
        "▁They": 7376,
        "▁mask": 14192,
        "▁religious": 12130,
        "orial": 10281,
        "▁assemb": 18490,
        "▁ditemui": 11539,
        "-de": 25929,
        "▁Kartini": 28492,
        "▁Kaum": 26301,
        "▁Yugoslavia": 18115,
        "▁segments": 28561,
        "▁city": 7427,
        "imum": 9939,
        "▁terapi": 29884,
        "▁Democratic": 17257,
        "▁downlo": 16688,
        "▁penari": 24933,
        "▁interaksi": 22293,
        "𐊡": 5325,
        "▁baku": 24399,
        "▁Sek": 7093,
        "▁velocity": 25333,
        "▁beg": 6430,
        "▁tamp": 14426,
        "om,": 25567,
        "▁mines": 21114,
        "N)": 26471,
        "▁(W": 14147,
        "▁sentiment": 30217,
        "▁2001": 7748,
        "▁perasaan": 22993,
        "▁bekerj": 22164,
        "▁presenter": 29704,
        "탈": 3401,
        "𐊛": 4576,
        "style": 17586,
        "▁shop": 17992,
        "▁Melayu,": 31677,
        "▁Suff": 26027,
        "▁'C": 26210,
        "▁fund": 9909,
        "▁exhibition": 22175,
        "▁deep": 11087,
        "jata": 10686,
        "▁Rem": 12183,
        "▁Juga": 20943,
        "▁squadron": 14580,
        "isaran": 9858,
        "▁manusia.": 15249,
        "५": 3746,
        "▁Mor": 8078,
        "▁consistently": 28432,
        "温": 2218,
        "%),": 26233,
        "nah": 29189,
        "selves": 11453,
        "沫": 4753,
        "▁Thai": 23398,
        "orb": 27083,
        "证": 5246,
        "粹": 4761,
        "殘": 5169,
        "▁Siswa": 26422,
        "▁telling": 21271,
        "▁placed": 9913,
        "君": 1558,
        "▁a": 5602,
        "▁eks": 8531,
        "ᨄ": 194,
        "▁kehidup": 26053,
        "▁wave": 15590,
        "▁shr": 18030,
        "鲁": 1975,
        "▁make": 7853,
        "▁transported": 24058,
        "▁Lith": 16433,
        "oar": 23544,
        "▁regardless": 31593,
        "恆": 2251,
        "여": 1160,
        "메": 3594,
        "▁meninggal": 7784,
        "▁Antio": 31212,
        "▁drive": 14176,
        "▁Gay": 19820,
        "▁Argentine": 30995,
        "▁berbasis": 11938,
        "▁Cak": 25057,
        "\").": 18523,
        "汪": 2190,
        "cks": 21590,
        "▁letters": 14156,
        "描": 5275,
        "南": 145,
        "힐": 2262,
        "▁Sign": 18739,
        "▁Buprest": 20012,
        "enal": 6390,
        "▁id=\"": 26349,
        "▁Gong": 29484,
        "师": 2296,
        "▁bers": 6289,
        "▁hor": 10779,
        "▁119": 19982,
        "mph": 17211,
        "▁attributed": 17569,
        "▁Banj": 10531,
        "Ө": 4404,
        "▁mutlaknya": 12379,
        "▁disease": 15317,
        "畳": 5367,
        "▁bed": 14367,
        "▁berbeda,": 21946,
        "▁Hod": 23733,
        "▁romantis": 27130,
        "▁itu": 6048,
        "hire": 9389,
        "rough": 6285,
        "erh": 11001,
        "叶": 2351,
        "▁page": 13841,
        "▁dipisahkan": 24101,
        "▁Ayahnya": 22434,
        "▁get": 8850,
        "▁\"J": 15790,
        "-3": 10712,
        "▁kond": 10088,
        "÷": 3011,
        "▁Hor": 12523,
        "盐": 1627,
        "▁alat": 10815,
        "▁Crystal": 24391,
        "FI": 30195,
        "▁Sa": 7397,
        "br": 16069,
        "▁trans": 6832,
        "▁lanjut": 12611,
        "鹽": 1626,
        "▁Left": 29109,
        "▁Pembangunan": 13719,
        "▁Paul": 7997,
        "▁draw": 9766,
        "▁Ital": 7315,
        "▁Kenneth": 23282,
        "▁blues": 21451,
        "▁promotion": 17549,
        "▁Apabila": 27639,
        "▁menyatakan": 8425,
        "▁genre": 13830,
        "▁Circle": 24810,
        "▁Peng": 6588,
        "▁pun": 7905,
        "asilan": 18041,
        "坊": 3039,
        "▁Armed": 29003,
        "▁keterl": 24767,
        "St": 11548,
        "▁Myrt": 26178,
        "빅": 4872,
        "▁Batak": 21235,
        "▁µ": 29826,
        "▁konsumsi": 26467,
        "▁Hopkins": 31103,
        "alis": 8920,
        "▁1898": 21406,
        "▁Nass": 28991,
        "▁adults": 19401,
        "48": 9338,
        "▁Mulia": 31054,
        "ګ": 308,
        "imat": 18120,
        "道": 1516,
        "ﻟ": 4712,
        "aham": 9181,
        "▁immigrants": 27326,
        "ﻒ": 3576,
        "▁Halaman": 24400,
        "▁Writ": 13150,
        "li": 6236,
        "▁Better": 31086,
        "派": 5442,
        "ize": 8460,
        "▁kompetisi": 12307,
        "RMS": 17969,
        "▁Boot": 27323,
        "DA": 15332,
        "▁ke-6": 22740,
        "▁Fey": 24924,
        "▁emot": 13484,
        "í": 93,
        "커": 4103,
        "▁bat": 7116,
        "b": 41,
        "▁Empire": 11880,
        "bach": 23277,
        "▁Analysis": 31761,
        "ukang": 19356,
        "▁gambaran": 26464,
        "▁managing": 29226,
        "▁assassination": 26735,
        "▁terang": 29092,
        "▁menikah": 9588,
        "조": 1883,
        "▁Golden": 11996,
        "▁wh": 5737,
        "▁Lest": 19714,
        "lier": 27318,
        "橋": 515,
        "▁lokal": 11751,
        "▁Prince": 13090,
        "▁details": 16097,
        "▁libr": 25543,
        "▁CB": 30860,
        "▁inhabited": 31497,
        "erahkan": 12013,
        "57": 25626,
        "▁Frank": 8939,
        "-kitab": 26634,
        "▁heard": 15093,
        "已": 5359,
        "egang": 10254,
        "▁Party": 11033,
        "ظ": 1917,
        "₹": 1977,
        "▁Meng": 10934,
        "▁chairman": 18862,
        "σ": 346,
        "▁menentukan": 13489,
        "▁UN": 11507,
        "▁Though": 13751,
        "▁Blog": 29477,
        "le,": 20395,
        "▁northward": 21351,
        "ien": 11426,
        "▁summary": 28430,
        "▁Uni": 10366,
        "▁sixty": 31705,
        "▁didominasi": 24208,
        "istic": 9638,
        "▁berkembang": 10986,
        "▁loss": 10757,
        "豪": 2618,
        "▁Istr": 30799,
        "▁Giovanni": 26262,
        "め": 292,
        "▁Perj": 9872,
        "▁examples": 19944,
        "ediakan": 11435,
        "▁Lu": 15084,
        "▁Psychot": 17588,
        "衿": 59,
        "uard": 24790,
        "▁immigr": 17963,
        "▁surge": 21933,
        "भ": 829,
        "逃": 1968,
        "▁tok": 8709,
        "idiki": 28660,
        "掛": 4592,
        "▁Boris": 27527,
        "▁Orig": 12230,
        "ardinal": 16163,
        "▁Window": 26753,
        "▁1960s": 13987,
        "▁audiences": 22083,
        "▁silver": 14301,
        "▁mon": 6546,
        "-19": 8244,
        "继": 2786,
        "▁setengah": 15572,
        "ibat": 7967,
        "inya": 6207,
        "á": 78,
        "蚊": 5014,
        "-d": 10210,
        "umbers": 11304,
        "▁Gab": 12823,
        "rupt": 22852,
        "igs": 25517,
        "▁sedang": 8913,
        "urn": 6074,
        "te": 6173,
        "▁cargo": 18846,
        "▁exper": 8208,
        "▁Id": 10396,
        "▁pembuka": 24823,
        "▁satisf": 18484,
        "▁Yor": 23816,
        "▁lead": 6854,
        "▁perlawanan": 23658,
        "▁spectators": 31108,
        "▁Based": 25976,
        "▁berpusat": 21088,
        "▁Flora": 24720,
        "enan": 15930,
        "id": 5653,
        "▁Awalnya": 21924,
        "pred": 26752,
        "▁separate": 12865,
        "▁Personal": 21561,
        "Қ": 2694,
        "낮": 5478,
        "erbai": 15398,
        "▁kebebasan": 20542,
        "apes": 16013,
        "▁konser": 16189,
        "▁Live": 11578,
        "▁Micha": 25159,
        "▁Henri": 20248,
        "▁sailors": 30619,
        "▁favourite": 28899,
        "▁coaches": 29618,
        "▁provision": 26686,
        "▁kontemporer": 30244,
        "ৈ": 1531,
        "iwa": 7821,
        "▁Bell": 11325,
        "ar": 5583,
        "动": 4147,
        "▁Suz": 16739,
        "义": 4879,
        "▁insting": 17988,
        "▁1875": 25075,
        "▁politics": 17407,
        "omot": 12927,
        "unes": 20508,
        "▁Ley": 29333,
        "▁describing": 18330,
        "▁regiment": 18971,
        "uh": 5819,
        "▁memulai": 9480,
        "ξ": 166,
        "▁Terbaik": 9798,
        "▁Surakarta": 20937,
        "▁alam": 10244,
        "-6": 13519,
        "᷉": 3294,
        "▁Nar": 13101,
        "▁opposite": 18361,
        "ric": 8442,
        "vi": 21555,
        "𐩵": 2460,
        "▁Prop": 14678,
        "▁Senator": 17584,
        "▁IC": 21588,
        "▁advances": 30112,
        "▁Ó": 31143,
        "▁atlet": 16919,
        "▁Center.": 12176,
        "商": 507,
        "auh": 9041,
        "▁tergantung": 17607,
        "▁1851": 28105,
        "▁selling": 13641,
        "nee": 31189,
        "▁clay": 30042,
        "▁Alonso": 26328,
        "▁machine": 14481,
        "▁consistent": 25002,
        "▁successive": 30878,
        "▁kend": 10279,
        "莊": 5131,
        "hou": 25054,
        "▁disebabkan": 13517,
        "レ": 1506,
        "▁UK": 7801,
        "▁Of": 11945,
        "▁Kont": 13223,
        "▁mixture": 25671,
        "indahkan": 13180,
        "▁U2": 26757,
        "▁Suw": 31776,
        "insula": 16857,
        "▁Barcel": 19318,
        "▁Design": 15129,
        "juk": 24551,
        "bit": 8275,
        "▁saved": 23791,
        "弩": 4015,
        "念": 652,
        "ndonesia": 16881,
        "এ": 2712,
        "날": 4992,
        "▁174": 30122,
        "碰": 4908,
        "▁Nichol": 16851,
        "▁exclusively": 24673,
        "ᨑ": 196,
        "akluk": 19710,
        "惠": 4439,
        "▁CH": 23624,
        "▁subur": 23806,
        "−": 231,
        "arget": 24448,
        "붕": 3137,
        "▁Meks": 15051,
        "Down": 29169,
        "ob": 5866,
        "0.": 16223,
        "Ⴂ": 3316,
        "▁berhasil": 7972,
        "asiun": 7669,
        "▁block": 10977,
        "▁restore": 26206,
        "▁Akh": 20189,
        "akir": 30187,
        "ises": 13891,
        "▁why": 16057,
        "煎": 2714,
        "▁strongest": 22815,
        "▁unknown": 14543,
        "▁Riley": 30460,
        "▁Afrika,": 28426,
        "▁manapun": 30601,
        "蘆": 5210,
        "▁nas": 29398,
        "▁Pemakaman": 31131,
        "iner": 12012,
        "▁animation": 22088,
        "▁chains": 30531,
        "帥": 3332,
        "-tempat": 24152,
        "▁af": 19823,
        "▁sensitive": 29519,
        "▁altered": 23385,
        "▁Jump": 31064,
        "▁distinct": 13352,
        "駿": 3959,
        "merika": 17027,
        "▁Pete": 22342,
        "琮": 3723,
        "区": 2419,
        "▁Prov": 7360,
        "▁himself": 8798,
        "▁coba": 25351,
        "▁Series": 10946,
        "▁Will": 6969,
        "ᖅ": 4769,
        "▁surface": 11139,
        "▁Pastor": 27369,
        "ein": 9972,
        "Ɛ": 5111,
        "▁Oreg": 17676,
        "▁predecessor": 22292,
        "骁": 3204,
        "inya.": 9441,
        "垂": 3043,
        "▁team": 6676,
        "▁Biro": 20534,
        "awk": 12579,
        "hat": 10844,
        "▁dynasty": 21643,
        "▁WoRMS": 18124,
        "uters": 22661,
        "▁forces": 8637,
        "▁harian": 21115,
        "▁Hass": 21851,
        "▁Du": 12098,
        "▁nature": 12279,
        "劃": 3897,
        "▁36": 10269,
        "▁Toy": 15413,
        "ore": 5852,
        "▁Jal": 26639,
        "爛": 5550,
        "Ē": 2533,
        "▁pemberontak": 27226,
        "ials": 21637,
        "▁blocked": 25379,
        "▁deals": 31594,
        "ight": 5906,
        "▁composition": 17137,
        "▁Mika": 31559,
        "ʜ": 1279,
        "한": 427,
[...]
